#version: 0.2
č Ċ
Ġ \
ä ¸
Ġ\ (
\ )
t h
ï ¼
i n
ç ļ
çļ Ħ
ï¼ Į
Ġ čĊ
ã Ģ
_ {
Ġ a
t e
ä º
t i
m a
o n
Ġ th
ãĢ Ĥ
r a
å ı
r e
ä »
æ ľ
a l
^ {
Ġ &
å ħ
Ġth e
l e
a r
Ġ s
e n
å ¤
å Ī
Ġ o
è ¿
e r
Ġ\( \
å ®
t a
å ľ
} \)
ç Ķ
ä ½
Ġ c
} \
ma th
te x
æ ĺ
å Ĳ
i s
å Ĭ
æ Ī
ç »
e s
{ \
o r
Ġ p
ãĢ ģ
Ġ f
n d
Ġ t
æ ĸ
i g
tex t
Ġ w
Ġo f
b f
l a
ä¸ Ģ
Ġ d
è ®
in g
Ġ b
r o
å °
å Ľ
m e
Ġ in
åľ ¨
å ¹
ti on
h a
ä ¼
æ Ĺ
ä ¹
é ĩ
å Ń
æĺ ¯
è ¯
å º
Ġ -
ra c
} {
e l
å į
Ġ\ [
æ Ŀ
} (
æľ ī
Ġa nd
æ ķ
i c
å ¼
å Ĵ
å ¯
e d
ä¸ Ń
Ġt o
f rac
åĴ Į
é Ģ
s i
å Į
Ġ\ ]
å ¸
å ·
è ¡
} ^{
Ġ e
t s
å ĩ
æ ī
ç Ľ
å Ĩ
äº Ĩ
o u
æ Ģ
å ¾
ä¸ į
ĥ ½
f t
ä¸ º
, \
c al
a n
è Ģ
ç §
è §
math bf
) \)
æ ł
( \
ig h
ç İ
s t
çĶ ¨
ç ī
è ´
o l
e ta
r i
ä» ¥
} }
= \
äº º
h i
Ġ n
å¤ §
ç º
g a
æĪ ĳ
m b
å ±
ä¸ ª
Ġ re
s u
æ Ĭ
æ ŀ
é Ĺ
Ġ m
Ġ =
ä» ¬
igh t
æ ³
æ µ
v e
é Ļ
} _{
å ½
h e
a t
i t
è µ
è ĥ½
s e
é Ŀ
ç Ĳ
è¿ Ļ
æ °
å¯ ¹
æ İ
ra y
r ight
åı ¯
d e
æ Ķ
æ Ń
ä¸ ļ
math cal
æĹ ¶
¦ ģ
ar ray
äº İ
Ġ is
çĶ Ł
è ĩ
Ġ u
Ġ T
m u
Ġ g
ä¸ Ĭ
è ¦ģ
) \
å İ
åı ĳ
åĪ Ĩ
l y
å¹ ´
ä ¿
m p
_{ \
le ft
d a
h o
è¡ Į
ç Ń
l o
å ¥
å ¿
ä½ ľ
Ġ (
åĽ ½
e c
p ha
æĪ Ĳ
d o
é ¢
åŃ ¦
c e
è ½
al pha
è ¾
å ĳ
æĸ ¹
ä¼ ļ
æĪĳ ä»¬
æĢ §
åĪ °
å ĵ
en d
l i
æ ĭ
éĩ ı
Ġ 0
en t
te r
v er
åĬ ¨
æ ¯
æĿ ¥
Ġf or
\ \
in e
q u
å· ¥
Ġ i
æķ °
é ĺ
çĲ Ĩ
åĩ º
å Ł
Ġ 1
åº ¦
ç ®
g e
mb da
b e
æ ²
æ Į
) =
åľ °
Ġw i
- \
Ġ A
ä¸ İ
Ġ ma
å¤ ļ
Ġ\( -
ä½ ĵ
åĮ ĸ
ä ¾
Ġb e
t o
è¿ ĩ
è¿ Ľ
å® ļ
å ī
g in
äº §
^{ \
Ġ Ġ
ti t
é «
Ġc on
text bf
ç ¨
åŃ Ĳ
é« ĺ
Ġp ro
be gin
ç ½
çİ °
a s
p si
n g
åĲ Ī
Ġ h
Ġ\ \
Ġth at
c h
l ine
æ ı
Ġ on
æ ĥ
tex tit
åĬ Ľ
æ ¸
la mbda
Ġc o
Ġ\ )
p hi
Ġ y
} )
ç «
çŃ ī
çĶ µ
Ġ S
m ma
æ ±
æ³ ķ
ä¸ ĭ
å® ¶
åħ ¬
åĲ Į
u r
ç ³
+ \
æ į
su m
i r
åĲ İ
} =
æľ º
te d
Ġ I
éĹ ´
æĸ °
æ Ħ
me ga
ti al
å® ŀ
éĿ ¢
æ Ľ
Ġ C
å ¦
èĩ ª
æ ´
o d
p i
ç ľ
æľ ¬
Ġ W
Ġwi th
l l
åħ ¶
Ġa n
el ta
a tion
çĽ ¸
é ĥ
ç³ »
Ġ v
é ¡
ç ©
t u
è ¶
éĢ ļ
åħ ¨
ç Ĥ
ä¹ Ł
æ ¬
Ġ +
åĵ ģ
in t
} ,
ç§ į
åħ ³
é ķ
Ġe x
Ġa re
èĢ Į
è® ¾
éĥ ¨
å »
p p
ç» ı
Ġ x
Ġa s
åĪ ¶
é ģ
ç Ł
è °
å ģ
åº Ķ
åĬ ł
ç ¤
re s
p ar
c c
ä¹ ĭ
æı Ĳ
æľ Ģ
å¾ Ĺ
å¼ Ģ
åı Ĭ
éĩ į
Ġ M
é Ľ
ft y
çī ©
^{ -
å° ±
in fty
ä¸Ģ ä¸ª
å Ģ
ä» ĸ
æī Ģ
å¦ Ĥ
è Ĥ
} {\
ä¸ »
å¼ ı
å ŀ
ç ł
è® ¡
l on
ig ma
å± ķ
ç ¬
u s
ç¨ ĭ
Ġ çļĦ
Ġ ha
åľ º
ti c
æ Ļ
th eta
åĨ ħ
å¸ Ĥ
è¡ ¨
è ģ
å° Ĩ
ï¼ ļ
n t
u c
ç» ĵ
ä½ ¿
è ·
Ġ 2
par tial
}( \
å¹ ¶
å ¢
Ġ B
Ġd e
å» º
åī į
a b
r m
d i
x i
b eta
o p
} )\)
è ī
ng le
u l
çĤ ¹
å° ı
è´ ¨
å Ŀ
çī ¹
i l
é ļ
æŀ ľ
ç ±
åŀ ĭ
èĢ ħ
ç ¡
do ts
Ġ H
æ ¶
æ¯ Ķ
b b
éķ ¿
æ ¨
Ġw e
f f
Ġs u
Ġ P
[ \
ĠT he
é £
æ Ł
åı¯ ä»¥
æ° ´
d s
tion s
å¤ ĸ
o s
a c
æĺ İ
æĹ ¥
Ġo r
it y
åĽ ł
t r
| \
å¥ ½
äº Ľ
é ĥ½
å¿ ĥ
m es
ga mma
æĸ ĩ
Ġ F
åĬ ¡
}\ ]
çº ¿
ç ¾
Ġ L
s igma
åĮ º
h line
math bb
p er
æ¨ ¡
ä¿ Ŀ
ç» Ł
å¹ ³
p ri
a d
psi lon
i d
n e
) .
ç Ħ
æį ®
è§ £
ç® ¡
ç Ļ
é Ķ
æĪ ĸ
æĽ ´
æ ģ
çĽ ®
é ħ
æľ Ł
}^{ \
ä½ į
Ġ D
n u
Ġa l
æµ ĭ
å¸ ¸
) ,
y s
do t
Ġ ï¼Į
2 0
é ľ
ç ķ
ç ²
ä» İ
ç ĥ
ha t
pri me
t or
Ġ k
le q
åħ ¥
ç Ŀ
å½ ĵ
Ġ me
Ġ G
è Ĭ
Ġ R
Ġb y
) }
p la
er s
åı ĺ
æĥ ħ
m ent
Ġy ou
Ġ .
æŃ ¤
åŁ º
èµ Ħ
ç ¼
el l
çĶ ±
Ġs p
ti l
æĹ ł
åħ ī
Ġc an
ç ´
u t
è¿ ĺ
o mega
ä» ¶
æľ Ī
Ġ E
æĬ Ģ
ç¬ ¬
e ra
v ar
ä¿ ¡
} ^
å½ ¢
äº ĭ
åı ¸
ä» £
Ġm o
Ġ l
d elta
ç½ ĳ
ti mes
æľ ¯
åĪ ©
ç» Ħ
çĦ ¶
æİ ¥
æł ĩ
a re
s s
å §
til de
o w
è Ĳ
å¤ ©
te m
åĳ ĺ
r ho
e t
} }\
é ĵ
ta u
ç¤ º
è¯ ´
åį ķ
ä¸ ī
æĦ ı
å Ļ
Ġ ,
o t
Ġd i
d is
æ ¡
éģ ĵ
Ġw h
ro m
t ri
æŃ £
b le
y le
éĩ ĳ
æµ ģ
ä½ Ĩ
b ig
çł Ķ
å® ī
Ġ r
o m
ĠW e
ç ĸ
ä¸ ¤
è ¢
æ¬ ¡
æ º
} .
Ġ\( {\
åħ ·
å¾ Ī
åħ¬ åı¸
o ver
ï¼ Ľ
es s
è¿Ľ è¡Į
Ġa t
y st
è £
Ġd is
Ġ en
Ġ N
æķ Ļ
Ġ ãĢĤ
r t
æ ·
0 0
} ,\
) =\
_ \
} =\
ç± »
ic al
åĻ ¨
çĿ Ģ
é Ĵ
é¢ ĺ
\ [\
è® º
å¯ ¼
ä¼ ģ
ra ngle
éľ Ģ
æķ Ī
é ª
å¼ º
Ġ le
èµ ·
dis pla
Ġn e
} +
éĩ Į
yst yle
displa ystyle
n i
ç§ ĳ
åĲ ĳ
è§ Ħ
åĲ į
Ġf rom
è ĥ
åħ ĥ
è ĭ
æ´ »
s q
å ķ
é Ĥ
ç Ĺ
è¿ Ĳ
ç© º
ä½¿ çĶ¨
æ° Ķ
æŀ Ħ
Ġco mp
si on
è½ ¦
è¯ ģ
è¢ «
li m
å·¥ ä½ľ
éĿ ŀ
è Ī
æľ į
ç ¦
th er
åĲ Ħ
é ¦
ç¡ ®
c dot
sq rt
b ar
ç¾ İ
é¡ ¹
éĹ ®
äº Į
ic h
l d
åİ Ł
ä¼ģ ä¸ļ
æł ·
çĲ ĥ
æĢ ģ
\ ,
i de
Ġth is
O mega
æł ¼
ra n
re d
ä¾ Ľ
ä¸ ĵ
ti ve
äº ¤
ä» »
éĢ ł
Ġ te
å¤ Ħ
å £
çİ ¯
éĻ Ĳ
éĽ Ĩ
è į
Ġ lo
ç ģ
var phi
çİ ĩ
è° ĥ
math rm
è İ
æ± Ĥ
ro u
æĺ Ł
Ġ it
c i
æ ®
Ġs e
æĮ ģ
åĢ ¼
ç³» ç»Ł
èģ Ķ
D elta
é£ İ
Ġs o
è½ ¬
k e
æº Ĳ
æ Ĥ
en ts
1 2
t ing
ä¼ ł
æ »
Ġ\( (
åıĳ å±ķ
f or
åķ Ĩ
ç Ĭ
Ġ V
n a
ç« ĭ
Ġ U
å· ²
l u
1 0
é ©
æĸ Ļ
Ġp a
ç© ¶
ç® Ĺ
çº §
è¿ ĳ
s o
éĢļ è¿ĩ
è§ Ĥ
} -
æī ĭ
ä½ ł
è Ħ
çľ ĭ
åĮ ħ
èī ²
åĩ Ĩ
å® ĥ
i z
å¤ ĩ
å¢ ŀ
æĶ ¿
éĢ ī
o g
åĪ «
. \)
æĬĢ æľ¯
å¸ ĥ
e psilon
è¯ ¥
Ġ X
åĪ Ľ
ho w
åı Ĥ
åı Ĺ
ç ¥
è£ ħ
æ £
n c
Ġs ta
å½ ±
è¾ ĥ
m s
åĨ ³
ä¹ Ī
æĦ Ł
ç Ī
} _
Ġ z
èĢ ĥ
æ² ¡
æĸ ¯
çĥ Ń
è ¥
çŁ ¥
æĺ ¾
è¾ ¾
l dots
è¥ ¿
ä½ İ
æĬ ¥
éĢ Ł
çłĶ ç©¶
éĹ ¨
æ° ĳ
æĶ ¶
Ġu s
éª Į
å® Į
è· ¯
æĿ ¡
i v
ra l
m in
æĶ ¾
è¶ ħ
è Į
å ĸ
éĻ ¢
çĽ ´
åı ĸ
æķ ´
G a
è Ļ
Ġwh ich
èĩ ³
ä» ·
äº§ åĵģ
Ġ 3
æĪ ·
æĢ »
åģ ļ
Ġ j
åħ ±
ï¼ ī
ou s
æĹ¶ éĹ´
ç» ´
te n
æľį åĬ¡
è º
Ġ he
Ġha ve
Ġ O
v el
) ^{
ä¸Ń åĽ½
ï¼ Ī
d uc
çĬ ¶
åħ Ī
Ġ la
æĮ ĩ
çķ Į
Ġ qu
å° ĳ
åĬ Ł
te s
lo g
ç§ °
å¹ ¿
Ġ ra
æµ ·
éĹ® é¢ĺ
ĠT h
åĽ ¾
\ |
Ga mma
æ¯ ı
le s
åı ª
t y
èº «
ĠI n
ä½ ķ
ä¼ ĺ
åİ »
n ab
ro w
le c
è¿Ļ äºĽ
Ġ K
Ġa pp
æĥ ³
Ġm od
èµ Ľ
å¸ ¦
u m
c k
e x
æİ ¨
åı į
Ġc a
c hi
èĬ Ĥ
ç¦ »
æŁ ¥
å¼ ķ
å® ¹
Ġ li
åŃ ĺ
æģ ¯
) ^
éĤ £
ä¸ ĸ
è® ©
åı °
ou r
nab la
è® ¤
æ¸ ©
æŀ ģ
å¤ į
b ol
åį ģ
Ġ 4
éĺ Ł
åı £
å° Ķ
æĶ ¹
1 1
ç² ¾
è´ ¹
åĨ µ
se t
lo w
ç®¡ çĲĨ
}{ |
é¢ Ĩ
æıĲ ä¾Ľ
æ ¼
èĩ ´
v i
æ³ ¨
Ġo b
ç» Ļ
y mb
^{ (
éĺ ²
æł ¡
Ġi mp
ymb ol
ä¸ ĩ
é »
e re
åĮ »
en ce
^ \
æķ° æį®
Ġ\ ,
åı¯ èĥ½
èĲ ¥
Ġs t
g h
Ġp o
| }
åŃ Ĺ
i tem
æ¶ Ī
Ġa b
æ² »
3 3
æ¡ Ī
tu re
w ide
æĸ ½
on s
ç £
çĻ ½
èİ ·
çĹ ħ
Ġs a
s in
æł ¹
éħ į
Ġ J
Ġin c
ds ymbol
åŁ Ł
bol dsymbol
åĽ ŀ
Ġp la
ti es
ç¤ ¾
å· ±
è¯ ķ
æĬ ķ
æ²¡ æľī
æŃ ¥
ä¸ ľ
s p
ç» Ń
a nd
å¸ Ī
èĤ ²
th e
åĪ Ļ
åİ ĭ
è® ®
ta n
æİ §
Ġn ot
æ® µ
tri x
ec t
or k
ig n
Ġd a
åĽ ¢
æĶ ¯
Ġthe ir
ç½ ®
ge q
P hi
çº ¦
æĿ Ĳ
è§ Ĩ
åŁ İ
è ±
åį ³
o re
æ¸ ¸
å® ¢
c u
Ġf u
å ²
åį Ĺ
æĺ ĵ
éľĢ è¦ģ
Ġp ar
} }{
æĸ¹ æ³ķ
å¯ Ĩ
èĩª å·±
æİ Ĵ
1 9
éĻ ħ
é¢ Ħ
åĵ į
c os
ä¾ ĭ
T he
v es
ation s
ç§ ¯
ä¸į åĲĮ
æ³ ¢
éĩ ĩ
å± Ĥ
Ġf i
é Ł
d ing
ta in
åĽ Ľ
æī ĵ
åĮ Ĺ
å Ķ
å¸Ĥ åľº
a ch
å¢ ĥ
Ġal so
1 6
c a
å¦Ĥ æŀľ
åĪ Ĺ
Ġyou r
åĬ ŀ
ç ħ
ï¼ Ł
è® °
æ ¢
åĩ ł
å¾ ®
ç´ ł
p ro
ä¸Ń çļĦ
æĪ ĺ
Ġ 5
ar i
æĥħ åĨµ
å ¡
éļ ı
Ġ\( |
a pp
åı ·
ä¹ ī
ä»¥ åıĬ
}_{ \
re a
åĬ ©
ä¸ Ķ
d er
éĢ Ĥ
æ¨¡ åŀĭ
Ġp er
ma trix
è¿ ŀ
è´¨ éĩı
ç»ĵ æŀľ
qu ad
are psilon
å¿ «
ä¸» è¦ģ
v arepsilon
1 5
Ġw a
çĶŁ äº§
è®¾ è®¡
çľ ģ
Ġw as
ä¹ ¦
u st
æ· ±
æĬ ¤
åħ· æľī
å± ±
B ig
ou t
er g
å§ ĭ
å¾ ·
ti cal
\ {
Ġa d
Ġs tu
çľ Ł
è¶ ³
å° Ħ
ä¸Ģ ç§į
f ic
^ *
è¿Ļ ä¸ª
} +\
: =
) )
æĿ ĥ
åĨ į
Ġe v
æ¸ ħ
} |
ar y
æ£ Ģ
ou nd
Ġ {
Ġha s
åį ĩ
æī į
åħ ĭ
æł ¸
Ġs i
Ġ 6
1 3
æŀ Ĳ
æľ ª
é ¥
p e
æ Ĵ
ä» Ĭ
ul ar
éĻ ¤
Ġa c
å¤ ´
é¦ ĸ
åĳ ¨
1 8
l ic
st ar
i es
L a
}\ \
ç ĭ
åĳ Ĭ
äº Ĵ
su l
Ġ ti
èĮ ĥ
over line
èĢ ģ
1 4
er v
Ġc ha
a ce
æĸ Ń
Ġmod el
2 5
å¯¹ äºİ
æĭ ī
ys tem
ç« Ļ
Ġex p
} )\
é© ¬
re e
w e
äº ļ
, \)
å± ŀ
å± Ģ
Ġs how
la ngle
ma l
ou ld
å¿ ħ
; \
s f
ä¿¡ æģ¯
é¡¹ çĽ®
p h
å½± åĵį
Ġd o
Ġ ãĢģ
) (
è® ¸
çĽ¸ åħ³
ex p
ç ¢
Ġo p
Ġdi ff
Ġe ff
ç± ³
Ġ {\
æĿ ¿
ar d
Ġp res
1 7
Ġ Y
è¶ Ĭ
åıĳ çİ°
al ly
å°± æĺ¯
åº ı
åĽ½ å®¶
è§ ģ
Ġf in
é£ Ł
Ġg en
ra te
Ġ 8
Ġ 7
ç» Ĩ
an t
æĭ ¬
c ol
ol u
p m
éĥ¨ åĪĨ
}\ ,
i j
Ġre sul
åĪĨ æŀĲ
r y
d y
å¼ Ĥ
æ ĳ
Ġmo re
è¯ Ĩ
l n
è§ Ĵ
ç©º éĹ´
) +
Ġ |
ir c
ç® Ģ
Ġt w
è¯ Ń
Ġi ts
è¯ ·
æĬ Ĭ
ĠTh is
La mbda
Ġs tr
2 2
p s
å· ŀ
éĩį è¦ģ
ç»ĵ æŀĦ
ï¼ ģ
a m
f ra
le d
ä¹ Ĳ
å®ī åħ¨
ä½ľ ä¸º
he re
su b
åĽ ´
çī ĩ
æĸ¹ éĿ¢
å¤ Ł
æ ļ
ç£ ģ
åĪ Ĵ
è®¡ ç®Ĺ
æĺ¾ ç¤º
çĸ Ĺ
a te
Ġin te
i ts
è ħ
Ġs ystem
ãĢ ĭ
o x
Ġp re
è ŀ
Ġt ran
c on
u e
ãĢ Ĭ
e ar
Ġ 9
ma n
ç¥ ŀ
ol og
è± ¡
åį ı
Ġ åľ¨
m o
æĻ ¯
Ġ q
è®¾ å¤ĩ
ä¾ ¿
åĲĮ æĹ¶
Ġwi ll
Ġ (\
åĩ ı
Ġbe t
) }\
ç ª
æ ¹
å¹ ²
la tion
a st
çĲĨ è®º
Ġa r
è¿Ļ ç§į
éĶ Ģ
åı Į
æµ İ
Ġthe y
å ĥ
åĬ ¿
å· ®
as es
åºĶ çĶ¨
åĽł ä¸º
era tor
}^{ (
æ ĵ
è¡Į ä¸ļ
} }\)
è¿ĩ ç¨ĭ
çİ¯ å¢ĥ
ä»ĸ ä»¬
èģ Į
3 0
è¾ ¹
Ġh igh
) -
Ġthe se
m on
ä¾ Ŀ
c o
åĿ ĩ
Ġon e
Ġ ta
éŁ ³
æł¹ æį®
æ² ¹
åį İ
6 7
Ġn o
c dots
æ» ¡
é¢ ĳ
b u
ä¹ ł
m ents
éĻ į
æĻ º
Ġ Q
èĬ ±
åħ »
2 4
] \)
c irc
åĮħ æĭ¬
g es
ç¾ ¤
æĪ ¿
è´ £
ä¸Ģ äºĽ
çĪ ±
è¦ģ æ±Ĥ
ar row
éļ ¾
Ġd es
Ġa ll
ä» ħ
åį Ĭ
çħ §
k ing
il ity
æĭ ©
å¤ ª
æ¼ Ķ
çī Į
ta tion
åħ¶ ä»ĸ
æį ¢
æłĩ åĩĨ
æ Ĳ
o times
äº Ķ
åĪ ĩ
èī º
ä¹ĭ éĹ´
Ġso me
å»º è®¾
è¾ ĵ
è¯ Ħ
g ra
i on
ä¿ ®
ä¸ĵ ä¸ļ
ä¼ Ĺ
m en
nd er
^{ *
æ´» åĬ¨
åĥ ı
è§£ åĨ³
ç Į
p o
åħ ħ
æĻ ®
ä½ľ çĶ¨
çŁ ³
Ġs h
k s
æ ¦
\ ]
ç ı
å¥ ³
è¿ °
æīĢ æľī
æĪĲ ä¸º
g er
åĬŁ èĥ½
è¯ Ŀ
e w
éĢī æĭ©
ä» Ģ
or t
Ġti me
æ ħ
è ı
è´ Ł
} -\
z eta
app a
äº§ çĶŁ
æľ Ľ
Ġco m
çº ¢
2 3
ç¨ ³
ma tion
ä¸Ń å¿ĥ
Ġtw o
Ġ ro
c es
å§ Ķ
å¤Ħ çĲĨ
éĿŀ å¸¸
Ġs c
fra k
k appa
åı Ī
at u
èİ· å¾Ĺ
ç»ı æµİ
is h
åĽł æŃ¤
\ [
åĢ Ļ
Ġo ur
Ġ æĪĳä»¬
s ta
Ġ ga
å·¥ ç¨ĭ
Ġ )
åĲ «
æķĻ èĤ²
el d
çĶŁ æ´»
æĸ¹ å¼ı
æķ £
ve c
Ġo ut
mp le
å ĭ
2 1
Ġsu ch
,\ ,
çĶ¨ äºİ
çĽ ĳ
èĭ ±
è ĳ
åİ Ĩ
Ġre g
math frak
èĪ ¬
å¼ ł
) }{
5 0
åĨ ľ
m ic
al s
å¤ ±
å¤§ çļĦ
Ġa cc
Ġc ol
Ġ\(\ {
st r
ç» ľ
ä¸ĸ çķĮ
t ro
. .
åģ ¥
ä¼ ¼
å·² ç»ı
æĮ ī
å£ «
å® ¤
èĤ ¡
åĳ ½
we en
ç¤¾ ä¼ļ
Ġo ther
Ġb ut
Ġdiff ere
Ġ ho
æī ¿
on e
Ġ åĴĮ
n ow
ter s
as ed
Ġc or
ne q
& {
Ġgen era
æµĭ éĩı
æ² ³
åŃĺ åľ¨
Ġpro v
o me
æľī éĻĲ
ä»Ģ ä¹Ī
ä» ĭ
äºº åĳĺ
Ġ Z
Ġe qu
ç¬¬ ä¸Ģ
s erv
ä¸¤ ä¸ª
tr ic
re c
éĻ ©
è ¨
è¨ Ģ
èį ¯
åĩº çİ°
ç» ĩ
math sf
Ġb o
çĬ¶ æĢģ
æ¬ ¾
èĥ½ åĬĽ
Ġth an
Ġma y
åĪ Ŀ
n s
çĶ± äºİ
æĿĲ æĸĻ
2 7
2 8
å¥½ çļĦ
Ġda ta
su re
èŀ į
T h
ver y
f i
å¾ Ģ
Ġg ra
èĥ½ å¤Ł
çº ³
è¿ ľ
6 0
å®ŀ çİ°
Ġne w
o od
Ġbet ween
åº ·
ä¸ ¥
åŃ¦ çĶŁ
i th
d x
4 0
na me
æī ©
åĽ Ń
P si
Ġre c
çĶµ åŃĲ
ç§ »
ç½ĳ ç»ľ
éĺ ³
åĶ ®
å Ħ
ä» ½
a y
çŃ ĸ
éħ Ĵ
ä¸Ģ èĪ¬
åľ Ł
åħ¶ ä¸Ń
Ġsp ec
& \
çĭ ¬
äº ¬
a ted
æĢ Ŀ
Ġw ork
Ġ [
åº Ĺ
ca p
æ ½
o f
çģ «
ç» Ī
l us
åħ į
Ġv ari
çĽ® åīį
æŀ Ĺ
èĲ ½
è¿Ļ ä¸Ģ
Ġfu nc
op erator
Ġc al
ti v
Ġd ec
å£ °
å¿ µ
erg y
éĴ ¢
: =\
ç½ Ĺ
e p
2 9
ar ge
Ġu se
å ¨
Ġ }
ä¸Ĭ çļĦ
{ (
åĲ ¸
é ¾
Ġin to
si ty
æĤ ¨
éĺ ¶
å¼Ģ å§ĭ
Ġ& =
operator name
æīĢ ä»¥
è¿Ļ æł·
ab le
çļĦ æĺ¯
çĽ Ĭ
Ġin ter
Ġan al
åį ¡
or y
per i
e qu
right arrow
åº ľ
çİ ĭ
çĻ ¾
çļ ®
æ¯Ķ è¾ĥ
iz e
a u
c ri
Ġwh en
è° ±
Ġo ver
æĽ ²
äº ¿
åĦ ¿
ä½ ı
2 6
æĵ į
c ess
äº ī
< \
è¡¨ ç¤º
tion al
Ġn on
æĹ ©
wide tilde
æĿ¡ ä»¶
tri bu
Ġre la
å¥ ¹
ç« ¯
äº§ ä¸ļ
æ± Ł
åģ ĩ
i al
å ł
æİ§ åĪ¶
åŁ ¹
è´ Ń
wide hat
ä¸į æĺ¯
ç¼ ĸ
é¡ »
Ġapp ro
pro d
ĠI t
å¾Ī å¤ļ
Ġbe en
| ^
Ġu p
æĸ° çļĦ
åı ¤
åĽ º
åħ³ ç³»
åŃ £
åħ ļ
å®ļ çļĦ
rou gh
g ne
å½¢ æĪĲ
mb er
è½ »
4 5
åİ Ĥ
Ġp e
p a
rou nd
è¯ģ æĺİ
sub set
p end
å· ´
æŁ Ĳ
åĨ Ľ
in s
4 8
æİ ¢
u n
Ġab out
te ri
Ġi f
ir st
åĽ½ éĻħ
d en
}} {\
å¾ ģ
Ġc ou
æĮ ¯
7 5
éĵ ¶
åĩ ½
ä¹Ł æĺ¯
åı ¦
3 5
åº ķ
)\ ,
èµ °
æıĲ é«ĺ
& =
çĶ¨ æĪ·
te c
å¾ ĭ
/ \
es t
æ¨¡ å¼ı
Ġst ar
Ġinc lu
æĬķ èµĦ
o se
æĤ £
ç ĵ
çŃ ĳ
Ġw ell
Ġs ur
éĩĩ çĶ¨
æŃ ¢
æĭ Ł
åı ĭ
Ġpar tic
9 9
( -
æģ Ĵ
æĹ ĭ
æĸĩ åĮĸ
o ra
æ¦ Ĥ
èĻ ĳ
3 8
is e
æĸ¹ æ¡Ī
æĿ ĳ
} )=
æľī æķĪ
c ha
Ġsu b
Ġu n
Ġ how
çī Ī
åĳ ³
Ġdis c
~ ~
Ġf e
ra me
åıĳ çĶŁ
vel op
ç¡ Ģ
æ ¤
mb ox
æ ¿
åĨ ·
ä¸ ¾
ç´ ¢
Ġc la
è§ ī
Ġc h
} }(
n ce
å¤§ å®¶
Ġus ed
Ġ es
t on
v ing
å®ŀ éªĮ
æĹ ħ
Ġresul ts
è Ĵ
}^{ -
å¸ Į
Ġ æĺ¯
æ¶ ²
è¯ ¾
i an
ç² Ĵ
6 6
ac t
cu p
å° ½
å¯ Į
åŁº ç¡Ģ
å½ ķ
ç»Ħ ç»ĩ
n ing
åħ °
å® ¡
ec ts
æ± ½
éĿ Ĵ
t in
Ġw ho
æĪĳä»¬ çļĦ
Ġh el
d u
éĵ ģ
ä½Ĩ æĺ¯
å¤§ åŃ¦
äºº çļĦ
Ġre p
Ġn u
å± ħ
åįķ ä½į
Ġob serv
åı ²
åį °
èģ ļ
' s
( {\
lon g
ta g
çĶ »
æ¿ Ģ
åĿ Ĺ
ç¬ ¦
Ġwe re
Ġstu dy
å¼Ģ åıĳ
è´ §
èī ¯
ç§ĳ æĬĢ
é» ĳ
3 7
on g
åĲĪ ä½ľ
å¹³ åı°
Ġb ec
çł ģ
i te
S igma
åĩ »
åħ ¸
åĸ Ħ
åŃ¦ ä¹ł
åĪ© çĶ¨
çķ ¥
Ġt ra
Ġe lec
\ !
åĨħ å®¹
åĵģ çīĮ
4 7
p matrix
è® ¨
çļĦ ä¸Ģ
). \)
Ġp h
Ġs ec
4 9
Ġw here
æī ¾
å®¢ æĪ·
æĹ¶ åĢĻ
çī¹ åĪ«
3 6
Ġthe re
æĶ¿ åºľ
çļĦ äºº
8 0
Ġqu an
åħ ´
al th
å Ĥ
) ,\
or s
Ġp ol
Ġus ing
Ġk now
ä»» ä½ķ
Ġme a
a k
è Ĩ
éĺ ¿
\ }
ç¾İ åĽ½
åĨ Ļ
Ġ äºĨ
å¢ŀ åĬł
ä¼ °
Ġan y
æĪ ı
æķ ħ
å¯ Ł
Ġen ergy
olu tion
çŁ Ń
_{ -
res s
3 9
åĩ½ æķ°
éĢ ģ
åŁİ å¸Ĥ
re at
åĲ ¦
çº ª
éĥ½ æĺ¯
Ġre s
åŁº æľ¬
äº ĳ
èĢĥ èĻĳ
çĸ «
on d
equ iv
Ġin f
th od
Ġt y
Ġex peri
) }\)
ac k
v en
æĵį ä½ľ
åį ´
å¦Ĥ ä½ķ
ç¬¬ äºĮ
}\ }\)
Ġ =\
Ġ\( [
é ²
Ġlo w
c y
å»º çŃĳ
é¢Ĩ åŁŁ
ç¡® å®ļ
è½ ¯
Ġthe m
æĿ Ĥ
Ġma n
åŃ ©
è¡ ¥
çİ° åľ¨
ä¸º äºĨ
å¯¼ èĩ´
f e
es e
æı ı
åĲĦ ç§į
æ ¥
) |
Ġmo st
æ¸© åº¦
u b
æ· ·
æıĲ åĩº
ä¸ ´
éĤ£ ä¹Ī
Ġv al
åĪĽ æĸ°
c ases
ra tion
æ²» çĸĹ
ç« ŀ
Ġf irst
f ul
Ġon ly
æĴ Ń
éĺ¶ æ®µ
Ġfi eld
äºĨ è§£
d t
s c
é¢ Ŀ
çł ´
å¥ ĸ
åĪ° äºĨ
m is
åıĤ æķ°
Ġh is
è® Ń
i li
) }(
ç´ §
4 6
y m
ç¦ ı
æķ° åŃĹ
åį ł
çı Ń
è¡¨ æĺİ
ç¼ ©
å° ¼
i a
Ġw or
Ġpro duc
al l
åĿ ļ
ç Ĩ
è´ ¢
éĵ ¾
æŀ ¶
åį ļ
çĶ ³
ed ge
7 0
æĪĸ èĢħ
æī §
Ġpro cess
an ce
éĥ¨ éĹ¨
\ ,\
Ġne ed
éĽ ¶
Ġde velop
éĽĨ åĽ¢
åī Ĥ
' (
åĨ ²
}. \)
æľī åħ³
Ġdiffere nt
o k
ic e
9 0
çķ Ļ
åİ ¿
å·¥ ä¸ļ
åıĺ åĮĸ
è· Ŀ
Ġc ur
è® ²
æī ¹
æľ ¨
æ¬ §
éľĢ æ±Ĥ
å¸ ®
} ]
åŃ¦ æł¡
è¿Ĳ åĬ¨
å®Į æĪĲ
äº «
o c
è½ ½
èĮĥ åĽ´
çĽ ĺ
åį «
v ed
å¿ Ĺ
éĶ ®
8 8
ti s
ä» ª
æ¶Ī è´¹
æĻº èĥ½
ç» §
ver t
å¿ħ é¡»
æľĪ æĹ¥
Ġme thod
é¡ º
Ġcomp le
è¯ »
ç®Ģ åįķ
çĽ´ æİ¥
æŁ ĵ
æį Ł
str uc
ta nt
éĺ µ
åī §
x y
æ± ¡
5 5
éļ ľ
èµĦ æºĲ
Ġpro per
æĢ§ çļĦ
ign ed
ç» Ŀ
æľº æŀĦ
ç§ĳ åŃ¦
æĬ Ĺ
åľ° åĮº
la tions
ä½ĵ çļĦ
ing s
çª ģ
Ġpro ble
è®¤ ä¸º
ç»ĵ åĲĪ
éĩ Ĭ
å¢ŀ éķ¿
ç ¿
Ġ- \
åģ¥ åº·
w ork
is t
en e
åĪĨ å¸ĥ
é» Ħ
Ġma ss
è½ ®
æĶ¯ æĮģ
æĭ ħ
I n
ä» ¤
m er
ä¸į èĥ½
Ġcon si
tu m
ç ĩ
hi le
Ġ :=
å® Ŀ
Ġstr uc
ä¸į æĸŃ
Ġ ä¸Ń
ä½ Ļ
æ¬ ¢
éĢŁ åº¦
ä¸ °
è¿Ļ æĺ¯
ä¸Ģ æŃ¥
ou gh
si ve
è¡ Ģ
ä»¥ ä¸Ĭ
ic i
i ve
èĥ½ éĩı
Ġc hi
} [
æĿ¥ è¯´
lim its
äº ²
è¿ĺ æĺ¯
r u
big g
ä»£ è¡¨
èĩªå·± çļĦ
æľ¬ æĸĩ
3 4
Ġth rough
ç¨³ å®ļ
men sion
ç» į
) +\
b ra
æ°´ å¹³
Ġte ch
tor s
Ġp os
æıĲ åįĩ
^{ -\
å® ³
èĻ ½
é¾ Ļ
å¥ Ĺ
èĩª çĦ¶
ä» į
er t
é¦ Ļ
è°ĥ æŁ¥
}^{ *
è¡Į ä¸º
ä¹ °
Ġsu pp
b ility
éĻ Ħ
6 5
åħ³ äºİ
}^{ +
è®¸ å¤ļ
æ´ ²
ä¿Ŀ æĬ¤
op le
åĪ° çļĦ
å½¢ å¼ı
a g
ar k
n ess
ä¸ª äºº
si ble
Ġ ĠčĊ
çľ ¼
Ġ ä¸Ģ
éĢ ı
æł ĳ
Ġb u
æĿ¥ çļĦ
åº ĵ
for mation
åħ¨ çĲĥ
| _{
ä¸į ä¼ļ
ç¼ º
åĸ ľ
me d
* {
åĮº åŁŁ
ä¸ļ åĬ¡
8 5
æī ĺ
m i
ç» ¼
gne tic
Ġfin d
Ġu ni
o v
Ġbo th
æ±½ è½¦
æĭ Ľ
ar ch
æľĢ åĲİ
Ġd y
9 5
å¯¹ ç§°
åº¦ çļĦ
Ġhel p
Ġimp or
ä»· æł¼
Ġ2 0
r on
ç½ĳ ç«Ļ
éļı çĿĢ
ä»ĭ ç»į
å® £
å¾ Ħ
è®¡ åĪĴ
ç¨ İ
su p
åħ Ń
è§Ĥ æµĭ
in d
Ġte mp
) ^{-
ç ¯
Ġre sp
in ed
ow er
4 4
çĽ¸ å¯¹
æ³¨ æĦı
olog y
w a
Ġ ter
éĶ Ļ
å®ŀ éĻħ
æĸ¹ ç¨ĭ
éħ ¸
t ra
w edge
æĭ ¥
åĪ¶ éĢł
] \
en s
è¡¨ éĿ¢
7 7
åį ĥ
åŃ© åŃĲ
åħ¨ åĽ½
&{ {
åĲ ĥ
Ġsta te
äºº æ°ĳ
Ġy ear
Ġg rou
Ġman y
èĢĮ ä¸Ķ
_{ (
Ġpres ent
ä¹ĭ åĲİ
çĽ® æłĩ
e ver
åĮĹ äº¬
Ġcla ss
le r
å® ĺ
Ġf ac
åī ¯
Ġpa per
çº¿ æĢ§
èĥ Į
æĤ£ èĢħ
å ³
èĪ ª
æľīéĻĲ åħ¬åı¸
å¥ ĩ
6 8
Ġd en
an s
æķĪ æŀľ
Ġf ound
Ġ "
ç» ¿
ical ly
æĽ ¾
åľ Ĩ
å»º ç«ĭ
è¾¾ åĪ°
Ġu nder
ä¸Ģ å®ļ
3 2
çĽ ĸ
i e
ä¹ İ
æ¸¸ æĪı
ym me
Ġsu per
m id
æıı è¿°
al a
)\ \
ä¼ł ç»Ł
ĠF or
ç« ł
å¾ ħ
ç³» åĪĹ
å¥ ¥
\ {\
å®Į åħ¨
si tion
el f
an g
ä½ ³
6 9
col or
ur ing
èĭ ¥
cc c
èĩª åĬ¨
Ġhe alth
) }{\
\ }\)
ãĢĤ }
ä¹ĭéĹ´ çļĦ
q quad
éĩı åŃĲ
é ¸
èĭ ı
é¡ ¶
Ġs et
Ġ _{
éĩı çļĦ
å® ĩ
å» ¶
åħī è°±
åĽ½ åĨħ
åº §
æģĴ æĺŁ
æĽ´ å¤ļ
éĻĲ åĪ¶
qu i
è®¨ è®º
Ġnu mber
Ġquan tum
tor y
çī¹ æĢ§
t al
æĬ¥ åĳĬ
Ġsp ace
Ġcon di
. }\
å¹´ çļĦ
tr y
æĿ Ł
ä¹ĭ ä¸Ģ
è§Ħ æ¨¡
\| _{
Ġob tain
si m
Ġor der
Ġli ke
æ¸ ¯
æ¯ į
tan ce
Ġs cal
ol d
æ£Ģ æµĭ
å¼Ģ å±ķ
è§Ħ å®ļ
çĹ ĩ
åħ³ éĶ®
çĮ ®
Ġ\ {
Ġc ar
i o
ç»ı èĲ¥
li z
3 1
åĬ ³
å° ģ
æĶ¿ çŃĸ
Ġthe ory
æ¨¡ æĭŁ
æĢ§ èĥ½
Ġtran s
çĦ¶ åĲİ
åĩ Ģ
iz ation
åĬ¨ æĢģ
Ġ\(\ {\
l ing
ä¼ ¤
Ġm u
éĿ ł
éĿ ©
Ġcon s
åĩı å°ĳ
å¯Ĩ åº¦
ä¸Ģ èµ·
åĵ ª
Ġs te
ä¿ ĥ
æ¹ ĸ
text color
èĻ½ çĦ¶
åģ ľ
éĢł æĪĲ
åĨ ł
Ġpe ople
çī© è´¨
b in
r ic
w n
å®ĥ ä»¬
7 8
æ³ Ľ
éĴ Ł
ç² ī
col on
u re
ma x
el y
éĴ Ī
è¿Ľ åħ¥
Ġm ul
i m
Ġ\ ;
Ġra di
æĿ ¾
æ´ Ĺ
9 8
b it
æĮģ ç»Ń
ç»¼ åĲĪ
èĥ½ æºĲ
å¸Į æľĽ
æĿ İ
ten tial
çĻ »
} /
æ° §
Ġfunc tion
Ġpa rame
è ĸ
tr on
a se
çŁ¥ éģĵ
c ed
åı ³
åĮ» éĻ¢
}^ \
åĪ »
è¶ħ è¿ĩ
Ġex a
d es
è· Ł
æĹ ı
è¿Ľ ä¸ĢæŃ¥
æŃ¤ å¤ĸ
åĬ¨ åĬĽ
f ter
Ġs ol
çŁ¥ è¯Ĩ
çĶ ·
å¹ ħ
g en
Ġl arge
per p
é¦ Ĩ
æ¯ Ĵ
ä»· åĢ¼
Ġde f
ta nd
è¿Ļ éĩĮ
da g
is tic
è¿ĺ æľī
is m
åĤ ¨
f ore
p le
ä» ĺ
Ġdes cri
Ġu nd
å· ¦
å ©
èĥ ľ
Ġg iv
= -
Ġp ha
us s
æ½ ľ
) ^{\
å¸® åĬ©
é£ ŀ
al igned
å¤ «
åĲ ¬
è´Ł è´£
vel y
Ġdis tribu
ment al
h en
å ª
çĻ ľ
å¹¶ ä¸Ķ
éķ ĩ
ä¸įåĲĮ çļĦ
æĺ ¥
èĢ Ĳ
& =\
çģ µ
åĮĸ çļĦ
at ing
éĶĢ åĶ®
çī© çĲĨ
Ġsystem s
æ¢ °
éĢ Ĳ
}\ }_{
Ġ line
¤ Ĳ
æĥħåĨµ ä¸ĭ
æĭ¥ æľī
å½ ©
ç§¯ æŀģ
æĹĭ è½¬
te nt
åģ ı
éĩĳ å±ŀ
è Ĺ
ä»¥ ä¸ĭ
ec tive
é ¼
di v
æ¯Ķ èµĽ
å° º
å¾Ĺ åĪ°
tiv ity
ma ll
| ^{
çĻ½ çĻľ
00 0
ç¡ ¬
a v
ce p
æĹł æ³ķ
Ġtemp era
a ge
Ġk e
åºĶ è¯¥
re n
i ll
or d
ç»Ħ æĪĲ
ec ted
å®ŀ æĸ½
al ity
åº Ń
æ¯ı ä¸ª
i f
å»º è®®
çĽ¸ äºĴ
Ġal low
9 7
) -\
çŃ ¾
od y
çī Ľ
å¡ ĳ
çĻ½çĻľ é£İ
æĸ¹ åĲĳ
ç» ĥ
æĪĲ åĬŁ
ä¸į ä»ħ
èĳ Ĺ
æľª æĿ¥
é¥ ®
æĪĲ æľ¬
ç¨ĭ åºı
å® ½
é º
çļĦ å¤§
åıª æľī
è¯ ¢
æ± ī
Ġm in
éģ ¿
ç» ©
é ½
é Ĩ
æ¤ į
. -
ran ge
Ġ very
Ġthe n
åŃ¦ éĻ¢
åĳ ¢
çİ ©
äºĨ ä¸Ģ
éĿ Ļ
u me
ng th
å®¹ æĺĵ
t ter
ç±» åŀĭ
Ġinte rac
äº ®
Ġsh ould
åı ¶
äºº ä»¬
Ġg o
ä¹ ¡
è§ ¦
éļ Ķ
æĮ ¥
æĦ ¿
Ġcon f
è ĵ
for m
n ge
èīº æľ¯
} |\
s h
Ġca se
6 4
Ġa u
Ġh y
çĶŁ çī©
å· ¨
Ġma ke
Ġe ach
ä¿Ŀ æĮģ
åĲ ¯
mis sion
le ss
Ġimpor tant
æ¶ ī
çĶ ļ
è¿ŀ æİ¥
Ġin ves
Ġev en
Ġa g
Ġma in
r in
l ish
è¿ĩç¨ĭ ä¸Ń
æ» ĳ
çĶ³ è¯·
ic s
Ġp ri
la ck
å¨ ģ
ç²Ĵ åŃĲ
d ic
op lus
è½ ´
f ora
}, \)
æĺ¯ ä¸Ģ
), \)
å±ķ ç¤º
Ġcon c
Ġprov id
éģ ĩ
åıĳ å¸ĥ
Ġpo tential
æĺ¯ åĲ¦
5 8
æĺŁ ç³»
}{ (
P i
ig ni
åİĨ åı²
u nder
Ġs ing
æ£Ģ æŁ¥
Ġs our
Ġle vel
æ»¡ è¶³
ro ss
Ġb ound
s ing
è¯ ¯
Ġp ower
è¡ ¡
f er
. }
ç¥ ¨
é ¤Ĳ
é¡ ¿
æĹħ æ¸¸
fora ll
çŁ ©
ation al
Ġse e
èĥ ¶
è Ľ
o b
la ted
æİ Ī
z e
Ġb ased
ma te
na mic
æł¸ å¿ĥ
æĽ´ åĬł
Ġw hat
Ġ æľī
åª Ĵ
è½ ¨
bin om
åľ° æĸ¹
æĪĳ åĽ½
Ġmodel s
tu res
å² ģ
ro p
Ġde pend
en ume
Ġc lo
Ġde ter
Ġmul ti
Ġlo cal
åŁº äºİ
Ġ\ |
Ġmea sure
èĦ ±
è¯ ī
enume rate
ç® ±
ä½ĵ ç³»
éĩį çĤ¹
it u
ĠR e
éĢ Ģ
ä¿Ŀ è¯ģ
è´£ ä»»
Ġn atu
è¿ ½
å¼ ±
èĨ ľ
åĽ °
å®ī è£ħ
æľº æ¢°
: \
è¿ŀ ç»Ń
Ġgenera l
æķ° éĩı
5 7
Ġ ä¸º
dag ger
æ± ł
çļĦ æĹ¶åĢĻ
item ize
] =
è¿ İ
et y
Ġha d
ä»İ èĢĮ
Ġ1 0
g an
Ġwa y
Ġappro ach
æľŁ éĹ´
Ġchi ld
i p
åİĭ åĬĽ
Ġw ould
ç¬¬ ä¸ī
è® ¯
åħ «
æĺ¯ ä¸Ģä¸ª
Ġsp ect
èĦ ĳ
æĢ İ
qu en
åİŁ åĽł
æ¥ ¼
Ġf ol
ä¹ ħ
éĴ ±
Ġ ä¸İ
çĶ ²
ar ly
' '
iz ed
å¿« éĢŁ
Ġwa ter
Ġph ys
å®ļ ä¹ī
è¿Ĳ è¡Į
ver s
éķ ľ
æľĢ å¤§
n ot
æĶ »
æľĢ è¿ĳ
} }^{
Ġre qui
è¶ £
Ġle ar
Ġcha rac
Ġh u
^ +
äº¿ åħĥ
v ir
å® Ļ
at ter
ti ga
ä¼ļ è®®
= (
æħ ¢
Ġdi rec
è® ¢
i ons
èģĶ ç½ĳ
æµĭ è¯ķ
ç²¾ ç¥ŀ
) /
æķĻ åŃ¦
v a
æĭ ¿
èµ· æĿ¥
ĠĠ Ġ
ä¸Ĭ æµ·
éĢļ å¸¸
Ġ ä¸į
ti vely
çĿ £
ci al
èı ľ
Ġ +\
æĸĩ ä»¶
y n
Ġc ould
åĪĨ åĪ«
ç ĳ
igni fic
R e
ä»Ĭ å¹´
å¹¿ æ³Ľ
ent ly
Ġde tec
å¹³ åĿĩ
å¤į æĿĤ
æ´ ŀ
Ġ\( (\
äº Ī
äº¤ æĺĵ
nd s
au se
ç®Ĺ æ³ķ
u es
ç§ Ģ
{ {
in es
æİ ª
ys is
Ġin formation
åĪ ļ
r ing
ä¾ĭ å¦Ĥ
çŁ ¿
æŃ »
æŃ Į
min us
åıĤ ä¸İ
qu e
re nt
Ġle ad
åĸ ·
åıĤ åĬł
. \
Ġcom mu
Ġg row
f ace
ve ra
è Ń
ĠTh ese
åıĹ åĪ°
Ġg ala
é¥ °
ä»ĸ çļĦ
Ġfor m
u p
is ts
20 0
ç»ı éªĮ
è·Ŀ ç¦»
èµ ĸ
åıĸ å¾Ĺ
é¡ ¾
set minus
Ġi den
Ġre al
å®ĩ å®Ļ
u al
è§Ĥ å¯Ł
V ert
st ra
æĻ ļ
æĿ¥ èĩª
é¢Ħ æµĭ
9 6
Ġ long
å® Ī
du ce
Ġproble m
å½ Ĵ
å² Ľ
Ġdisc uss
å± Ĭ
æŃ£ å¸¸
}) ^{
t rac
ou nt
ä¸Ģ æł·
æĺ¯ åľ¨
è§£åĨ³ æĸ¹æ¡Ī
4 3
æ² Ļ
åĨ Į
ä¼ĺ åĬ¿
Ġth ose
Ġpar t
å¡ Ķ
å® ģ
}) =\
å³ °
Ġin s
ä¸Ģ èĩ´
ç»ı è¿ĩ
éĻį ä½İ
çĽ Ł
s la
çī¹ å¾ģ
åĵ Ī
Ġp ers
}^{+ }\)
ä½ľ åĵģ
in f
Ġd er
Ġ& \
èŃ ¦
èĮ ¶
ä¸ Ŀ
Ġproper ties
åĢ į
è¡¨ çİ°
æī§ è¡Į
ti ce
duc ed
è´ µ
åħ± åĲĮ
Ġcal cu
æıĲä¾Ľ äºĨ
Ġ å¯¹
æ¯ ķ
. \]
éĹ Ń
}} _{
g or
è® ¿
re en
ç¼ ĺ
åĨ³ å®ļ
;\ ;\
æĢ ¥
ers tand
éĻ¤ äºĨ
ç»§ ç»Ń
vir on
o mp
) _{
olog ical
ç¬¦ åĲĪ
4 2
Ġ lim
åĩº äºĨ
b matrix
è¯ į
ä¸Ģ çĽ´
çİ° ä»£
çİ° åľº
åĪĨ åŃĲ
çŃ Ķ
èį ī
æŃ ¦
Ġpha se
çº ¸
Ġsa me
ç§ Ł
Ġpartic ular
æĮī çħ§
åĮĸ åŃ¦
Ġb el
Ġs mall
Ġstruc ture
åİ ļ
Ġs ign
^{ +
èĩª çĶ±
éĩĳ èŀį
çĩ ĥ
åŁ¹ è®Ń
Ġb ack
åĩº çļĦ
ä¼ ¦
n ts
Ġprov ide
æĹ¶ ä»£
çłĶ åıĳ
Ġs ignific
åħ¨ éĿ¢
_ +
}} ,
,\ ,\
æľº åĪ¶
çĶļ èĩ³
Ġma gnetic
è¯ º
çĥ Ī
Ġsi mu
Ġ <
çĸ« æĥħ
çĸ ¾
fi ed
è§£ éĩĬ
i fic
Ġw hile
8 7
v al
ic k
i ta
åĬł å·¥
åĪ ¤
æĺİ ç¡®
å¸ ģ
Ġre se
Ġm on
åĽ¢ éĺŁ
æ£ ®
åıį åºĶ
ä½į ç½®
åį ±
éĹ »
ti o
çĨ Ł
åĽł ç´ł
,\ \
Ġresul t
ĠA s
ä¼ ´
ä¸į åı¯
æĸ½ å·¥
è¿Ľè¡Į äºĨ
Ġp ho
ä¸¤ ç§į
ha vi
Ġsta tes
æŃ£ åľ¨
Ġanal y
Ġc ri
Ġs to
éĻ Ī
ä¸ ĥ
åĬł å¼º
Ġcomp u
Ġ hi
å¼ ¹
so ci
æī °
Ġcon tin
Ġg e
åĿ Ĳ
ĠH ow
Ġe mp
Ġ |\
4 1
Th eta
tro l
. ,
Ġs ha
è ¸
Ġinc re
è°ĥ æķ´
åº Ł
èĤ ī
Ġstr ong
æ´ ¾
Ġth ree
æľ ĭ
çĪ Ĩ
åº Ĭ
in k
n al
æľī çļĦ
| \)
Ġf re
åħ· ä½ĵ
å ĺ
æ·· åĲĪ
è¶ ĭ
çī Ļ
de t
é£İ éĻ©
Ġsp in
éĺ »
åĬ ª
ç¢ ³
å¾ ª
Ġn et
æĻ ¶
Ġ å¹´
è¯ ¦
Ġimp ro
æĽ ¼
æĺİ æĺ¾
Ġty p
5 6
èģĶ ç³»
æķ´ ä¸ª
Ġs k
i x
ab ility
åĬĽ çļĦ
y mp
5 9
ç«ŀ äºī
c t
mension al
æ± ĩ
è¿ Ŀ
è§Ħ åĪĴ
ä¸Ģ æ¬¡
os ed
k es
åİ ħ
,\ ]
æ¶ ¦
åĢ Ł
}( {\
æĭ į
å·¥ èīº
è½¯ ä»¶
çº ¯
èģĮ ä¸ļ
ç»Ł è®¡
æ³ķ å¾ĭ
ĠH e
æķĪ çİĩ
Ġg et
èĦ ī
æ´ ģ
å¡ ŀ
è° Ī
Ġwith in
è£ Ĥ
Ġse ve
ĠC h
ãĢĤ ãĢģ
t ur
é Ń
å¢ Ļ
app ro
}} =
é£Ł åĵģ
v ol
) ]
ge bra
åħ³ æ³¨
n el
Ġsu g
_{ +
åħĥ ç´ł
Ġe very
éĽ ·
å° ¤
åĳĺ å·¥
j ect
Ġinves tiga
)= (
éĿ¢ ç§¯
ç»Ħ åĲĪ
åıĬ æĹ¶
ä¸ĵ å®¶
Ġfol low
Ġtempera ture
Ġden sity
Ġanal ysis
Ġf am
æİĴ æĶ¾
ä¸ ½
Ġd x
f y
ä¸° å¯Į
Ġstu di
äº¤ éĢļ
åħħ åĪĨ
è¯ Ĭ
èį £
åį ĸ
Ġ\(\ |
res p
æĪĲ ç«ĭ
o th
tic s
ç¦» åŃĲ
èĹ ı
åĩ Ŀ
æ¸ Ĳ
Ġd ue
Ġknow n
æĳ Ħ
Ġgrou p
u se
é¦ĸ åħĪ
Ġ ed
Ġp op
Ġd uring
- (
Ġad di
éĺ ħ
Ġc rea
a me
Ġ ver
é ±
Ġ\( |\
ä½ Ľ
åŃ Ķ
Ġma r
Ġ å¤§
æĿ ¯
ä¸ĩ åħĥ
ä¿Ŀ éļľ
è®° èĢħ
in ing
æīį èĥ½
å¤ ®
Ġyear s
è ļ
de pend
è° ¢
æļ Ĺ
è´ Ŀ
ä¸ĸ çºª
Ġc he
Ġapp lic
å° ĺ
è¯´ æĺİ
éľ ²
èį ·
Ġbe havi
çĶŁ æĢģ
æĶ¹ åıĺ
é± ¼
äºº æīį
cha n
æĪĺ çķ¥
çļĦ é«ĺ
i ly
la te
}}\ \
é¢Ĩ å¯¼
Ġf a
Ġca p
Ġes ti
èĥ ŀ
}\ ,\
åľ £
w ar
çļĦ éĹ®é¢ĺ
æĪ ª
åĪĨ éĴŁ
éķ¿ æľŁ
a si
æľĭ åıĭ
en tial
red ic
éģ į
åĮ» çĸĹ
èģĶ åĲĪ
ç§» åĬ¨
1 00
çļĦ æĸ°
is ion
ä»£ æķ°
7 9
äº ¦
åº Ĩ
æİ¨ åĬ¨
ver se
é«ĺ çļĦ
æĺ ł
çī¹ çĤ¹
æ¶ Ĥ
in ts
èı Į
Ġcon struc
æ° ¸
åĪ¶ ä½ľ
di m
æ´ Ľ
ä¹ ĺ
Ġs er
Ġrep res
8 9
ä¹ Ŀ
å®¶ åºŃ
çĪ ¶
ng es
Ġa fter
éģ¿ åħį
Ġl ight
}= -
p re
ä¹ĭ åīį
Ġc ent
çŁ© éĺµ
æ® Ĭ
çģ ¯
z ed
åı ¥
nc es
Ġpo int
Ġdo es
Ġobserv ed
æİ¥ åıĹ
è§ Ī
å¯ »
ä»¥ æĿ¥
éĽ ¨
n er
äº¤ æµģ
}) ,
Ġrese arch
Ġ }\
ç Ĵ
çĶ °
tical ly
m it
èĤ ¤
äºĨ ä¸Ģä¸ª
Ġbe ing
æİª æĸ½
éļ Ĳ
Ġre f
Ġen viron
æ¶Īè´¹ èĢħ
Ġsignific ant
ä¸į è¿ĩ
Th is
uc le
æ¡ Ĩ
å¸ Ń
Ġo cc
Ġpos sible
åĲ ī
ç¨ĭ åº¦
éĵ¶ è¡Į
Ġs en
å¤ ı
Ġto p
i od
ç¡® ä¿Ŀ
, -
é² ľ
çĶ¨ çļĦ
åĲ Ĺ
a p
d ed
ä¾ §
ç´ ¯
ç¬ Ķ
Ġg ood
æķ ı
çĵ ¦
Ġty pe
è®¾ æĸ½
çĽ¸ å½ĵ
u ri
è¿Ĳ è¾ĵ
r is
åł Ĥ
ä¼ Ĭ
ow n
è´ ¡
æľĢ ç»Ī
å° ļ
åŁº éĩĳ
å¤ª éĺ³
å¸¦ æĿ¥
é½ Ĳ
çİ° è±¡
ic es
Ġas soci
ä¸¥ éĩį
Ġad v
7 6
ĠC on
çľĭ åĪ°
Ġnet work
æĻ® éĢļ
èħ Ĳ
Ġconsi der
Ġi ma
o ther
åĿ ı
åģĩ è®¾
A s
åĪ¶ åº¦
æĹ ¢
ĠU ni
åķĨ ä¸ļ
å® Ĺ
ç³»ç»Ł çļĦ
ĠA l
li ke
å·¥ åħ·
er tain
åĬ ±
) _
ä½į äºİ
æ±¡ æŁĵ
Ġb lo
Ġpro p
ä¿¡ åı·
åĨħ éĥ¨
el ds
å½ĵ åľ°
vi ous
ç»Ł ä¸Ģ
ç« ¥
æ ¾
ä¼ ĳ
Ġ range
æĮ ĳ
ç» ķ
èĦ ļ
ä¿ĥ è¿Ľ
{ {\
çĽ¸ åĲĮ
æº ¶
Ġund erstand
åħ¶ å®ŀ
é¢ ľ
on al
ä½ĵ éªĮ
d ents
8 6
gra m
ç¼ ĵ
ç ¦ģ
è· ¨
çĽ® çļĦ
Ġn or
Ġiden ti
çĦ¶ èĢĮ
j ec
Ġgiv en
æĸ¹ç¨ĭ å¼ı
æķĪ åºĶ
åį Ī
èĪ ŀ
Ġc ho
èµĦ éĩĳ
æ¹ ¿
éĴĪ å¯¹
gor ith
Ġli fe
åľ Ī
æķĻ å¸Ī
çĭ¬ ç«ĭ
è§Ħ èĮĥ
Ġinclu ding
Ġtech n
ti me
ç© ¿
äºĴ èģĶç½ĳ
è ¦
çļĦ å½±åĵį
ç¤ ¼
+ (
ç§° ä¸º
æİ¨ è¿Ľ
Ġcon n
ĠO ur
çĽ¸ æ¯Ķ
k er
Ġsing le
çĸ ĳ
æĽ ¿
éļı æľº
è´ ¸
ĠP ro
ä½ł çļĦ
g ed
Ġmu ch
m ical
Ġs ti
ur ther
appro x
åĲ §
div id
W e
Ġwor ld
ä½ĵ èĤ²
Ġcou p
Ġcondi tions
æĹ¥ æľ¬
Ġsta nd
Ġa round
è¾ Ĳ
Ġdistribu tion
èĢģ å¸Ī
Ġf lu
Ġa ff
æİ¢ æµĭ
Ġobtain ed
ä¸ĭ éĻį
æ¯ Ľ
Ġcomple x
Ġof ten
å·® å¼Ĥ
Ġt reat
Ġsi mple
å¤§ åŀĭ
ç±» ä¼¼
çİ¯ ä¿Ŀ
= -\
éģ Ĺ
Ġ ä»¥
è¯ ļ
éĢ Ķ
è¦ Ĩ
Ġb i
Ġcur rent
ä¸į è¦ģ
è¡Į æĶ¿
åĬª åĬĽ
æķ´ ä½ĵ
å±ŀ äºİ
Ġp redic
ĠI f
s es
Ġbu il
sla nt
S O
æ¡ £
æ¡ ¥
ç£ ¨
Ġbec ause
ä¼° è®¡
Ġle a
æ¦Ĥ å¿µ
ç©º æ°Ķ
e mp
éª ¨
ho ol
éĩįè¦ģ çļĦ
éŁ³ ä¹Ĳ
Ġ ä¸Ĭ
éĻ Ĩ
æĢİ ä¹Ī
æĲ ľ
åıĳ æĮ¥
å°ı æĹ¶
éĿ¢ çļĦ
ä¾Ŀ èµĸ
åĬŀ æ³ķ
Ġc le
æīĭ æľº
p tion
åĪ º
è¯ Ĺ
è´ ´
é¡ µ
ä¸» ä¹ī
è¡ °
è Ķ
åĳ¨ æľŁ
a tive
å¼º åº¦
è¿Ĳ èĲ¥
h y
å± ĭ
æĿ¥ è¶Ĭ
m il
Ġt r
èĲ ¨
0 5
æĽ² çº¿
é© ±
é ¹
åĻ¨ çļĦ
ne t
ar t
æī© å±ķ
Ġeff ects
è¾ Ĩ
Ġco mb
æľº ä¼ļ
æĮĩ æķ°
a th
å± ı
Ġe le
æľĢ ä½³
ä¸ī ä¸ª
Ġr is
ff ici
å°± ä¼ļ
åºĶ å½ĵ
çĸ¾ çĹħ
éĽ ª
p ec
Ġc lus
æķ ĳ
Ġ1 9
åĲĪ çĲĨ
I I
are d
Ġin tro
om en
Ġco s
åªĴ ä½ĵ
Ġcon trol
ta b
}= (
éĥ½ æľī
çī¹ æ®Ĭ
sion s
Ġf ood
éĩį æĸ°
æĬ ĺ
æĲ Ń
s er
èµĦ æĸĻ
si tive
åĳ Ī
å¹´ æĿ¥
ç»Ĩ èĥŀ
æīĵ éĢł
it al
èĢ Ĺ
åĮħ åĲ«
åİŁ åŃĲ
) :=\
Ġg ive
tit u
å® ľ
åģļ å¥½
Ġi de
ä¸¥ æł¼
åĨ °
äºĭ ä»¶
ymp to
è¶Ĭ æĿ¥è¶Ĭ
è ľ
è®¾ ç½®
Ġl ar
è¡ Ĺ
æĴ ŀ
åĮħ è£ħ
èº« ä½ĵ
ä»» åĬ¡
éĢĤ åĲĪ
å¤ ľ
å¹¶ ä¸į
æ°Ķ ä½ĵ
èĽ ĭ
h bar
å§Ķ åĳĺ
çĹ Ľ
s k
olu tions
ä¾Ľ åºĶ
Ġal gorith
çĽ Ľ
æŁĲ äºĽ
æĶ¶ åħ¥
ĠThe y
çļĦ åıĳå±ķ
Ġv i
çĲĨ è§£
Ġv is
Ġt ur
Ġb as
Ġp ub
åıĬ åħ¶
ac es
çĤ İ
Ġ ,\
en ted
Ġter ms
Ġgra ph
Ġf low
Ġcom mon
}} }
ä»Ĭ å¤©
) )\
ç§ ģ
Ġseve ral
Ġsug ges
éħĴ åºĹ
de red
æ» ¤
è´¡ çĮ®
Ġthe ore
è§Ĩ é¢ĳ
Ġ çŃī
è¯¾ ç¨ĭ
Ġle ss
åĿļ æĮģ
ä¸» é¢ĺ
ĠA n
çİ »
å¼ķ èµ·
| =
namic s
Ġe mission
Ġcommu n
æ½ ®
Ġper iod
å· Ŀ
æĶ¹ éĿ©
te nd
æ³¨ åĨĮ
Ġin divid
{ -
æ´ ĭ
æŃ£ å¼ı
æ³ °
) :=
æļ ĸ
åĪ ĺ
th ing
èĴ Ļ
åħ ģ
è¿Ļæł· çļĦ
æĸ¹ ä¾¿
èĸ Ħ
è¡ £
Ġs ymme
b i
m od
ä¼ ¯
åĬ¨ çļĦ
è¯Ń è¨Ģ
t le
ĠT o
è´ ¥
b y
er o
æ¢ ¦
Ġc r
æĸ Ĺ
å¹ ķ
g s
åĲĪ åĲĮ
Ġper for
y c
çī¹åĪ« æĺ¯
Ġpro b
Ġeff ect
æµ ĵ
è¾ ĳ
0 8
åĽº å®ļ
åĨľ ä¸ļ
æĳ ©
Ġof f
Ġf la
Ġta ke
Ġma de
åĭ Ĵ
å¤ļ æķ°
çĥ Ł
} }(\
ar s
åĲİ çļĦ
\ }.
è½¨ éģĵ
Ġtech ni
åı¦ å¤ĸ
è¿ ª
å¹³ è¡¡
åŁ¹ åħ»
æĦı ä¹ī
Ġmea su
Ġcor re
æĪĳä»¬ åıĳçİ°
æĿ Ģ
è¡¨ è¾¾
al le
èĥĮ æĻ¯
Ġma teri
big l
b o
èĻ ļ
Ġsur face
å ´
åįı ä¼ļ
æ² ¿
åĵ ¥
Ġj ust
um er
èĪ ¹
è¾Ĳ å°Ħ
g ing
big r
çļĦ çĶµ
æ³ ¡
æĥ ł
åĴ ¨
æľ «
i la
st ing
çĥ §
æħ §
Ġme chan
Ġshow n
da y
æĮĩ å¯¼
æ¶ī åıĬ
èĵ Ŀ
Ġexa mple
Ġme an
ar m
æ¯Ķ å¦Ĥ
çĴ ĥ
Ġm ic
text rm
ĠHow ever
C D
æĹ §
çĽ¸ åºĶ
å®£ ä¼ł
åįģ åĪĨ
ä¹Ł æľī
ä¿Ŀ éĻ©
lo b
åİŁ åĪĻ
Ġ >
si de
\ |\
æĪĳ çļĦ
] ,
0 7
\ ;
ç¿ »
åį« çĶŁ
hi p
i k
å¢ ¨
ä¸į å¾Ĺ
åĸľ æ¬¢
é² ģ
èĢĥ è¯ķ
æĬ ½
å¯ ¿
ä¸Ģ ä¸ĭ
rac e
å¤ļ ä¸ª
ç£ģ åľº
ä¼ĺ åĮĸ
åıª æĺ¯
Ġt ri
Ġb rea
Ġvari ous
è£ħ ç½®
Ġg u
}} }\
èİ ±
åĪĽ éĢł
) }=
Ġne u
æľ Ŀ
åĴ¨ è¯¢
æľº åĻ¨
åı «
xi es
æİ Į
å·¦ åı³
^{* }\)
}} .
å®Į åĸĦ
å®ĥ çļĦ
Ġfin ite
o ve
Ġ :
le t
ig in
ä¸Ń æĪĳä»¬
Ġsec ond
u lation
Ġp rac
Ġ times
çĽ¸äºĴ ä½ľçĶ¨
w ard
ç³» æķ°
ĠD e
æŀĦ å»º
Ġh er
ang le
Ġnatu ral
0 9
åĢ º
Ġ _
' _
Ġwith out
æ¹ ¾
è· µ
Ġwa ve
S S
å¼Ģ æĶ¾
åħĪ è¿Ľ
8 3
) },
lo or
åĨħ çļĦ
è ª
èĭ ¦
5 4
to p
äº§çĶŁ çļĦ
Ġpla y
Ġga s
Ġcou nt
Ġfunc tions
ga in
å¾ª çİ¯
åħ¬ éĩĮ
} &{
åĨ ¬
v o
Ġelec tron
0 1
èĦ Ĥ
æı ¡
Ġal gebra
re ad
Ġ ä¸Ģä¸ª
å² Ĺ
çħ ¤
{ |
sta ck
ç¯ ®
è¯Ħ ä¼°
Ġdeter min
Ġlim it
Ġin vol
g n
è¯¦ ç»Ĩ
çī© æµģ
è½¬ æį¢
èĭ± åĽ½
Ġo wn
å¹ ¸
Ġra te
æĿ¥ çľĭ
åĪ ¸
æ² ī
Ġd own
è´¨ çļĦ
æĿ¥ æºĲ
å¦ Ī
é¼ ĵ
æŁ ±
Ġ end
Ġcor resp
åįı è®®
+\ ,
el i
er n
as s
Ġc ell
åĿ ¦
æĪĳä»¬ è¿ĺ
^{ (\
ç³ ĸ
å°Ħ çº¿
çĤ¹ çļĦ
å© ļ
Ġcomp on
Ġappro xi
çī© çļĦ
u nc
e V
ä¹ ±
}} =\
rea se
èµĦ äº§
Ġhu man
}) .
under line
ç»´ æĬ¤
æļ ´
6 3
Ġexp lo
Ġ $
åĢ Ĵ
Ġval ue
å¡ «
çª Ĺ
åħ¬ åħ±
æī¾ åĪ°
d frac
åĩĨ ç¡®
)\ ]
Ġcon tain
æĺ¯ ä¸Ģç§į
ä¼ĺ ç§Ģ
éĩ İ
æĢ Ģ
çĲĥ éĺŁ
éĢ Ĵ
ç»ı å¸¸
5 3
ä¸ĭ çļĦ
ä¹Ł åı¯ä»¥
ç¤¾ åĮº
æ¯Ķ ä¾ĭ
ç ŀ
Ġd ri
Ġstar s
åħģ è®¸
Ġs ci
Ġma tter
çľŁ æŃ£
åĬŀ åħ¬
Ġev olution
å¤ļ çļĦ
oc us
Ġas s
äºĭ ä¸ļ
è´ ·
}^{ (\
b ased
ta ble
æµ ®
ç»¿ èī²
æ¨ ª
åĩł ä¹İ
in ce
çĦ ¦
j ects
w are
Ġsi mil
Ġde g
ĠE x
æİ¥ è§¦
st o
åĩĨ å¤ĩ
ç¯ ĩ
çº ¤
Ġb ody
tic le
è¿ĩ åİ»
ä¼ł æĴŃ
éĵ Ŀ
ta tions
éĽ ħ
Ġm ust
Ġa m
}^{* }\)
Ġhigh er
depend ent
var i
Ġeff ective
æľī ä¸Ģ
çĶµ å½±
S T
å¢ŀ å¼º
Ġequ ation
æģ ©
å¤ļ ç§į
æĭ ĵ
c om
é¢ Ĺ
Ġcon tribu
æ³ ¥
éĽĨ ä¸Ń
æµ ª
çļ® èĤ¤
å¤§ éĩı
Ġs olutions
Ġgala xies
Ġre ma
an y
é«ĺ åº¦
é¢ĳ çİĩ
è¡Į åĬ¨
å°¤ åħ¶
p t
mer ic
æķħ äºĭ
6 2
} ~
æ°§ åĮĸ
å§ Ĩ
é¡º åºı
mb ers
åĩº æĿ¥
ä»į çĦ¶
çİ» çĴĥ
å¿ħ è¦ģ
u nd
åıĳå±ķ çļĦ
Ġresp on
æĢ§ åĴĮ
æĪĲ ç»©
Ġin i
åĩł ä½ķ
Ġassoci ated
}} &{{
æ¡Ĩ æŀ¶
ï¼ī ï¼Į
Ġc ertain
Ġpre vious
Ġ ess
èĤ ¥
Ġ äºº
ç¾İ åħĥ
åħ¨ éĥ¨
igh ts
è¾ ħ
åĿ Ģ
v ity
i mal
Ġeff ici
çī¹ èī²
Ġca us
çĳ ŀ
Ġbe fore
Ġor gan
èŀ º
s tic
Ġi m
Ġn umer
5 2
Ġf ew
çĲĨ å¿µ
ä¼ ¸
Ġcontin u
iv ed
è´¹ çĶ¨
æĮĩ åĩº
åĪĨ ç¦»
éĥ½ ä¼ļ
å¯ ¸
è¯ķ éªĮ
Ġr u
20 21
æŃ£ ç¡®
çŁ ¢
æģ ¢
Ġfe atu
Ġc are
Ġab s
qu are
æ· »
çļĦ å·¥ä½ľ
^ -
å®Į æķ´
ä¸Ń å¤®
æī© å¤§
b er
åĪ ·
åĲ ¨
æ¶ ¨
åıª è¦ģ
å°ı çļĦ
æľ Ĺ
é© ¾
æ¸ ¡
e a
Ġinclu de
åĻ ª
é ī
is tent
Ġ\ \\
Ġreg ion
å¹¿ åĳĬ
éī ´
Ġparame ters
éĽ Ħ
èĩª èº«
æĸ ĳ
Ġs erv
å¦Ĥ æŃ¤
æİ¨ å¹¿
Ġ\\ &
Ġex is
èĳ £
ri es
æł· çļĦ
id ence
l in
Ġre ad
æ² Ł
è§Ĵ åº¦
n on
Ġs he
çĶŁ åĳ½
ç² ĺ
ĠC o
Ġne ar
ç²¾ ç¡®
èģ ĺ
Ġf ree
æķ° åŃ¦
æ¢ ħ
åĬĽ éĩı
è¿ ·
Ġin dic
} >
t frac
lu e
è· ĳ
Ġ( -
å¹³ æĸ¹
è£ ģ
sta nt
çĶµ æ±ł
f loor
äºĭ å®ŀ
çļĦ æĸ¹æ³ķ
æľī äºĽ
Ġb lack
ĠL a
å½ĵ åīį
çĹĩ çĬ¶
8 4
åĪĨ ä¸º
åĬł åħ¥
or ph
7 4
èĤ ¯
åĩł ä¸ª
çļĦ ç»ĵæŀľ
te in
æģ¢ å¤į
% ï¼Į
è° ·
t t
åĲ¸ å¼ķ
Ġf o
Ġex pla
Ġtran sition
_ *
w s
Ġn ucle
Ġ. \)
Ġis su
5 1
} &
Ġme di
res sion
åĬ³ åĬ¨
åķĨ åĵģ
åĪĨ ç±»
ä¼ Ļ
Ġphys ical
Ġocc ur
çļĦ è¯Ŀ
ç§ ĺ
Ġcha nge
ãĢ Ģ
7 3
6 1
åĳ ¼
Ġ ^{
in c
æĬ ĵ
ä¹Ł ä¸į
Ġm il
lo y
Ġde mon
Ġfi elds
( (
} :
} _\
Ġb est
æŀĦ æĪĲ
åħ¬ å¼Ģ
Ġdes ign
æ¬§ æ´²
b ed
è¦Ĩ çĽĸ
mp les
éħį ç½®
çļĦ ä¸į
æĮ¯ åĬ¨
7 2
tr um
æĸĩ ç«ł
çļ ĩ
èī¯ å¥½çļĦ
Ġ å°Ĩ
çģ °
la ss
äºĭ æĥħ
n k
I t
w ay
ll ar
ç ĺ
çº ·
è´ «
å¼ķ åħ¥
Ġad d
çĬ ¯
çĶŁ æĪĲ
ä»» æĦı
tri angle
éĩį å¤§
ĠM a
a tes
èª ī
Ġdis e
ç¢ °
a ti
å° ¾
v ent
è¿ ħ
ri d
Ġma na
æİ ī
èĲ½ å®ŀ
Ġop era
é¢ľ èī²
èµ ¢
Ġ é«ĺ
æ¯ķ ä¸ļ
va ila
Ġstu dents
Ġ er
Ġor igin
åįĩ çº§
Ġha nd
ç¬ ĳ
æİ¢ ç´¢
Ġop ti
el s
èļ Ģ
0 4
è´Ń ä¹°
± ä¹Ĳ
æľ¬ åľ°
/ (
}\ |
ä¹ Ļ
çº ¹
å°½ ç®¡
åĲ¸ æĶ¶
ti fic
Ġs ize
åħī åŃ¦
w ith
x x
n ed
åı¦ ä¸Ģ
mu m
èĴ ¸
çļĦ éĩįè¦ģ
Ġa gain
æĦı è§ģ
Ġ å¹¶
ä»£ çłģ
Ġb ene
Ġro le
Ġchild ren
Ġs olution
ec tion
Ġdirec t
æ¦Ĥ çİĩ
è¶ĭ åĬ¿
æī ¬
æľĢ é«ĺ
Ġsimil ar
Ġproble ms
å¸ Ŀ
ä¹Ł ä¼ļ
å¹´ æľĪæĹ¥
Ġlow er
Ġspec ific
æ¬¢ è¿İ
æİ¥ è¿ĳ
çļĦ ä¸Ģä¸ª
Ġfor mu
Ġ è¿Ļ
ç ¹
æģ ¶
0 2
en cy
Ġequ ations
big cup
t re
å¿ĥ çĲĨ
å¹´ åº¦
ç¹ ģ
é¾ Ħ
ç½ ļ
i ds
Ġb ra
æ¯ «
chi e
vi ew
Ġqu es
åħ ¼
( -\
' ,
0 3
æĹ¶ æľŁ
}= -\
æĥ ¯
9 4
ç½ ²
Ġpro ve
åį ·
æĻº æħ§
å®ŀ è·µ
il s
Ġline ar
Ġto ol
Ġn ec
éĶ Ī
èĲ¥ éĶĢ
è§ī å¾Ĺ
Ġcharac ter
æĦı åĳ³
in ess
åĶ ¯
æĪĲ æŀľ
éº ¦
çİ ī
çļĦ æĹ¶éĹ´
Ġop en
çļĦ ä¸»è¦ģ
åı ī
éĤ ®
Ġm ight
m ing
d z
Ġobserv ations
Ġsour ce
å®ī æİĴ
æĹł è®º
è¿ ¹
po se
æĳ ĺ
æĪĳä»¬ åľ¨
æĻ® éģį
nd om
èĢ ³
0 6
åŁ ĥ
qu es
s ed
Ġs elf
Ġbet ter
æĲľ ç´¢
Ġsupp ort
æĿ ¨
ma tic
)= -
Ġw ri
ĠB y
g u
Ġf ocus
Ġacc u
Ġcor rec
åĲĮ æ¯Ķ
A P
Ġp r
çĲĨ æĥ³
é© ¶
æ·± åħ¥
Ġd eta
æĤ ī
æ ĩ
æĦŁ è§ī
ä¸ĭ æĿ¥
åŃĲ çļĦ
æľ¬ æ¬¡
åĪĨ è§£
o int
éĢļ çŁ¥
äº§åĵģ çļĦ
è° ĵ
åį³ ä½¿
9 3
çľŁ å®ŀ
æĹ¶ çļĦ
åĴĮ çļĦ
Ġcri tical
ä½¿ å¾Ĺ
_ -
Ġst re
c ent
éĿ¢ å¯¹
æĹ Ĺ
èĢĮ è¨Ģ
Ġf our
éĢĤ åºĶ
è¾ ¨
Ġcomple te
ç» ĺ
20 20
ma p
7 1
Ġli k
Ġa vaila
æĸ° éĹ»
) (\
åĪĽ ä¸ļ
n o
èµĽ åŃ£
r s
Ġ ve
ä¾ µ
in ter
çĽĳ çĿ£
å½ĵ çĦ¶
Ġbehavi or
åħ· å¤ĩ
éĻ ·
Ġn ow
n or
Ġrec ent
la nd
}. }\
ç§ ĭ
d ro
åĵģ è´¨
åĵª äºĽ
åĪ¶ å®ļ
è®° å½ķ
Ġsti ll
Ġop erator
è´ ¦
éŁ ©
ĠY ou
A R
8 2
Ġde v
Ġme ans
çĽ Ĳ
ĠA d
å¥ ĭ
æĦı è¯Ĩ
æĥ Ĭ
Ġcon stra
Ġmethod s
) >
Ġval ues
as ing
or der
ĠS ta
åŁº åľ°
Ġsc hool
) !
Ġdi mension
å£ ģ
ĠA meric
Ġd ra
Ġf er
ĠI nd
Ġa chie
)} .
ly ing
G L
è¿ Ķ
Ġcal led
Ġdy namics
i ties
ĠS o
Ġ åľ°
åı ¬
Ġb ro
Ġwe ak
ul t
mon g
Ġ1 2
Ġsa id
i i
e f
li es
Ġg lob
äºº åı£
èµĦ æł¼
cc ess
se c
co mp
Ġfor mation
æĶ¹ åĸĦ
9 2
Ġda y
éĢĤ å½ĵ
æľº çļĦ
æĬ µ
ä¸» ä»»
sc op
l s
ä¸į å°ĳ
c he
çģ ¾
åºı åĪĹ
cc cc
æĦıåĳ³ çĿĢ
Ġm is
ĠS u
ç»ĵ æĿŁ
Ġed uc
åľ ³
ä¸¾ åĬŀ
Ġc ases
~ \
æ¨¡åŀĭ çļĦ
æĮĳ æĪĺ
line ar
la y
Ġp ur
ĠThe re
- -
' )
Ġo pp
Ġre duc
çļĦ å°ı
A C
ili ties
ç½ ª
çģ Ń
e ed
Ġre le
ç¢ İ
Ġimpro ve
tation al
äºĴ åĬ¨
ver sity
Ġbec ome
å¤Ħ äºİ
æĶ¿ æ²»
Ġpro tec
ä¸º ä¸»
Ġe t
éĵ ľ
A B
èĢħ çļĦ
wa ys
Ġpho to
æł· æľ¬
éĩĩ åıĸ
8 1
èŀį åĲĪ
ç´ «
å§Ķåĳĺ ä¼ļ
to m
æ¥ ļ
åıĺ éĩı
èİ «
Ġma s
Ġe ar
çĽ¸åħ³ çļĦ
Ġp i
Ġh al
è®¤ è¯ģ
Ġpla n
ä»İ äºĭ
æĹł çº¿
ä¸ ģ
tu ral
Ġsour ces
Ġma xi
or ts
A S
æ³ķ åĽ½
æ® ĭ
æ ©
Ġrela tions
åģ ¿
çĦ Ĭ
æĥ³ è¦ģ
^{* }
Ġgenera liz
ä¸¾ è¡Į
tab lish
è´ ¯
æ´ ¥
ve e
åĦ¿ ç«¥
è¯ģ æį®
äºº ç±»
Ġd t
k en
åĽ° éļ¾
or ding
ä»¥ åīį
å® «
æ·± åľ³
b ox
æ¾ ³
éĻĦ è¿ĳ
9 1
é¢Ħ è®¡
I C
è§Ħ åĪĻ
o st
æŃ¤ æ¬¡
Ġspec trum
e lec
èµ «
Ġallow s
j k
åı¯ éĿł
E D
g g
tu al
Ġf rame
m m
Ġris k
éľ ĩ
e e
è¯ ¸
ten ce
éĶ ģ
åĪĨ äº«
] .
Ġm us
Ġex tend
Ġcon stant
Ġla t
Ġlear ning
Ġ\( {
Ġ el
} [\
æĪĲ åĳĺ
Ġfre quen
æĹ¥ å¸¸
on t
Ġso cial
Ġcorresp on
éĢĤ çĶ¨äºİ
çĶµ è§Ĩ
çĤ ī
} ;
Ġc ross
ab les
å¼ ĥ
åĢ ¾
æĢĿ æĥ³
åħ¬ å¼ı
å² ©
me di
ra ted
èĬ ¯
map sto
æĬķ åħ¥
ç»ı çĲĨ
ill s
åľ¨ çº¿
åıĤ èĢĥ
Ġfam ily
æ¢ ģ
æľ¬ èº«
çļĦ æĸ¹å¼ı
Ġhe re
åĩº åı£
ch ing
Ġf il
}( -
åıĸ åĨ³
Ġmic ro
æĿ °
Ġra ndom
æį ·
E R
çĲĥ åĳĺ
çļĦ æĥħåĨµ
Ġge ome
ä¸ľ è¥¿
å¾· åĽ½
) )=
å°± åı¯ä»¥
ch ed
Ġ ä¸ª
j or
l ight
æĿ Ĩ
Ġc ul
Ġin d
åı¯èĥ½ ä¼ļ
Ġpla ce
å¹ ¼
Ġl u
ä¼ģä¸ļ çļĦ
èĪ Ĵ
ä¸Ĭ å¸Ĥ
Ġdevelop ment
Ġd ark
c ou
åħ± æĮ¯
å¹´ è½»
æı Ĵ
! \
in ite
éĢĲ æ¸Ĳ
ng u
æľº åħ³
Ġspec ial
èĭ Ĺ
è¿ĳ ä¼¼
æĪĲ éķ¿
ä¿ Ħ
i ted
å· §
å¥ ¶
;\ ;
Ġa ble
é£İ æł¼
Ġesti ma
å¹³ éĿ¢
Ġke y
çĽĳ ç®¡
å½ »
in o
èĢĮ æĺ¯
å¤§ å°ı
å£ ³
Ġan ti
Ġw he
Ġparame ter
çĽĳ æµĭ
m n
th ers
äºº å·¥
Ġp rin
Ġ\(\ |\
æ¤į çī©
n nel
åħ¬åı¸ çļĦ
Ġho me
Ġs us
io ta
Ġ å¤ļ
Ġinterac tion
å¾Ī å¤§
çĶŁ çļĦ
è¾¹ çķĮ
Ġe arly
x t
over n
li ed
Ġrela ted
åıĸåĨ³ äºİ
åĬł éĢŁ
th s
Ġa long
Ġ åı¯ä»¥
] \\
i me
re es
è¯ ĳ
i da
åī ²
éĶ ħ
Ġgrou ps
åıĺ å¼Ĥ
æµģ ç¨ĭ
çĭ¬ çī¹
in ary
Ġmo lec
Ġm ix
åŀĭ çļĦ
æ¢ ¯
åĶ ±
â Ģ
åħī åº¦
z ation
I f
ä¿® æĶ¹
Ġb us
Ġ åĪ°
ter n
ä»¤ äºº
è¿ĩ æ¸¡
éĨ Ĵ
Ġpa ir
Ġfu ture
å¾Ģ å¾Ģ
Ġm y
Ġ right
W hat
æı ´
è¯Ħ ä»·
è¿Ĳ çĶ¨
çĶµ è¯Ŀ
åĲĮ åŃ¦
% ãĢĤ
è± Ĩ
éº »
w h
ä¹ĭ å¤ĸ
Ġtran sp
ç®Ģåįķ çļĦ
æĶ¯ ä»ĺ
æ³ µ
åĽ¾ åĥı
Ġch alle
è· ³
æ¸ ł
Ġcol lec
Ġconsi dered
å¤§ åĪ©
ere nce
Ġavaila ble
çº¤ ç»´
éĺ ´
ä¼ł è¾ĵ
Ġaddi tion
åĨį æ¬¡
ãĢģ ãĢģ
æķĻ æİĪ
åĭ ĩ
H ow
ä»ĸä»¬ çļĦ
åľŁ åľ°
Ġc li
è¿ ģ
èĤ¡ ä»½
åįķ ä¸Ģ
çĶµ åĬ¨
ĠG a
éĶĻ è¯¯
åľ¨ è¿Ļ
ma gnetic
ç« Ł
ĠS p
å±ķ å¼Ģ
I R
\ }\
ig u
Ġpro f
å¸¸ è§ģ
ni f
Ġes tablish
F e
Ġv el
æĮ Ĥ
æĮĩ æłĩ
Ġu nc
çĶ¨ æĿ¥
çİ° å®ŀ
p to
åİĤ å®¶
æ¼ ı
æ¼ «
Ġinte re
vera ge
Ġrequi re
e v
æ® ĸ
Ġess ential
é«ĺ æķĪ
Ġstand ard
^* (
Ġprovid es
k et
ä»¥ åĲİ
P S
ä¼ Ł
Ġex c
m ine
Ġare a
é¢Ħ æľŁ
ou se
æ¯ı å¤©
è½¦ è¾Ĩ
ç¡ ħ
åħ´ è¶£
æĹ© æľŁ
rate g
Ġf rac
åħ µ
æĬ¥ åĲį
è®¤ è¯Ĩ
Ġla y
Ġproduc tion
Ġprop osed
g round
åĮ ¹
Ġtyp es
çĽ¸ ä¿¡
ä½¿çĶ¨ çļĦ
åıª èĥ½
åħ¬ å¸ĥ
æįŁ å¤±
Ġop tical
è¿ħ éĢŁ
}) (
éĺ² æŃ¢
èĻ «
æĬĢ èĥ½
æľī æľº
) }}
Ġte st
Ġ ï¼ļ
tur b
in i
æĽ´ å¥½
é» ĺ
33 3
é¥ Ń
ar ing
é¦Ļ æ¸¯
å±ķç¤º äºĨ
Ġmo ment
åı ł
åĲİ æĿ¥
as on
åģļ åĪ°
en tation
Ġs ho
ä½ľ èĢħ
Ġse pa
éģĵ è·¯
Ġinc rease
con duc
Ġ æĪĳ
Ġimp act
Ġscal e
Ġcondi tion
èµĦ æľ¬
i ally
ĠA nd
pp er
Ġalgorith m
æĸ¹éĿ¢ çļĦ
ä¹ Į
' \
åİĭ ç¼©
è®¡ç®Ĺ æľº
çĬ¶ åĨµ
å½ĵ æĹ¶
Ġfac tor
Ġen ha
Ġa ir
çļĦ ä¸Ń
çļĦ æĥħåĨµä¸ĭ
æľī æīĢ
el low
å¯¿ åĳ½
h er
Ġini tial
ç¬¬ ä¸Ģä¸ª
i ther
u ge
åĲĦ ç±»
æļ Ĥ
Ġenviron ment
mo st
con om
Ġsh ort
çŁ¢ éĩı
}\ ;
hi ft
åıĮ æĸ¹
Ġmeasure ments
åı¤ åħ¸
ä¼ į
Ġgrow th
Ġ ä¹Ł
ä¸º ä»Ģä¹Ī
Ġ '
åĲĮ æł·
ç§ĳ çłĶ
th at
l uc
ĠR es
\! \!
æĶ¹ è¿Ľ
ur y
Ġ äºİ
Ġ èĢĮ
Ġse lec
) }_{
=\ ,
æĹł éĻĲ
éģ Ń
A l
èİ· åıĸ
ä¸Ģ å¹´
æĺ¯ çĶ±
ĠW hen
çı ł
ta ge
èĩ³ å°ĳ
Ġf urther
æ¡Ī ä¾ĭ
Ġca use
åĬ¨ çī©
æĪĲ åĪĨ
}= {\
ĠX ray
å¤§ å¤§
itu de
} }^{\
çº³ ç±³
Ġprocess es
A T
æī ¶
ck s
æľī ä¸Ģä¸ª
Ġreg ular
( [
æĪ ´
y ing
} <
Ġth ough
åĩ Ń
å¹¿ å·ŀ
åĢ¼ å¾Ĺ
è´¸ æĺĵ
éĢļ ä¿¡
èµ ŀ
ç»ı åİĨ
æ¨¡ åĿĹ
tic es
u d
Ġg reat
Ġu su
Ġinvestiga te
emp ty
si an
man ce
éļ Ĩ
Ġpa ti
çĵ ¶
ra ph
èĴ Ĥ
å°º å¯¸
å¡ĳ æĸĻ
åĳĬ è¯ī
ra ble
Ġpro gram
å® ¿
Ġi ll
te mp
ĠN ew
å¤§ éĥ¨åĪĨ
åĬŁ çİĩ
è° ģ
å¼º è°ĥ
èĳ£ äºĭ
æ³¢ åĬ¨
Ġma king
éģ µ
è®Ń ç»ĥ
å°± ä¸ļ
\| \)
ä» ĵ
Ġla ngu
Ġau th
Ġab ove
empty set
çĤ ¼
åıĺ å¾Ĺ
Ġas su
Ġg round
Ġcon duc
C O
Ġa mong
åİ» å¹´
ä¸į è¶³
è¢ ĭ
æķ° çļĦ
æİĴ åĲį
ty pe
Ġtreat ment
vari ant
æ½ľ åĬĽ
}. \]
}) _{
Ġh ard
Ġpol ar
Ġlevel s
å² ¸
Ġke ep
ä¼¼ ä¹İ
å® ¾
Ġnec ess
éĤ£ äºĽ
æ §
åĬł ä¸Ĭ
ent al
a x
èĥ Ģ
çļĦ åľ°
pp ing
éĵ¶ æ²³
é¦ĸ æ¬¡
éĢ Ĩ
_{ [
å¤§ å¤ļæķ°
é»ĳ æ´ŀ
æĢ§ è´¨
åĩ ¡
åĳ¨ åĽ´
å±± ä¸ľ
c er
oc ity
Ġpub lic
an ts
Ġde p
éķ¿ åº¦
ar p
çŃī çŃī
åĲ¯ åĬ¨
) &=
Ġ ä»İ
ä¸ ²
Ġlo g
ä¹ ı
åº Ħ
ol ds
h n
æľĢ å¤§çļĦ
èį Ĳ
é£Ł çī©
åħį è´¹
ä¹¦ è®°
æĹ ¦
Ġte ach
çŃī çº§
è· ĥ
çĽ¸ ä¼¼
çĿ ¡
çŃ ¹
å¾Ĺ åĩº
ï¼ī ãĢĤ
éĽ ķ
Ġsimu lations
ch es
Ġpres ented
æĤ¨ çļĦ
åĬŀ çĲĨ
æĲ º
is ed
om in
_{ -\
Ġan other
æĢ ķ
åĿ Ľ
ge ther
éĵ º
Ġapp ear
th ough
b race
æ·» åĬł
Ġcha nges
ol ar
å±ħ æ°ĳ
èģĶ èµĽ
ä¸Ĭ è¿°
Ġ ä¸ĭ
\ },
Ġstudi es
ci p
åķĨ æłĩ
éĤ ¦
çīĪ æľ¬
, }\
çĶµ åĬĽ
Ġ\( -\
Ġ ent
led ge
ç¾¤ ä¼Ĺ
å¹¿ ä¸ľ
Ġbene f
ä¼ ı
Ġstudi ed
)} =\
Ġsta tis
Ġquan ti
èº« ä»½
è¡Į æĺŁ
è¯Ĩ åĪ«
ĠB e
N A
éĩį è§Ĩ
é¢Ĩ åħĪ
å¼º çĥĪ
ran ce
å¦ ĩ
èĦī åĨ²
æī «
éĤ »
i ble
de g
}) }
èĦ ¸
ç¬¬ åĽĽ
èĲ¥ åħ»
å¤ĸ éĥ¨
åį³ åı¯
åĬł å¿«
Ġcons istent
_{ *
åģ ¶
Ġpres ence
ä»£ çĲĨ
Ġmo ve
åı¯ä»¥ åľ¨
Ġvi ew
.. .
b or
Ġex act
iv al
æĭ ľ
Ġpo sitive
Ġlo ss
åĨľ æĿĳ
èĥ İ
åĿ ¡
æĬ ĳ
al u
p ut
åĬ¨ ä½ľ
æĶ¶ éĽĨ
å¦Ĥ ä»Ĭ
atu re
å «
20 19
å½¢ çĬ¶
çŁ¥ åĲį
ĠW ith
Ġmo de
è± ª
çĻ» è®°
Ġclus ter
æıĲåĩº äºĨ
å¼Ĥ å¸¸
é«ĺ éĢŁ
i mensional
n ov
çº ł
å·¥ä½ľ çļĦ
Ġfu ll
Ġsc he
Ġ æĸ°
ä¸ ¹
ä¾ĭ åŃĲ
Ġshow s
è¡Į çļĦ
Ġme tal
Ġto tal
sp ace
ç¢ į
Ġexperi mental
ä¸ī è§Ĵ
æĸ ľ
Ġ åħ¶
å¼ķ åĬĽ
o y
å® ı
Ġf ar
åĲĦ åľ°
çº ½
çº¿ ä¸Ĭ
Ġ ~
æ· ¡
b on
é©± åĬ¨
çļĦ äº§åĵģ
Ġglob al
åıĺ å½¢
Ġto o
] }
Ġ1 8
Ġma jor
Ġd u
ĠA t
z ing
çĹħ æ¯Ĵ
è¶ħ å¯¼
p y
å¹´ ä»£
æ¶Ī æģ¯
)= -\
a cc
æĺ¾ èĳĹ
c op
å¤§ ä¼ļ
ç§ Ĵ
Ġspect ral
s ts
Ġimp le
Ġcha nnel
æĹ ¨
Ġ ^
éķ¿ çļĦ
ĠA r
var theta
æĪĳä»¬ è¯ģæĺİ
atter ing
éĿŀ çº¿æĢ§
). }\
ç¡® è®¤
æĪĳä»¬ çłĶç©¶
Ġre mo
ç¼ Ĩ
æ¸ł éģĵ
Ġclass ical
è¶³ å¤Ł
åĪĽ å»º
çļĦ æľĢ
ä¸ĭ éĿ¢
Ġcomp ared
æ° ı
è´Łè´£ äºº
éĤ Ģ
Ġb and
ä½ľ ä¸ļ
I D
è¸ ª
æ¦ ľ
åĨ· åį´
å¹´ æľĪ
-\ ,
ä¸Ģå®ļ è¦ģ
å¤ º
èĬĤ èĥ½
Ġsa mple
Ġ çĶ¨
åĺ ī
ç¢° æĴŀ
è£ħ é¥°
éĥ ĳ
å¦Ĥ ä¸ĭ
or ted
é¸ ¡
gra ph
è¾ĵ åħ¥
ĠH ere
æµ Ļ
ç»ı åħ¸
èī¯ å¥½
Ġadv an
Ġcorrespon ding
åĪ© æ¶¦
Ġfu nd
Ġpartic les
å®¡ æŁ¥
Ġ vec
Ġlo ok
åĳĪ çİ°
ä¾Ŀ æį®
åĬł çĥŃ
ä¸ª æľĪ
Ġle ngth
åľ° äº§
å¿ ½
çļĦ å¤ļ
å¯¹ è±¡
Ġfe el
æ° ¢
å¹¿ å¤§
Ġblo od
å®ŀéªĮ å®¤
ãĢĤ ï¼Ī
åĮ» çĶŁ
c ho
ĠL i
Ġinf lu
|\ ,
éħį åĲĪ
è· Į
å¼ §
Ġlear n
Ġstre ngth
( |
åŃ¦ çļĦ
è¿ĩ æ»¤
) })
å®ļ ä½į
èĽĭ çĻ½
Ġres our
è½¬ ç§»
çĮ ª
åĮ Ģ
m og
ç¼ ´
å½¢ è±¡
å¯ Ĵ
åľ¨ æŃ¤
æ±¡ æ°´
Ġrep ort
l ti
b ri
æĭ Ĵ
x ed
Ġcoup ling
fic ation
åŀ ĥ
ä¸Ĭ åįĩ
å¤į åĲĪ
åĨ² åĩ»
I S
æ¿Ģ åħī
åıĳ çĶµ
Ġcrea te
åľ ¾
çī¹ å®ļ
è®º æĸĩ
çªģ çł´
r or
æ¯ı ä¸Ģ
Ġlat tice
Ġcon ta
å¤ ¸
æī £
æĭ ¼
},\ ]
Ġ æĹ¶
en ter
éĺ Ģ
èĩª æĪĳ
leq slant
\! \
çļĦ æķ°æį®
æ²» çĲĨ
s quare
åħħ çĶµ
çĻ Į
æĪĳä»¬ å°Ĩ
æĦŁ æŁĵ
èµ ı
æĳĺ è¦ģ
Ġlik ely
ä¹ ³
Ġo ld
æĴ ĳ
ä½İ äºİ
éĩį åĬĽ
}} +
æĽ´ æĸ°
st rate
å¯¹ åºĶ
åħ± äº«
e ts
èĥ ¡
Ġe m
éĽĨ æĪĲ
æł ı
Ġd ig
èį ¡
äº ¡
Ġst rateg
Ġla w
äº ķ
Ġso ft
Ġcharac teri
æľī çĿĢ
i ous
Ġ ri
å° Ĭ
ä¸į åĪ°
Ġp u
å½¢ æĢģ
Ġc l
æµģ éĩı
åĶ Ĳ
Ġsu ccess
Ġ åı¯
å¼º åĮĸ
åĪ Ģ
ĠB ut
ec tively
æµģ åĬ¨
æ³ ½
åŀĥ åľ¾
ä¼ĺ è´¨
Ġa mp
Ġ ä¼ļ
Ġa ge
Ġdise ase
Ġfeatu res
ä¸Ń åįİ
çº¿ çļĦ
åķĨ åĬ¡
æİ¨ åĩº
Ġag ree
æ²Ł éĢļ
}} +\
k y
Ġf act
æľī äºº
Ġm en
åĶ¯ ä¸Ģ
æ¸ħ æ´ģ
åĨł åĨĽ
ä¼ ½
ir cu
ç®¡ éģĵ
éĢļ çĶ¨
æī¿ æĭħ
å¤ļ å°ĳ
ĠD i
å¼ Ł
èĤ º
Ġ æĪĸ
è½¬ åŀĭ
ä» ģ
si te
Ġres on
Ġfollow ing
åł ¡
Ġind ust
åľ¨ æľ¬æĸĩ
çº¢ èī²
E S
ç¥ŀ ç»ı
Ġunderstand ing
åĮĸ å·¥
Ġ ä»¬
s si
Ġp atter
æİĮ æı¡
vi ties
ä¸» åĬ¨
is ions
è¿ «
ä¸Ń å°ı
Ġdeter mine
u als
Ġsol ar
Ġapplic ations
äº¤ åıī
Ġw hi
æĬ¥ éģĵ
Ġpres sure
èħĲ èļĢ
Ġmana ge
éĩĩ è´Ń
war ds
å®ļ æľŁ
è§Ĥ ä¼Ĺ
å¼º çļĦ
è¾¹ ç¼ĺ
Ġinte g
Ġpo ints
æĽ´å¤ļ çļĦ
çİ© å®¶
} :=\
å¼ķ å¯¼
æ³ ī
Ġdiff ic
F or
Ġ [\
ou th
éĹ®é¢ĺ çļĦ
es sion
Ġacc ess
ä¿ Ĺ
åĮ» åŃ¦
è°ĥ èĬĤ
åħ ¹
æ·± åº¦
M S
Ġdi a
Ġs w
æĭ Ĩ
Ġidenti fy
Big r
åĲĦ ä¸ª
Ġneed s
ng ing
å¿ Ĩ
Ġagain st
Ġh ar
' }
çĤ ¸
ä¸Ģ çĤ¹
äº¤ æį¢
ci es
è´· æ¬¾
çİ Ľ
s on
b its
vo id
åĲ ´
ç¥ Ŀ
åī ª
ffici ent
Ġe conom
ç£ģ çĽĺ
Ġsymme try
Ġpla ne
~~ ~~
æ³ķ éĻ¢
çĶµ èĦĳ
æī© æķ£
Ġtechn ology
ra tions
é©¾ é©¶
Ġdy na
å®ŀ åĬĽ
éĺ² æİ§
rop y
Ġacc ount
é«ĺ æ¸©
æİ¨ èįĲ
ä¸Ģ ä½ĵ
éĹ ²
ä¿Ŀ æ¸©
ä»ª åĻ¨
åĲ« æľī
Ġframe work
Ġpre c
æ¯ı å¹´
qu ence
cep t
Ġste llar
C o
ĠC O
ç¼ Ŀ
Ġadd ress
Ġdevelop ed
é ŀ
lic it
Ġnumer ical
m ore
æ°ĳ æĹı
ĠU sing
Ġare as
( )
Ġre duce
çĽ¸åºĶ çļĦ
Ġcharacter istic
èı ²
Ġac tion
min o
T o
wh ich
la ting
Ġcommun ic
Ġs mo
Ġse arch
er ing
Ġle ast
Ġbel ie
ç² Ĺ
åĪ Ĭ
å®¤ åĨħ
re l
æľīæķĪ çļĦ
ä½ĵ çİ°
Ġnor mal
éĺħ è¯»
Ġmulti ple
Ġma trix
çł Ĥ
Ġt rac
è¯ ±
ç¨ Ģ
ç§¯ åĪĨ
an o
Ġex ten
èĤ Į
u ro
Ġpop ulation
å¼ı çļĦ
Ġma nif
uri ty
Ġnatu re
Ġs ince
ä¸ĵ åĪ©
Ġo thers
or ies
Ġco me
åħĪ çĶŁ
ä¹ł æĥ¯
åĸ Ŀ
çĶµ æµģ
A n
éĿĴ å¹´
Ġpers on
Ġp ul
ou ble
åŀ Ĥ
æķı æĦŁ
sub stack
) |\
åįı è°ĥ
Ġflu x
Ġg overn
å¤© çĦ¶
Ġre ce
C S
Ġa to
è¾ĵ åĩº
æĬ ¢
çľŁ ç©º
en ces
+ |
Ġw ant
Ġder ived
Ġ( )
éĶ ĭ
Ġch ar
åıį æĺł
}}\ ,
æĳ Ĩ
Ġma gne
çĶµ æºĲ
Ġre ach
å±Ģ éĥ¨
æĸĩ æĺİ
åıĺ æĪĲ
Ġgala xy
Ġ è¿ĻäºĽ
å²Ĺ ä½į
æ¸ Ĺ
çİ¯ èĬĤ
é¡º åĪ©
Ġinterac tions
çķ ħ
ĠO n
}) +
åĪĨ è¾¨
å°º åº¦
ç±» åĪ«
Ġev idence
ç± į
Ġhis tory
Ġemp loy
åŃĹ æ®µ
ĠC ar
å° Ŀ
æ¶ µ
åľ° éĿ¢
æį ķ
ç©ºéĹ´ çļĦ
e m
w o
æĿ ľ
éĻ ¶
rac y
æīĢ è°ĵ
èĮĥåĽ´ åĨħ
Ġst ra
åĲĦ é¡¹
Ġperfor mance
ve y
å¥ ı
ä¹Ł å°±æĺ¯
Ġpartic le
ä» ¿
èĩª ä¸»
çľŁ çļĦ
ma r
åľº æĻ¯
Ġdec ay
Ġfac tors
: -
in ation
åł Ĩ
ä¸» ç®¡
æľī äºĨ
u le
å¿ ĺ
Ġb ar
å®¶ éķ¿
åŃ Ļ
\ }_{
Ġdiscuss ed
çĩ ¥
çļĦ çĥŃ
Ġtechni ques
æ¸ħ æ´Ĺ
\, +\,
æ¶Ī éĺ²
çİ° æľī
åĭ ¤
ç¨³å®ļ æĢ§
åĪº æ¿Ģ
åŃĺ åĤ¨
b ul
li on
å¯» æī¾
è·¯ å¾Ħ
ç»Ħ çļĦ
æķ£ å°Ħ
Ġdescri be
æī İ
åĩ ¯
g o
Ġv ia
Ġph en
sc il
Ġclo se
Big l
) :
Ġvel ocity
æķ ¬
èħ ¾
Ġ, \)
Ġlar ger
Ġbus iness
Ġpos si
b ly
Ġc our
Ġinte gra
åĵģ ç§į
åĪĨ éħį
å¤ĸ çļĦ
ig en
id es
s te
åŃ¦ ç§ĳ
I N
åľ° çĲĥ
å° ĸ
) )\)
åľ¨ ä¸Ń
åľ¨ äºİ
ç»´ ä¿®
éĶĪ éĴ¢
ç¥ ĸ
i led
éĿ¢ ä¸´
æ¼ Ĩ
ç» ª
20 22
æľī åı¯èĥ½
Ġd id
æ¸ħ æ¥ļ
at or
è¯ģ ä¹¦
Ġstruc tures
å°ģ éĹŃ
}) ^
åĻª éŁ³
æĵ ¦
T f
Ġ åĲİ
Ġe mb
} }\]
è¿Ļ ä¹Ī
Ġob jects
ĠF e
Ġn ame
å® ħ
ç¬¬ åįģ
Ġ æľĢ
Ġfrequen cy
èİ·å¾Ĺ äºĨ
é¢ĳ è°±
åĲĮ æŃ¥
Ġac ross
èĤ¯ å®ļ
P C
Ġapp lied
luc tu
th es
è®¨è®º äºĨ
ä¼Ļ ä¼´
Ġbel ow
al k
te st
å§ĭ ç»Ī
}^ *
æŁ Ķ
èį¯ çī©
Ġyou ng
Ġsuper conduc
)} _
b lack
Ġsc attering
Ġsp a
| |
}, {\
ni ties
it tle
ç¾ Ĭ
æī Ń
éĥ¨ ä»¶
Ġe asi
Ġga uge
çĶ ĺ
or tu
çĶŁ éķ¿
Ġre ve
èĭ± è¯Ń
äº« åıĹ
å µ
ç¤º èĮĥ
A M
geq slant
ma in
g al
Ġto gether
Ġqu ality
Ġcon ver
åĪĽ ä½ľ
Ġh or
era l
æĪĳä»¬ çĶ¨
Ġe ither
æłĩ å¿Ĺ
ç»Ļ äºĪ
Ġexperi ence
Ġs pi
åĲį çļĦ
ar ds
ga tive
è¶³ çĲĥ
) }(\
f ac
æı Ń
}} ,\
c ing
li p
éĩį åºĨ
çĻ £
å¹¶ åľ¨
Ġcent ral
çī© ä½ĵ
åĢ¼ çļĦ
äºº å£«
åĩº çīĪ
æĤ ¬
it or
Ġev alu
åĲĪ æĪĲ
ympto ms
ar is
äºĮ æ¬¡
Ġspect ra
çļĦ åŁºç¡Ģ
åıĳ è¡¨
Ġter m
O S
èĢĥ çĶŁ
æĦ Ī
di tion
å®ĺ æĸ¹
çīĽ çļ®
æĭħ ä»»
ĠC omp
b ut
ro scop
åıĺ æį¢
åĲĮ ä¸Ģ
åºĶçĶ¨ äºİ
Ġelec tr
Ġal ways
èĪª ç©º
g reen
å·¥ åİĤ
Ġo scil
å± ¥
Ġ è¢«
Ġex hi
è¯ģ åĪ¸
ĠF in
è¡¥ åħħ
c an
è´¢ æĶ¿
u les
çĪ¶ æ¯į
æµĻ æ±Ł
E T
è¾ Ľ
ous ly
åľ¨ çļĦ
Ġr un
é½ ¿
Ġ _{\
i re
æ± ¤
æĢ» ç»ĵ
pp ed
åĮ¹ éħį
Ġthe r
åħī åŃĲ
ĠC a
k a
ä¼ł æĦŁ
Ġha pp
å·² çŁ¥
=\ {
ĠM ore
è¿ĳ å¹´æĿ¥
Ġz ero
åħ¬ åĽŃ
le nt
}) }\
Ġexis tence
åŁº åĽł
Ġf it
Ġelec tric
cal e
ä¸ĵ éĹ¨
ç¬¬ä¸Ģ æ¬¡
Ġe y
åħ³ èģĶ
åŃ¦ æľ¯
Ġin de
Ġsub s
Ġ éĢļè¿ĩ
Ġar ticle
æ´» æĢ§
é«ĺ è´¨éĩı
20 18
Ġ æĿ¥
åı¯ä»¥ éĢļè¿ĩ
å¤ļ åħĥ
Ġ ä½¿çĶ¨
æł¹ æľ¬
éĢ »
par t
av y
å¸¸ è§Ħ
}) ^{\
B A
p r
Ġ1 5
è®¤ çľŁ
è¶ħ çº§
æľĪ ä»½
çĽ Ĵ
æĺ¯ ä¸į
å¸ĥ å±Ģ
çĽ´ æĴŃ
Ġsi mp
èĦ Ĭ
ĠE n
å¹´ é¾Ħ
Ġindivid ual
å°ı ç»Ħ
åİŁ çĲĨ
æīĭ æ®µ
Ġcr uc
Ġ è¦ģ
n tial
Ġnecess ary
Ġmateri al
6 67
ĠL e
åĲĪ éĩĳ
æ±Ł èĭı
åĪ© äºİ
å·ŀ å¸Ĥ
Ġhy dro
i um
Ġs itu
éĩĮ çļĦ
Ġreg ions
Ġhe at
æīĵ å¼Ģ
åıĳ çļĦ
ä¸Ģ å®¶
äºĮ åįģ
é© »
Ġwhe ther
åĽ´ ç»ķ
g ine
åħ¬ åĳĬ
res h
æĮ ĸ
å¼ Ĺ
Ġra tio
çĲ ´
ĠS t
äºĭ é¡¹
åĪĿ å§ĭ
ä¸´ çķĮ
\\ \
çº µ
çĵ ·
Ġformu la
Ġfe ed
I m
Ġc yc
\, .
Ġre lation
sin h
Ġradi o
is ms
å°Ĩ åľ¨
æī° åĬ¨
è ķ
Ġinter pre
åįļ å£«
er c
la t
) ).
åħħ æ»¡
çĥ ¯
Ġuni que
Ġincre asing
åľº çļĦ
è ²
Ġexperi ments
Ġat ta
éļ¾ ä»¥
la b
è¿Ľ åı£
èĤ ¿
åľº æīĢ
ç»Ŀ å¯¹
èĩ´ åĬĽ
æĺ¯ æĮĩ
si tions
ä¸Ģ åĪĩ
é» İ
ĠC ha
æĶ¯ æĴĳ
Ġspec ies
ra ge
Ġ1 6
Ġphen omen
te red
Ġma kes
as h
Ġback ground
æĶ¾ åľ¨
on es
é¼ĵ åĬ±
yn om
é¢Ĺ ç²Ĵ
çı į
å¤į åĪ¶
Ġre ac
å°¤åħ¶ æĺ¯
Ġv ir
èĬĤ çĤ¹
èģĮ å·¥
}) -
ä¼Ĺ å¤ļ
è´¢ åĬ¡
ir d
èĦ ı
ä¸´ åºĬ
ta ngle
Ġf ore
åī ©
æĻ ĵ
èī ¾
v dots
çļĦ æĬĢæľ¯
b ack
C P
er mi
æĽ´ å¥½çļĦ
èģĶ çĽŁ
è®© äºº
Ġd og
Ġi r
åįĬ å¹´
] =\
åĬł çĽŁ
æĶ¹ éĢł
Ġexp ected
Ġissu es
) ),
å¹¸ ç¦ı
Ġcell s
ä¾Ŀ æ³ķ
Ġho le
pec ially
è¿ Ł
çĪ ¸
å¾® ä¿¡
è§Ĵ èī²
Ġsci en
Ġbe gin
å¿ĥ çļĦ
èµ µ
ç»´ åº¦
èĳ ¡
b lue
çģ Į
Ġknow ledge
fi eld
Ġ æľ¬
ä¸Ń éĹ´
Ġpla nt
å£ ®
è¿ĳ æĹ¥
ĠM on
çĤ Ń
éĺŁ ä¼į
æĺ¯ ä»Ģä¹Ī
Ġmateri als
åı¬ å¼Ģ
Ġ çłĶç©¶
è¿Ľ åĮĸ
èŀį èµĦ
ä½ł ä»¬
ç¼ ł
çĶ ľ
p es
æĪĲ éĥ½
Ġproduc t
åĨ »
a ve
ä¸°å¯Į çļĦ
èĨ ¨
åĽ¾ å½¢
éĢļ éģĵ
åī ĸ
Ġex ci
Ġwa ys
I T
åĪ© çĽĬ
å¥³ æĢ§
ĠS ome
åĲĪ æł¼
Ġexperi ment
j i
æĽ´ ä¸º
Ġen sure
e ff
our s
Ġdi ag
Ġper turb
var rho
Ġlangu age
Ġc ircu
è½¬ åıĺ
æµģ ä½ĵ
å¾ Ĵ
sc r
Ġbound ary
medi ate
è¿Ľ æŃ¥
èĢ ¶
è° Ĳ
an a
Ġabs or
I M
Ġf luctu
éĢļ éĩı
åĩ ĳ
è² Į
Ġdi v
Ġcompon ents
e y
Ġapplic ation
Ġb ul
åĵ ²
å¤§ çº¦
Ġha ving
çīĽçļ® çĻ£
æ³ķ è§Ħ
Ġmeasu red
åħ± åĴĮ
è¿½ æ±Ĥ
Ġcol l
Ġs yn
æĸ¯ åĿ¦
åħ¬ ä¼Ĺ
}} -
S U
te q
å±ķ çİ°
l it
åį± éĻ©
Ġla st
çªģ åĩº
ou n
Ġnon linear
äºĭ æķħ
The re
ç½ĳ ä¸Ĭ
å®£ å¸ĥ
.. .,
èĤ ł
ymme tric
) <\
Ġ ï¼Ľ
è¿Ļ æ¬¡
ä¸į éĶĪéĴ¢
me q
Ġ }{
Ġof fer
è¡ į
man n
in a
æĩ Ĥ
è¾ ī
å¿ ł
çĶµ è·¯
og ni
æķ´ åĲĪ
å°Ĩ ä¼ļ
ä½ĵ ç§¯
pi d
Ġconc lu
ti ves
or i
Ġpri ma
åĪĨ æķ£
Ġst ress
Ġb al
Ġm i
d ent
Ġhy per
Ġdo c
ral le
å¸Ĥåľº çļĦ
Ġex tre
Ġ è¿Ľè¡Į
Ġor bit
äºİ æĺ¯
çĶµ åİĭ
æķ° åĢ¼
åĽŀ æĶ¶
Ġ çĶ±
Ġne xt
å¼ ¯
Ġi on
Ġele ments
å§ ĵ
æĢ» æĺ¯
y ellow
ut ri
Ġsign al
H e
åīį çļĦ
Ġdef ined
ä¸Ģ ç³»åĪĹ
æĽ´ æĺ¯
ti vities
ä¸»è¦ģ æĺ¯
Ġdis tance
an ces
çº¢ å¤ĸ
}}{ (
åľ¨ è¿ĻéĩĮ
i mp
re ed
Ġlead ing
Ġcos m
æŀģ éĻĲ
Ġelec tro
ç®Ģ ç§°
Ġa verage
Ġpro ced
åľ° åĿĢ
æ¸ħ æĻ
Ġsc en
Ġsu m
èµ ĭ
Ġf ul
Ġcon tra
ter na
Ġwe b
Ġrec ently
math scr
Ġbro ad
è§Ĩ ä¸º
ç½Ĺ æĸ¯
çļĦ ä½ľçĶ¨
cos h
I P
Ġdepend ence
é¢Ħ éĺ²
å¤ļ å¹´
éĽ ¾
çŃĸ çķ¥
us sian
æ° Ľ
A d
çł ĸ
æĬĢæľ¯ çļĦ
Ġpre vent
gra ms
çĲĨè®º çļĦ
os p
çŀ ¬
d ical
p ed
åĪĨè¾¨ çİĩ
è¡° åıĺ
Ġrequi red
Ġvari ety
Ġth ings
Ġch arge
éļı åĲİ
5 00
ma ss
è¿ĺ è¦ģ
æ° ¨
Ġexp licit
re te
Ġin ten
åŃ¦ ä¼ļ
åµ Į
å¹² éĥ¨
b and
åĲĪ éĢĤ
åĽĽ ä¸ª
Ġse en
Ġwh y
di tional
Ġwi d
èĪ į
åĿĲ æłĩ
æĸĩ åŃĹ
s w
å¼¹ æĢ§
å£ ¤
Ġre view
Ġco st
Ġser ies
Ġdescri bed
C on
Ġ ;
o mes
Ġtheore tical
Ġ1 1
éĢĲ æŃ¥
Ġso ci
us h
Ġdis k
Ġdemon strate
ä½ ©
] _{
åĽĽ å·Ŀ
åĲ« éĩı
æľĢ ä½İ
ç¡® å®ŀ
Ġl ines
ri ed
Ġpa in
å»¶ ä¼¸
Ġpa th
æĦŁ åıĹ
Ġproduc ts
Ġt arge
Ġth us
ãĢĭ ï¼Į
Ġpa ra
å¸¦ æľī
Ġneu tr
é¸ Ł
åŃ£ åº¦
çº¦ æĿŁ
çĶµ ç¼Ĩ
in te
Ġ gamma
Ġre si
æ» ´
ä»ĭç»į äºĨ
Ġcon text
Ġev ent
do wn
s is
Ġfin ding
vera ll
a ra
)\ ;
å»º éĢł
ta ne
Ġan imal
ĠR a
A N
èİ·å¾Ĺ çļĦ
è£ħ å¤ĩ
æĹ¶éĹ´ çļĦ
åįı åĬ©
Ġd s
æĪĲ çĨŁ
Ġd omin
ä¸ĵä¸ļ çļĦ
è´§ å¸ģ
Ġdeg ree
Ġth in
éĵģ è·¯
ve red
ç² ®
Ġder ive
Ġwho se
d r
e le
Ġspa tial
ä»¥ ä¾¿
Ġresp ect
èĬĤ çĽ®
or ld
äºİ å¹´
éĢ» è¾ĳ
è ¹
åı¯èĥ½ æĺ¯
è®¸ åı¯
æĭ Ķ
Ġ\ }
ä¸» ä½ĵ
Ġv olu
é«ĺ çº§
çĮ «
Ġche mical
Ġs ide
)^ \
æľ¬æĸĩ æĳĺè¦ģ
Ġac tivity
Ġcon se
Ġlea ds
Ġcorre lation
æµ Ĩ
ĠR o
åº¦ åĴĮ
åĩĢ åĮĸ
Ġcan not
èĲ Ħ
W hen
åİŁ å§ĭ
å¾Ĺ åĪ°äºĨ
Ġindivid uals
Ġs mal
çļĦ åľ°æĸ¹
åĲ Ĭ
Ġnetwork s
si meq
åĲĪ å¹¶
S D
åįĬ å¾Ħ
\, ,
ç³»ç»Ł ä¸Ń
åľ¨ ä¸Ģèµ·
æĺ Į
è¿Ľ åĪ¶
æĸ° åŀĭ
Ġam ount
ab ly
ĠC ol
æ¶² ä½ĵ
iz ing
Ġmain tain
}\ !
F T
Ġen ough
ĠE ng
é¥® é£Ł
Ġcruc ial
æĸ° èĥ½æºĲ
æ¯ı ä¸Ģä¸ª
Ġsa ti
Ġ å°ı
åĪ¶ åĵģ
ĠM o
Ġvec tor
åĲį ç§°
Ġtechni que
Ġwork s
åŃ ķ
å¾ Ĳ
E C
å±ŀ æĢ§
å¤§ äºİ
al i
å¹² çĩ¥
èĩªåĬ¨ åĮĸ
ta tive
åģļ åĩº
Ġau to
æĪĳä»¬ åı¯ä»¥
æľĢ å°ı
} /\
åľ° ä½į
Ġwi de
é¥ ±
èĥ ĥ
)\ ,\
Ġcompon ent
é¦ Ī
å®ŀ è¡Į
Ġev ents
å¯¼ ä½ĵ
ä»ĭ è´¨
æīĢ éľĢ
æĵįä½ľ åĳĺ
Ġb ur
Ġphys ics
é¢ĳ éģĵ
re g
æ£Ģ éªĮ
l ig
sf er
Ġf as
Ġpro pose
å®Į ç¾İ
æ¸¸ å®¢
éĢĤ çĶ¨
æĭĴ ç»Ŀ
k now
æĽ¿ ä»£
ä¼ļ æľī
è¡Įä¸ļ çļĦ
åĿĩ åĮĢ
Ġa void
æģ Ĳ
å°ĳ å¹´
çł´ åĿı
Ġw in
Ġo u
Ġclus ters
u sion
å°± èĥ½
ĠO ne
} &{{
æĢ» ä½ĵ
æĶ¶ çĽĬ
åħ¬ è·¯
Ġexa mples
äº§ æĿĥ
æ² ĥ
Ġcol or
Ġmo tion
ne w
ç©º è°ĥ
te ro
Ġusu ally
çĬ¶æĢģ çļĦ
. )
æľºåĻ¨ äºº
åĲ Ľ
Ġbuil ding
çĵ ľ
åľ¨ è¿Ļä¸ª
æľ ±
è§Ĩ è§ī
ma ge
Ġpro ject
Ġda ys
w here
Ġref lec
Ġw ar
æĪ¿ å±ĭ
}, }\
åĬ ²
æľĢ åĪĿ
Ġ åĪĨ
Ġra ther
è¾ĥ å¤§
ä¸» æĮģ
Ġmass es
ä¸Ģ å®ļçļĦ
æĹ¶ åĪ»
å¾Ī éļ¾
èĳ¡ èĲĦ
\| _
b es
Ġques tion
å° ¿
ç»´ æĮģ
é«ĺ æł¡
\| ^
è½¬ åĮĸ
h box
ac ks
éħį å¥Ĺ
Ġaddi tional
åĽ¾ çīĩ
ac tic
åİŁ æĸĻ
od es
è®¿ éĹ®
èĻ İ
Ġra tes
Ġy i
Ġla nd
éħ µ
la n
Ġ lon
Ġcommun ity
} :=
æĪĲ çļĦ
çĶµ ç£ģ
æĢĿ èĢĥ
Ġs ymptoms
æ»¡ æĦı
ç¼º ä¹ı
Ġc at
åĮ» èį¯
Ġon es
Ġsen se
e k
Ġsati sf
åĪĽ æĦı
éĩį éĩı
pla ce
c ation
å¹² æī°
X i
| <
Ġ /
ran s
ili bri
åħ¶ å®ĥ
åħļ åĳĺ
Ġas ympto
Ġ text
å®ŀéĻħ ä¸Ĭ
Ġprob ability
æīĭ æľ¯
èĢĮ ä¸įæĺ¯
å¨ ±ä¹Ĳ
ll ing
éľ į
Ġsp aces
H z
ä¸į åĨį
çļĦ ä¼ģä¸ļ
åı¯èĥ½ æĢ§
Ġexp on
æŁ ľ
}) ^{-
Ġcomp an
å±Ĥ çļĦ
it ing
ri er
Ġin dependent
Ġpro to
ress ed
] )\)
on ic
Ġpol ynom
ĠP o
çŃ Ľ
åĲĪ çī©
åľ¨ å¹´
è£ħ ä¿®
Ġapproxi mation
åĪ ĳ
Ġ ä½Ĩ
æĥħ ç»ª
pri ate
åħļ å§Ķ
ĠS c
Ġ æĹ¥
ä¸Ģ æĿ¡
å®¶ åħ·
å¾® åŃĲ
éŃ Ķ
pro pto
se teq
Ġ éĥ½
å¦ »
Ġstar t
ç¼ĸ çłģ
æľŁ å¾ħ
Ġther mal
ç¨ ¿
Ġpla nts
æ¬ ²
Ġhow ever
Ġs low
ï¼ī ãĢģ
å½ ¼
åĬ© äºİ
Ġco e
éĵ ¸
Ġw omen
w ise
æĸĩ åŃ¦
Ġexp an
n ter
Ġmas sive
èĤ¡ ä¸ľ
åĪ¤ æĸŃ
è®¤ åı¯
te ra
Ġth a
å®ļ åĪ¶
ĠN e
_{ {\
Ġ\\ &=
èĲ¥ ä¸ļ
ãĢ ĳ
éĺ² æĬ¤
one y
Ġl ittle
ri end
Ġre d
se u
åį° åĪ·
ç§į ç±»
å¿ Ļ
æŁ¥ è¯¢
æĻ¯ åĮº
Ġequ ival
åŃĹ ç¬¦
åı¯ è§ģ
é¢ĨåŁŁ çļĦ
ä¸Ģ æĹ¦
ä¸Ĭ ä¸ĭ
æĪĳä»¬ æĺ¾ç¤º
åħ¨ ä½ĵ
ti re
æīĢæľī çļĦ
èĤ¡ ç¥¨
Ġrespon se
bul let
) |^
H C
Ġopti mal
E x
p u
å¸ ķ
ä¾Ŀ çĦ¶
ä¿¡ çĶ¨
Ġ ).
Ġde ep
P ro
èĩ´åĬĽ äºİ
{ (\
ãĢ Ĳ
èħ Ķ
f ree
æĺ Ĩ
ter nal
ç»ĵ è®º
éĽĨ ä½ĵ
Ġta ken
è§Ĥ çĤ¹
åį° åº¦
Ġcalcu lations
Ġno ise
M C
Ġ åıĬ
äºº åľ¨
ä¼ĺ çĤ¹
ä¼ļ åĳĺ
G N
Ġwe ight
Ġscen ari
c or
åıĳ åĬ¨
ĠC om
æİ ĺ
Ġ1 4
Ġsignificant ly
Ġma t
åĮº åĪ«
åĨ Ĵ
ç»ĵæŀĦ çļĦ
åĩ½æķ° çļĦ
= |
d ers
æĸ¹ çļĦ
bit ra
}\ |_{
æĽ¾ ç»ı
çĽĳ æİ§
Ġste p
Ġsk ills
Ġp ut
ĠA u
Big g
Ġas p
åı¦ ä¸Ģä¸ª
Ġa da
ç±»åŀĭ çļĦ
çļĦ åĲĮæĹ¶
ä¸ĭ åįĪ
åĨ³ èµĽ
Y ou
r floor
su per
Ġnu mbers
ce le
te l
èĨ¨ èĥĢ
ç¨³ å®ļçļĦ
ac u
Ġal most
æĪĳä»¬ ä½¿çĶ¨
Ġem erg
Ġex tra
åķ Ĭ
è¥¿ åħĥ
Ġmechan ism
ç« ¹
å±ķ è§Ī
ralle l
å· ¡
çĽ Ī
wa ve
p res
è®¾ ç«ĭ
) &=\
æıĲ åīį
el ves
ton ian
ä¸Ń åŃĲ
å¿Ĺ æĦ¿
ar th
æ¸ħæĻ °
^{* }(
l or
å¦Ĥæŀľ ä½ł
b ur
Ġgra vi
ä¼łæĦŁ åĻ¨
è° ĭ
æĪ¿ åľ°äº§
Ġp ass
Ġcla ssi
f ety
Ġ1 3
ĠN o
pro duc
^* \
on om
è®¾å¤ĩ çļĦ
æ´ ª
Ġagree ment
a mental
å¼ ¦
èĢĥèĻĳ åĪ°
è¿Ŀ åıį
éī´ å®ļ
æīĢ åľ¨
read y
b erg
Ġprovid ed
ä½İ æ¸©
åĬŀåħ¬ å®¤
Ġ ]
gh t
Ġpro duce
rou p
tu ally
ç¡ ķ
Ġsp eed
Ġopp ortu
s y
éª ¤
èĩª è¡Į
æµ ħ
å¤ ¹
çī ¢
Ġfor ce
è¿Ľ ç¨ĭ
Ġ åĩº
Ġla b
Ġre ason
l floor
èĸ ª
Ġpro fi
çĽ´ åĪ°
} '
èħ ¹
Ġab ility
Ġes pecially
ĠW hile
ful ly
è¿ĺ åı¯ä»¥
æĦŁ è°¢
æıĲ äº¤
k ed
è¿ĳ æľŁ
g i
ĠL et
ma s
}| ^{
åĴĮ åħ¶ä»ĸ
å¤§ æ°Ķ
æĭĽ çĶŁ
) ï¼Į
Ġconstruc tion
åİ ¨
A L
ou d
è¾ħ åĬ©
åĲĮ æĦı
çĶµ èį·
Ġ\ ,\
ys te
c m
å°Ĩ åħ¶
åį ĵ
ç¡ «
ĠI ts
33 33
ten tion
å½ĵ ä¸Ń
æľĢ æĸ°
nc ed
cri p
ĠJ u
åľŁ å£¤
v an
éĹ ª
Ġsche me
å¿« ä¹Ĳ
or th
åı° æ¹¾
| _{\
ä¼ļ ä¸Ĭ
æł¡ åĽŃ
èµĦ è®¯
å¥ ī
Ġ ä»ĸ
ç´§ åĩĳ
èµ ¶
æĮ¯ å¹ħ
æ¶Ī å¤±
ç½ ©
Ġ2 00
ä»¶ çļĦ
ç»Ĩ èĬĤ
æ²³ åįĹ
æķħ éļľ
Ġ{ {
å¤§ å¹ħ
åĪ© äºļ
Ġta king
o sition
å¹³æĸ¹ ç±³
Ġv o
Ġlu mino
éĥ¨ çļĦ
pa ga
are nt
äºļ æ´²
Ġdetermin ed
ges t
Ġamp l
Ġre li
çŃī ç¦»åŃĲ
* *
åľ° åĽ¾
æľī è¶£
Ġeduc ation
S p
Ġsu re
çĻ½ æĸĳ
å» ī
Ġma gn
er ic
Ġ å°±
ï ½
æ¼Ķ åıĺ
æ¡ ĥ
Ġdyna mical
ĠAmeric an
Ġu pper
over y
E M
éĥ½ åľ¨
Ġmoment um
æķ ¢
Ġen cou
ä½ľ åĩº
èĩ³ ä»Ĭ
Ġc re
Ġbas is
A D
Ġun it
æī¹ åĩĨ
Ġrele v
å°½ éĩı
æĻ¶ ä½ĵ
ç© ·
Ġtool s
Ġn a
Ġtransp ort
om orph
Ġhigh ly
çŁ³ æ²¹
al e
çĽ¸ åıį
Ġper form
è¿ Ī
ç¦» å¼Ģ
C C
y l
å½ ¹
æĸ¯ çī¹
Ġa way
ä¹¡ æĿĳ
Ġ\(\{ |
æĬ Ľ
å¾Ī å¥½
éĴ »
æ» ļ
_{ |
éģĩ åĪ°
éĥ¨ ç½²
})\ ]
ne y
str ic
am il
z z
Ġbenef its
Ġc u
| _
Ġth ink
for ma
è¥¿ çıŃ
äºĮ è¿ĽåĪ¶
åĬł å¤§
åĩł å¹´
çĶŁæ´» ä¸Ń
æ¨¡åŀĭ ä¸Ń
Ġresour ces
Ġre st
Ġd ont
æĿĥ åĪ©
cha nge
en ergy
æĹ ģ
vers al
çļĦ åīį
æĢ ª
se mb
s a
æĮ ¤
ilibri um
å® ĭ
æĬķèµĦ èĢħ
éļľ ç¢į
f unc
å°Ķ é¡¿
Ġco de
å¯ Ħ
h ol
Ġhe art
ç½Ĺ é©¬
æĬĳ åĪ¶
20 17
Ġ3 0
ç²¾ åº¦
Ġ ä¸ŃåĽ½
åĽŃ åĮº
f low
æ¯ ģ
Ġbra in
) _{\
å¾ ½
Ġ1 7
éĶ ¡
Ġwork ing
Ġstrong ly
o ks
å¹¼ åĦ¿
é¤Ĳ é¥®
ha n
æĪª èĩ³
äºº ä½ĵ
seu do
éĢı è¿ĩ
éĥ½ ä¸į
nc y
Ġscal ar
Ġhel ps
Ġar bitra
Ġsha pe
è¾ĥ ä½İ
lic ations
si ties
lish ed
Ġt ry
Ġgiv es
æį Ĳ
æµ ¸
èĶ ¬
Ġfi xed
éĢ ĥ
Ġinclu des
çĶ³ æĬ¥
P P
èī² å½©
les cop
Ġpo sition
Ġcle an
i fied
Ġneed ed
åĨ³ çŃĸ
èĭ¥ å¹²
åı¥ è¯Ŀ
ä» Ķ
æĬ ±
Ġradi ation
å£° éŁ³
Ġexplo re
k i
çĻ¾ åĪĨ
è®© æĪĳä»¬
Ġme tric
åĩ ī
Ġ æĢ§
Ġre ds
å·¥ä½ľ äººåĳĺ
Ġdiffere nce
Ġne gative
ç´¯ è®¡
f aces
æĸ° åĨł
Ġpro of
æĿ Ń
æ¡ Į
66 67
ti liz
Ġhealth y
3 00
çļĦ ä¸Ģç§į
ear ch
le ngth
ĠS ch
å¸¸ æķ°
åĬĽ åŃ¦
åĮº åĿĹ
gen era
ĠUni versity
å¹¶ ä¸įæĺ¯
å¤ļ æ¬¡
mu lti
ĠA I
Ġg rea
ä¼ĺ åħĪ
èµ ģ
Ġresul ting
åĪ« äºº
æŀĦ éĢł
o king
æĢ» ç»ıçĲĨ
Ġmar ket
Ġma ch
ä¸ī ç»´
æ¬ £
Ġv io
Ġ. .
æĪĺ äºī
Ġconf ir
çĺ ¤
çļĦ è¦ģæ±Ĥ
äºĮ ç»´
ç«ĭ åį³
åģı å·®
å±Ĥ æ¬¡
Ġb ig
å¦ Ļ
äº¿ ç¾İåħĥ
å°ı ç¼ĸ
è®º åĿĽ
le ep
åħį çĸ«
Ġa ng
æĭĽ èģĺ
u v
éĵ¾ æİ¥
Ġdetec tion
ĠP h
as y
t z
é«ĺ ç«¯
ä¿ ±ä¹Ĳ
Ġ èĥ½
éŁ© åĽ½
uro pe
é«ĺ äºİ
åĽ½ åĬ¡
ho od
åħ¸ åŀĭ
éĹ´ çļĦ
æĲ ¬
ti tion
æ· ĺ
k l
çĶ± æŃ¤
æķ°åŃĹ åĮĸ
Ġproduc ed
é¡¾ å®¢
ä¾Ŀèµĸ æĢ§
Ġaccu rate
a h
å¾Ī å¤§çļĦ
æ© ¡
æľ¯ è¯Ń
é£İ æľº
çĦĬ æİ¥
Ġcle ar
mu n
æ³ķ çļĦ
Ġcon tent
Ġoperator s
Ġche ck
è¥¿çıŃ çīĻ
Ġd ouble
Ġme dic
å¦Ī å¦Ī
æ° ®
c ur
èµ Ķ
ĠT e
i b
èī² çļĦ
C h
f ect
Ġ åĨħ
æķĪ çĽĬ
æ² Ī
ä»¥ ä¸º
åĽ¾ ä¹¦
men tation
çī §
Ġrec om
åıĳ è¡Į
S P
ĠH u
Ġmin i
e red
æĸ¹ ä½į
ĠM e
æıĲ åıĸ
ä¼½ é©¬
ĠH a
æŃ¦ æ±ī
Ġn utri
var ian
ç§Ł èµģ
Ġco re
å¾Īå¤ļ äºº
bigg l
ĠI I
å§ Ĳ
å·¨ å¤§
y ond
çī µ
Ġdi mensional
èŀº æĹĭ
Ġ left
Ġfor mal
æŁĲ ç§į
a ges
å¤§ æķ°æį®
èħ Ĭ
ad ing
åįģ å¹´
åŀĤ çĽ´
Ġl ink
Ġcomp act
Ġt or
ç¾İ ä¸½
Ġd one
Ġsugges t
æİ¢æµĭ åĻ¨
Ġthe ra
ï¼ İ
Ġfor ms
çļĦ çłĶç©¶
ä¸Ģ æ®µ
çĶµ åķĨ
æģ ĭ
çļĦ å¯¹
æ·· åĩĿ
å¼º å¤§çļĦ
ä» Ļ
è¾ĵ éĢģ
æĽ´ é«ĺ
éĩį å¤į
çļ Ĩ
Ġ éĩı
å¤© æ°Ķ
Ġsk in
å¤§ è§Ħæ¨¡
s elf
ä¼ļ è®¡
éĨ ĩ
bigg r
åºĶ æĢ¥
è¾ĥ é«ĺ
sub seteq
ĠFin ally
åĤ ¬
æĢĿ ç»´
éĽ¶ åĶ®
Ġgra vity
å¤ĸ è§Ĥ
D M
Ġbas ic
çļĦ å¥½
Ġintro duced
c le
Ġfam ili
Ġpo st
ä¸į éĶĻ
å¤įæĿĤ çļĦ
æŃ£ æĺ¯
su r
éªĮ è¯ģ
know n
L e
Ġpro g
Ġm id
å¯Ĩ åĪĩ
æ¦Ĥ æĭ¬
stack rel
æ§ ½
Ġ æľĪ
åľº æ¯ĶèµĽ
çļĦ åħī
æľĢ å¥½
åħ±åĴĮ åĽ½
çĶµ æľº
åħĪ åĲİ
äº§ éĩı
}) +\
éĥ½ åı¯ä»¥
ound s
åı¯ æĺ¯
æĦŁ åĪ°
Ġconc ent
w w
Ġ å½ĵ
b ody
Ġal pha
æº¶ æ¶²
ä¿Ŀ çķĻ
çĽ¸å½ĵ äºİ
åıĤ éĺħ
è Ŀ
Ġextend ed
åĽŀ åºĶ
èĻļ æĭŁ
æī© å¼ł
Ġpla s
Ġ æĹł
Ġca te
æļĹ çī©è´¨
äºº çĶŁ
Ġpa st
åį± å®³
åľ¨ æľ¬
æ¼ Ĥ
æŃ£ è§Ħ
ä¸ĵ é¡¹
Ġhe avy
Ġd ust
ç½ Ĳ
mog ene
Ġen tangle
çŃī æĸ¹éĿ¢
Ġ å·¥ä½ľ
æ³¨ éĩį
olog ies
æľº åľº
çļĦ ä¿¡æģ¯
æ³ Ħ
Ġto wards
ed s
Ġhe a
Ġsmo oth
G B
ma liz
åĪĨ æķ°
Ġmod es
è¯Ĭ æĸŃ
ç§į æ¤į
p ho
çĥ ¦
éĩĬ æĶ¾
Ġo verall
Ġcour se
Ġmolec ular
Ġcar bon
ĠUni ted
çĽ ¾
çļĦ åİŁåĽł
é¢ ģ
Ġgenera ted
åį µ
Ġmaxi mum
Ġcan cer
Ġar g
è½» æĿ¾
ell ing
å®¶ çļĦ
Ġal ready
Ġco mes
Ġreg ime
Ġpati ents
Ġma nu
Ġtempera tures
Ġfund amental
Ġwhi te
m end
}} &{
Ġconstra ints
æ½ľ åľ¨
åŃ¦ ä½į
Ġdistribu tions
T r
ä¸ļ ç»©
big oplus
ä¼ĺ æĥł
éĻ¢ æł¡
çļĦ è®¾è®¡
æĶ¾ æĿ¾
åį ¢
Ġac tivities
Ġ è¯¥
Ġpar ts
ä¿Ŀ åŃĺ
Ġgen e
åįģ äºĮ
Ġsta ble
fra red
' =
tis ts
Ġextre me
å¼ķ åıĳ
Ġinteg ral
çļĦ åı¯
ç» ĳ
çĸ ı
b s
å·® è·Ŀ
æĪĸ æĺ¯
mate ly
mp tion
æµ· å¤ĸ
l m
å¾ĭ å¸Ī
Ġ è¿ĺ
å±ħ ä½ı
),\ \
é«ĺ åİĭ
li er
D F
çļĦ æĹł
quen ces
b a
æĬķ æłĩ
éĤĢ è¯·
yst al
Ġapp ly
Ġset ting
Ġintere st
å¥ ĳ
åĪĻ æĺ¯
Ġtran sfer
èĢ Ģ
æŀ Ŀ
æ¹ĸ åįĹ
Ġen gine
}} _
Ġs ens
Ġauth or
Ġprof ession
åģľ æŃ¢
éķ Ģ
Ġserv ices
}_{ -
ä¸Ģ ä½į
éĺ¿ å°Ķ
ç²¾ åĩĨ
tit y
Ġun til
Ġproper ty
o ts
éĩĮ éĿ¢
ä»¥ ä¸ĬçļĦ
èĢĥ æł¸
æĪĲ äºĨ
ari es
ä¹Ł åľ¨
èµ ł
éĢ Ĭ
æĺ¯ æľĢ
Ġwor ds
d d
çļĦ æ°´
che ck
ĠW hat
èĤ Ŀ
ĠD is
çŁ³ å¢¨
ä¼ ª
c ons
o ff
ĠO r
Ġpla net
ĠA f
}) }{
Ġ ä¸ī
G C
Ġhi m
Ġnucle ar
å¿ §
è§Ħ æł¼
æµĵ åº¦
Ġu l
ä¼ļ åľ¨
æĭ ĸ
åİ ĺ
çī©çĲĨ åŃ¦
å¯Ĩ å°ģ
Ġperfor med
Ġse ts
åıĳ éħµ
åºĶ å¯¹
ç¾¤ ä½ĵ
Ġuse ful
éĿ¢ åĲĳ
ä¹ ĥ
= {\
ex ists
Ġ ),
}} }{
}} _{\
},\ ,
åįļ çī©
is ing
å°ı äºİ
å¹³ çŃī
å¤© æ´¥
æķ Į
ä¼łç»Ł çļĦ
},\ \
Ġlo t
Ġ å¯¹äºİ
ç¼ĸ è¾ĳ
å·¥ èµĦ
Ġima ge
èĪĴ éĢĤ
Ġqu ark
ä»ĸ åľ¨
um ents
çħ§ çīĩ
Ġen tire
Ġm ind
äºº çī©
Ġesti mate
å¤§ åĬĽ
çĹħ æĥħ
teri a
Ġconstruc t
cho ose
æŃ¥ éª¤
ç¨ į
Ġgravi tational
Th ese
Ġal terna
è§Ĥæµĭ åĪ°çļĦ
' t
Ġpol ic
la tor
Ġtheore m
black triangle
Ġacc re
å¼Ģ åĲ¯
åĽ½åĬ¡ éĻ¢
p os
Ġac tive
Ġwho le
Ġ ^{\
Ġdescri ption
æİĪ æĿĥ
å°¼ äºļ
æĻ ĭ
ĠF urther
ä¸Ĭ æ¶¨
éĺ Ķ
æĹ¶ å°ļ
Ġconf igu
Ġeffici ent
ä»ª å¼ı
\\ &
åıį å°Ħ
Ġass ess
pla y
Ġappro priate
ä¸ĭ è½½
}+ (
æ¯Ķ çİĩ
è¾ĥ ä¸º
\| _{\
å®ŀ æĹ¶
åİ Į
æľĽ è¿ľ
è®¾ å®ļ
ĠP re
ust om
Ġdiffic ult
çľ ł
f lu
æĶ» åĩ»
åİ ¦
Ġsmal ler
p c
Ġk ine
åľ¨ ä¸ŃåĽ½
M a
è¾ ©
ut ing
Ġmanage ment
éĿ© åĳ½
çļĦ ä¸»
Ġre duced
çº º
\, -\,
æľī æĹ¶
an ti
ran k
å¹ »
éĻ ª
æĭį æĳĦ
Ġsa fe
le y
åħ¬ çĽĬ
Ġima ges
Ġdev ices
ç¼º éĻ·
æ¶Ĥ æĸĻ
ec tions
Ġ ç»ĵæŀľ
èĩª æ²»
Ġtra ining
qu id
æıĲ éĨĴ
Ġthe ories
çģµ æ´»
åı¦ä¸Ģ æĸ¹éĿ¢
å¼ķ è¿Ľ
Ġpers onal
all s
. "
Ġto day
æĢģ åº¦
æµ ı
éĶ ¦
ç£ ·
Ġhal f
Ġexpan sion
äºº æķ°
è¾ ½
min ation
Ġincre ased
Ġme dical
ta te
åľ° çĤ¹
Ġqu ick
å¥¹ çļĦ
Ġb r
ĠD o
Ġon line
S o
e th
å¾Ī å®¹æĺĵ
å·¨ å¤§çļĦ
ĠR ec
åıį é¦Ī
éĶ Į
æµ ´
Ġte am
is es
åĽŀ åĪ°
Ġ math
is ot
sup set
çĬ ¹
æĿĲæĸĻ çļĦ
çĽ® å½ķ
Ġfunc tional
~ {
here nt
ita ble
æĸ° æĬĢæľ¯
Ġex trac
æĥ³ æ³ķ
æıĲä¾Ľ çļĦ
æľī å¾Īå¤ļ
Ġme m
Ġ æķ°
R B
ff ere
æĭĵ å±ķ
ä¸į ç®¡
ç´ł è´¨
Ġinf inite
u lations
éĢı æĺİ
> \
Ġpop ular
åľ° çļĦ
äººå·¥ æĻºèĥ½
\ }\\
)} &{{
åĲ¦ åĪĻ
ä¹ Ķ
çĭ Ĺ
Ġrequi res
å± ĳ
ç£ģ æĢ§
Ġintro duce
æµ ¦
Ġalgorith ms
éĥ½ èĥ½
æħ İ
Ġdirect ly
Ġill ust
äºĨ ä¸Ģç§į
}( [
åĮº çļĦ
å¤© çļĦ
èĥ Ĩ
}} )
é»Ħ éĩĳ
Ġinvestiga ted
Ġeffici ency
Ġcli mate
Ġc irc
Ġsci ence
Ġb ran
ul ts
åĭ Ł
) ãĢĤ
åĴ ĸ
æĿ¡ä»¶ ä¸ĭ
ç¢ ±
Ġ åŃĲ
çĭ¬çī¹ çļĦ
Ġof fic
åį« æĺŁ
S M
éĥ¨ ä½į
Ġus es
Ġfi ve
Ġele ment
ĠS e
ä¸Ģ æĺ¯
ĠS a
ä¸ĩ åĲ¨
éĢłæĪĲ çļĦ
çļĦ åŁºæľ¬
20 16
å®¡ æł¸
tiv istic
' _{
èµĽ äºĭ
åŃ ¤
ä¿Ħ ç½Ĺæĸ¯
å°Ŀ è¯ķ
ä¹ĭ ä¸Ń
K L
éĺ³ åħī
çĨŁ æĤī
åľ¨ ä¸Ģä¸ª
æķ ¦
æĹħ è¡Į
nor mal
ĠE urope
ä¿¡ å¿ĥ
åį³ å°Ĩ
åľ¨ ä¸Ĭ
ri al
å¼ķ é¢Ĩ
ä¸ĸçķĮ æĿ¯
Ġacc ording
Ġachie ve
Ġreve al
Ġsa ys
Ġgovern ment
Ġsus tain
æľŁ æľĽ
æĭĽ æłĩ
Ġbo ok
ä¸Ģ ä»£
ä¸ī å¹´
è¥¿ äºļ
Ġle t
Ġrela tive
ĠB o
æ··åĩĿ åľŁ
id ed
Ġdi et
Ġp ic
Ġbrea k
Ġide a
æĹłçº¿ çĶµ
ol ved
è¾ ĸ
è¿Ŀ æ³ķ
Ġpro paga
äºĭ åĬ¡
Ġma p
st ro
Ġer ror
æľĽè¿ľ éķľ
P A
T T
c r
çļĦ å¿ĥ
çļĦ è´¨éĩı
Ġh ol
Ġ åħ¬åı¸
åįķ åħĥ
ä½ı æĪ¿
Ġa ngle
hi ps
ĠP la
Ġ æ¨¡åŀĭ
Ġin su
d le
Ġra pid
ç´« å¤ĸ
} <\
Ġmeasu res
ig gs
å®½ åº¦
èµ¢ å¾Ĺ
Ġconta ct
} ]\)
)} +
çĶŁ ç´ł
æ¡Ī ä»¶
f erence
Ġdes igned
ĠS i
å¾Ī å¥½çļĦ
u res
Ġsome thing
Ġla ter
ç¬¦ åı·
Ġco ver
Ġrec ogni
ä¸ª æĢ§
èģ Ĭ
æ» ¨
Ġcap ac
Ġanaly ze
è§Ħ å®ļçļĦ
å Ĺ
Ġdis tin
ĠQ u
çĸ«æĥħ éĺ²æİ§
å¸¦ æĿ¥çļĦ
å¤ļ æł·
ç¿» è¯ĳ
Ġinflu ence
Ġt re
æľ¬ ç§ĳ
tor ies
èĭ ¯
çĨ Ķ
p ol
å§Ķ æīĺ
) <
Ġ å®ĥ
å§Ķ ä¼ļ
Ġfin an
Ġres is
Ġ åīį
Ġre con
Ġte n
Ġt ree
t ly
Ġb os
h igh
Ġbec omes
èĳ£äºĭ éķ¿
çļĦ éľĢæ±Ĥ
æĮ ¡
). \]
Ġm es
çī© åĵģ
ä¹Ł èĥ½
æ£ ī
çº³ åħ¥
ä¿±ä¹Ĳ éĥ¨
Ġcontinu ous
}} -\
ä¾ĽåºĶ åķĨ
æľī åĬ©äºİ
æĿ¥ åĪ°
æĸĩ çĮ®
B e
èĢĮ åľ¨
Ġis o
çĪĨ çĤ¸
te ad
éĢļ è®¯
å¯¹ æ¯Ķ
ĠJ o
äºĭå®ŀ ä¸Ĭ
ĠG od
çļĦ ä¸¤
ĠA pp
Ġdiffere ntial
åģļ çļĦ
ç¬¬ äºĶ
ymme try
1 000
èĬ¯ çīĩ
c l
Ġad j
ç«ŀ èµĽ
çļĦ ä½¿çĶ¨
éĽĨ åĲĪ
å¤© ä½ĵ
ç²¾ å½©
Ġ çĽ¸
åħĭ æĸ¯
Ġan sw
a ta
åĨľ æ°ĳ
ĠSta tes
t ons
çļĦ çĶŁæ´»
ä½ı å®ħ
n ers
f ts
al actic
ä½Ĩ åľ¨
æ· Ģ
A u
å°± åĥı
sp ec
reat ing
Ġsa y
åĪ¶éĢł ä¸ļ
Ġprevious ly
Ġdimension s
Ġb inary
èį¯ åĵģ
en ing
ç¢ ĳ
Ġques tions
ç±» çļĦ
S L
S C
å°± è¦ģ
ĠH amil
v matrix
è´¢ äº§
çķĮ éĿ¢
æĪĲ å°±
Ġfluctu ations
ĠI s
Ġex erc
Ġtur n
Ġarbitra ry
âĢ ľ
Ġcalcu late
è®° å¿Ĩ
, (
åĭ ĥ
çļĦ åĨħå®¹
Ġ æķ°æį®
Ġin side
äºĮ æĺ¯
æł¡ æŃ£
E L
}\ {
Ġp as
Ġ åıĳå±ķ
Ġmeasure ment
Ġcomp are
Ġprovid ing
Ġe igen
e ma
Ġgeneraliz ed
S i
Ġ ä¼ģä¸ļ
rea m
æ°Ķ åĢĻ
Ġs al
èĵ Ħ
å¸Ĥ æ°ĳ
Ġrepres entation
âĢ Ŀ
Ġpol i
, ...,
w ell
åĪ° è¾¾
ar c
L i
å¾Ī å¿«
og raph
er y
åĲ ¹
Ġin j
Ġca nd
or po
äºĨ åľ¨
ä¸ī ç§į
æĵ İ
ç»Ŀ ç¼ĺ
åĬĽ åº¦
Ġac cele
Ġ\ |\
N e
æ£® æŀĹ
åħ Ĩ
Ġenha nce
Ġ å¦Ĥæŀľ
è¯´ éģĵ
è¿Ļä¸Ģ çĤ¹
æĽ´ æį¢
æµģ çļĦ
æµı è§Ī
) ;
éª ĳ
ĠM od
å¹¶ æ²¡æľī
åıĸ æ¶Ī
Ġrelev ant
æıĲ è®®
æĻ ¨
Ġcaus ed
è¸ ı
ç© Ĩ
æµ· æ´ĭ
o ci
Ġ ç³»ç»Ł
ĠS U
ĠP e
äººæ°ĳ æĶ¿åºľ
Ġa rt
Ġs tri
æĹ© å·²
Ġbe yond
}] =
la stic
èµ· åĪ°
ä¼¤ å®³
çļĦ éĿŀ
çļĦ åħ³éĶ®
Ġe mo
çĶ¨ éĢĶ
åĬ© åĬĽ
ä¸Ĭ åįĪ
è¯ģ å®ŀ
Ġab und
çªģ çĦ¶
åĪ° åºķ
æĺ ¨
æ° ¯
Ġdetec ted
Ġconsi de
åĲĮæ¯Ķ å¢ŀéķ¿
ter m
åī Ĭ
Ġ2 5
éļı æĹ¶
Ġstr ing
Ġcount ry
ä¸Ģ åĲį
for med
éĢī çĶ¨
ä¸Ń æľī
æİ¥ æĶ¶
Ġcoup led
ord in
éŀ ĭ
éļ §
Ġla te
ãĢĤ (
é»ĳ èī²
Ġcon ven
la sh
èħ º
Ġf ra
ç¤¾ äº¤
k j
æ· ĭ
war f
Ġder iv
çĪ¶ äº²
d f
ä¼ł éĢĴ
çĭ Ĥ
)} }\
Ġlumino sity
åħ Ħ
}=\ {
M L
( {
O N
y ou
Ġ æĸ¹æ³ķ
Ġ æīĢ
éħ ¯
Ġdemon stra
Ġcommunic ation
n es
çº§ çļĦ
åįĹ äº¬
å£° æĺİ
aris on
Ġ2 4
äºº åĬĽ
åŀ «
Ġup on
Ġa do
Ġb ir
è¡¨ æ¼Ķ
- |
åĩº æĿ¥çļĦ
ec h
Ġful ly
ä»¬ çļĦ
å¤§ éĩıçļĦ
Ġso il
çŃī äºİ
Ġgo ing
Ġsta bility
Ġsec urity
Ġincre ases
* \
] ^{
or n
æķĻ ç»ĥ
Ġen erg
ca ted
åĽ½ å¤ĸ
Ġat trac
æĿ¡ä»¶ çļĦ
E N
iz ations
æĳĦ å½±
æĪĸ è®¸
v is
crip ts
éĩĳ é¢Ŀ
èĢģ å¹´
)+ (
Ġg reen
co me
a ys
å¯¹ æĸ¹
æŃ» äº¡
Ġt un
æº ª
è´¨éĩı çļĦ
å±¥ è¡Į
ins tein
Ġ\(( -
Ġcosm ological
æ¶Ī éĻ¤
å¯¹ç§° æĢ§
åįļçī© é¦Ĩ
ed ic
ing er
ç§ ¦
Ġprac tice
æĲŃ éħį
,\ \\
, {\
åµĮ åħ¥
è° ¨
å¦ Ĩ
Ġ ä»¥åıĬ
r ich
èĢĮ ä¸į
Ġexpla in
é¡¹çĽ® çļĦ
P T
å¯Ĩ å°Ķé¡¿
ï½ ŀ
Ġco ol
äº ©
Ġca me
å¯¹ æīĭ
æĳ ĩ
Ġscal es
æĳ ¸
ä¸Ģ åľº
åĬł æĭ¿
ra di
åŃ¦çĶŁ çļĦ
Ġcrea ted
ĠH is
æĮĩ å®ļ
at ors
Ġspect roscop
Ġres olution
Ġf ast
åī ĳ
åĳ¨ è¾¹
å¯¹ å¤ĸ
ä¸ĩ äºº
Ġcompu ter
å·¥ç¨ĭ å¸Ī
Ġd z
Ġsp e
Ġpho ton
Ġdiag n
è´¯ å½»
åįı åĲĮ
Ġimpor tance
Ġen ga
åĲį åŃĹ
æīĵ åį°
D e
ĠU S
å¤§ ä¼Ĺ
ç»Ļ åĩº
, [
co vered
æĹ¥ èµ·
å®ĥ æĺ¯
æķ´ çĲĨ
æĬ¤ çĲĨ
Ġe asy
ter ing
Ġver sion
è¾ ŀ
A A
Ġ è¿Ļä¸ª
ä¸» åĬŀ
æ·± åĪ»
Ġada p
) &
æµģ è¡Į
çĥ ĺ
Ġpar tial
é«ĺ çŃī
æ²³ åĮĹ
g y
æľŁ çļĦ
è·Ł è¸ª
] (
è¯ ŀ
åħ¶ æ¬¡
ä¹Ł è¦ģ
Ġlo op
å¤± åİ»
Ġse quence
åħ» èĢģ
çĤ¹ åĩ»
æĪĳä»¬ èĢĥèĻĳ
Ġcount ries
Ġlay er
Ġstatis tical
æĦ¿ æĦı
èĶ¬ èıľ
ĠC ou
æĻ¯ è§Ĥ
Ġ æĬĢæľ¯
çĪ µ
Ġblo ck
å·¥ åķĨ
Ġin variant
é¢Ħ ç®Ĺ
ç½ĳ åıĭ
å¤¸ åħĭ
Ġ æĽ´
æĺ¾ çĦ¶
çĸ Ĩ
æ¼Ķ åĳĺ
Ġmedi um
Ġre tur
ä¹ī åĬ¡
åĮº åĪĨ
Ġta kes
åı¯èĥ½ çļĦ
åĳ¼ åĲ¸
Ġcalcu lated
ric ul
Ġprima ry
è¿Ļ é¡¹
Ġat tention
éŁ ¦
Ġwa ves
A I
æıĲ ç¤º
ĠG L
Ġs yste
ca de
Ġex ternal
ç§¯ ç´¯
èħ ¿
qu ently
æĦı æĢĿ
Ġsa fety
æľįåĬ¡ åĻ¨
æģ °
tan h
äººæ°ĳ å¸ģ
Ġk ind
åŁ¹ èĤ²
Ġf ish
Ġme mbers
Ġsec tion
Ġdepend s
çĽ¸åĲĮ çļĦ
s en
ro om
M B
äºº åĴĮ
åĺ ´
åĲį åįķ
Ġclass es
æĸŃ è£Ĥ
Ġclo sed
lab ora
çŁ ®
}. \
æł¼ åħ°
Ġconn ected
å¦ ¹
Ġthe rm
åĲĮ è´¨
Ġgeome try
Ġthere fore
æĤ ¦
æ£ Ĵ
Ġdo main
B matrix
ec e
æŃ¤ æĹ¶
con g
a de
tu s
Ġa x
Ġanal og
ç³ Ĭ
å°ı åŀĭ
éĤ£ ä¸ª
çĻ½ èī²
èĩ Ń
åħ¬ å®ī
ä¸į çŁ¥éģĵ
ä¸ĵ æ³¨
å®ļ çĲĨ
é«ĺ ä¸Ń
Ġar chi
Ġcontain s
Ġeasi ly
}} ^
åıį åĲĳ
di mensional
ä¾¿ åĪ©
çļĦ åĨħ
çĽ® çļĦæĺ¯
Ġan o
Ġme et
Ġtr ue
Ġc ustom
çŃ¾ è®¢
å¹¶ éĿŀ
j ective
! }
| }\
ä¿¡æģ¯ åĮĸ
Ġho t
æİ¢ è®¨
ĠG en
Ġte ns
åľĨ å½¢
ĠG eV
Ġd el
ce il
è½´ æī¿
ma t
Ġlon ger
Ġga p
Ġgeneral ly
ä¸º åŁºç¡Ģ
é¢ ĸ
é¢ Ī
) )=\
r k
ç¦» æķ£
çĸ« èĭĹ
c d
)}{ (
çļĦ åĪĨ
Ġm ental
Ġsi te
Ġindust ry
Ġc ut
çĪ± æĥħ
Ġtyp ically
) }^{
èī °
åıĳ çĹħ
Ġne ver
Ġob ser
Ġconn ection
æ³¢ æ®µ
çĬ¯ ç½ª
Ġno te
A nd
æİ¥ ä¸ĭæĿ¥
Ġfrac tion
å¸¸è§ģ çļĦ
åıį å¯¹
Ġfin al
å¸ ħ
ĠF rom
èĢĥ å¯Ł
rop ic
Ġsymme tric
ĠA ll
Ġcon su
ç¼© æĶ¾
éĩį å»º
åħĪ åīį
ĠP a
åĢĻ éĢī
æŁ ı
po le
d v
æľį è£ħ
åĪĿ æŃ¥
éģĵ å¾·
æ°´ æ³¥
Ġits elf
Ġelectron ic
' '(
å®¶ å±ħ
åŃ¦ å®¶
éļ§ éģĵ
Ġv ol
1 20
ä¸ĵ çĶ¨
åħ³ éĹŃ
Ġt u
P r
Ġ åħī
æĺ¯ å¯¹
åıĳ å°Ħ
ĠS ci
Ġprin cip
æĸ ¤
Ġvolu me
åĬŁèĥ½ çļĦ
ç»ĦæĪĲ éĥ¨åĪĨ
ä¹Ł åı¯
B y
ron ic
ç¡®å®ļ æĢ§
Ġ åº¦
Ġvari ables
å¼ķ æĵİ
Ġin sta
t ten
çĶµ æ°Ķ
ç»Ī ç«¯
èĤ ¾
åĽ½åĨħ å¤ĸ
å®ŀçİ° äºĨ
åķ ¡
12 3
é£ŀ æľº
åħ¨ æĸ°
Ġexis ting
æ¡ ĳ
Ġ ä¹ĭ
})\ ,
Ġdig ital
é«ĺ è¾¾
Ġh ouse
\, =\,
è¯¯ å·®
å®ŀ åľ°
Ġrep orted
åĩ Į
æ¯ı æ¬¡
] }\
çĶŁäº§ çļĦ
äº§ä¸ļ éĵ¾
b acks
ĠT r
çŃĶ æ¡Ī
åĽ¢ ä½ĵ
è¿Ľ å±ķ
tu red
åıĤ è§Ĥ
å®Ĺ æķĻ
æ¸Ĺ éĢı
par ticle
C a
å© ´
er man
å´ ĩ
èµ ļ
æ°¸ è¿ľ
Ġchalle nges
ma gne
}) ,\
20 15
Ġdirec tion
æħ Ī
æĿĥ çĽĬ
åīį å¾Ģ
tri es
Ġj our
å¾Ĺ å¤ļ
Ġ\\ &\
åľ¨ ä¸Ģ
ä¸» å¸Ń
V matrix
è¦ģ ç´ł
Ġintro duc
éĻ ķ
Ġ åħ·æľī
å°ı è¯´
ä¸į çĶ¨
è§Ħ å¾ĭ
æ¼Ķ åĩº
å½ķ åıĸ
èľ ľ
Ġsu n
è¯Ħ è®º
çī© ä¸ļ
Ġtra ditional
åŁ ĭ
^{* }\
åĬ¨åĬĽ åŃ¦
Ġrepres en
row n
æĶ¶ è´¹
Ġno vel
æľįåĬ¡ çļĦ
Ġqu asi
Ġscal ing
ĠB ri
æŀģ åĮĸ
Ġ2 1
åŃ¦ åİĨ
åĲĳ éĩı
Ġli ve
çŁ Ľ
å¸¦ é¢Ĩ
4 00
çļĦ çĲĨè®º
æŁ¥ çľĭ
}& {\
^{ [
åĩºçİ° äºĨ
Ġproced ure
Ġresp ectively
é ³
Ġv ary
Ġent ropy
çĩ ķ
æłĳ èĦĤ
Ġf ace
Ġon ce
æľª æĿ¥çļĦ
Ġre stric
æ¯į äº²
æľī åĪ©äºİ
ĠMore over
æī¿ è¯º
æ±ī å¯Ĩå°Ķé¡¿
al ing
Ġp ure
Ġcon jec
æ©¡ èĥ¶
Ġneutr ino
S u
çº¿ è·¯
åıĤæķ° çļĦ
æĿ¥ äºĨ
åĮĹ éĥ¨
ä¼ĳ éĹ²
O ne
åĲį ä¸º
Ġbuil d
Ġpatter ns
çŃī äºº
Ġ éĹ®é¢ĺ
Ġb in
æīĢ å¾Ĺ
è¯ļ ä¿¡
le n
~~ ~
åľ° ä¸ĭ
å®ĥä»¬ çļĦ
çľĭ çľĭ
ĠM an
çĶŁ åŃĺ
Ġpartic ip
æ¯ķä¸ļ çĶŁ
' +
è¡¨ å±Ĥ
å¯ º
ä¸į éľĢè¦ģ
éļ Ļ
\ }}
ĠF ermi
for mal
æ Ĩ
å®¶ æĹı
éĶ »
ä¸º æĤ¨
è¾ £
åıĮ éĩį
Ġgrea ter
f rom
åĵį åºĶ
æĶ¾ å¼ĥ
åħ¨ åĬĽ
çļĦ å½¢å¼ı
ĠHe alth
A r
Ġ æĹ¶éĹ´
C u
Ġopti m
ç´§ å¼ł
" \
ta ting
æĪ Ī
ä¸¤ å¹´
æī§ æ³ķ
Ġ& =\
éĩı åĮĸ
ç¦ģ æŃ¢
), }\
Ġsi x
ra ting
Ġdeta iled
Ġus ers
å¯¹ æŃ¤
[ (
Ġ æĺ¾ç¤º
ä¸ī åĪĨ
Ġparticular ly
Ġin str
Ġcol d
Ġex per
c tion
S e
çļĦ å¤ĸ
è®¤ å®ļ
åĩº çĶŁ
å®Ŀ å®Ŀ
å¥ Ķ
lescop e
ĠN ational
ar g
c are
åĪĩ åī²
{ ~
å¤ļ é¡¹
è°ĥ çłĶ
æĤ ²
åŁº å±Ĥ
Ġs leep
end ing
å®¹ éĩı
ç¬¬äºĮ ä¸ª
ãĢĤ ãĢĬ
Ġc enter
Ġex am
éĤ£ éĩĮ
B C
èĤ ĥ
æŀ ª
å» ·
p en
æĮĩ æĮ¥
Ġ åıĳçİ°
O R
th is
æľī åĵªäºĽ
Ġli ves
ç¥ ¥
æĹ¨ åľ¨
æĺ Ĥ
å®ŀ çĶ¨
Ġen su
Ġcaus es
éĶ Ĳ
æ¢¦ æĥ³
ian s
ä¼ļ çļĦ
Ġmil lion
ç»Ī äºİ
it ch
èĮ ¨
Ġconc er
lic ity
h ic
æł ª
æĪĳä»¬ éĢļè¿ĩ
éĥ ģ
Ġsimu lation
Ġcomp e
Ġcon cept
æĹł äºº
å½± çīĩ
çĻ½çĻľé£İ çļĦ
Ġ æ³ķ
Ġy et
ci ple
Ġequ al
Ġat m
men ted
è®¢ åįķ
Ġ å¤ĸ
mogene ous
å¤± è´¥
åıĳ æĺİ
çŁ¥è¯Ĩ äº§æĿĥ
thes is
] +
do w
ä¸į åıĺ
åĽ¾ è¡¨
U V
æŁ ´
Ġte nd
åĽŀ çŃĶ
Ġr ise
æ¶Ī èĢĹ
Ġaff ect
éħ ¶
),\ ]
ä¸į èī¯
å®īåħ¨ æĢ§
åĽ Ĭ
è¿Ľè¡Į çļĦ
çĽ´ å¾Ħ
Ġmin imal
Ġcontra st
èĭ ¹
ç¾İ çļĦ
}| _{
i y
ä¹Ł è®¸
çĹħ äºº
long rightarrow
Ġfla v
o le
å®ŀ ä½ĵ
æ°´ çļĦ
ms elves
} "
åĴĸ åķ¡
ä¸º æŃ¢
å»¶ éķ¿
èĳĹ åĲį
Ġcontribu tion
}{ {\
è¿ĺ ä¼ļ
not in
åįĹ éĥ¨
å¸¦ åĬ¨
çłĶç©¶ çĶŁ
) }\\
Ġ\ {\
æį Ĩ
ĠA fter
æĬ «
å®ī å¾½
Ġhe ad
æĪĳä»¬ ä»İ
Ġme ta
Ġsur vey
a ir
ph ys
ç¡¬ ä»¶
Ġenerg ies
Ġw o
Ġpa y
Ġidenti fied
ç«ĭ æĸ¹
éĻ¢ éķ¿
Ġde ath
ï¼Ľ ãĢģ
ma nd
ç»Ļ åĩºäºĨ
Ġintere sting
Ġinde x
åł µ
åħ¨ çľģ
ĠU n
æĹłè®º æĺ¯
Ġ\(\{ {\
d dot
, +
Ġpolar ization
ä¸Ĭ äºĨ
pi te
æ¡£ æ¡Ī
D A
Ġmod ern
å¾ ¡
å·¥ä½ľ ä¸Ń
Ġorigin al
Ġissu e
Ġda mage
is ted
æ°Ľ åĽ´
çłĶç©¶ éĻ¢
ä¿Ŀ åħ»
æłĩ çŃ¾
ä¿® å¤į
èĪŀ åı°
p q
ä¸į å¥½
éļĶ ç¦»
è®² è§£
i als
Ġu r
åĢ ¡
å¸¦ çĿĢ
åĲ¸ éĻĦ
Ġm oney
åı¯ä»¥ çĶ¨
ti an
al og
å¤Ħ ç½ļ
sh arp
çª Ħ
Ġro b
g ence
Ġang ular
Ġin duced
å¤§ èµĽ
å¼Ģ åħ³
è¿Ļä¸ª éĹ®é¢ĺ
å²ģ çļĦ
). \
Ġw it
æĺ¯ æľī
æĻºèĥ½ åĮĸ
æĽ´å¥½ åľ°
iz es
Ġ è¿Ļç§į
}\ |\
åĲĪ æ³ķ
è¥¿ éĥ¨
è¡Ĺ éģĵ
éĶ Ĥ
èĩ³ äºİ
Ġb ac
ä¿¡ ä»»
åħĥ ä»¶
Ġdec re
Ġ ä¸¤
éģ ¥
çļĦ æľįåĬ¡
Ġsoft ware
åŁºç¡Ģ è®¾æĸ½
çī© æĸĻ
ab ilities
å¸Į èħĬ
j u
è®¾è®¡ çļĦ
æĥ ľ
çķ ª
æĥ³ åĪ°
èĢ ķ
çħ§ æĺİ
åŁºæľ¬ ä¸Ĭ
ĠHamil tonian
Ġf riend
æ¤ ħ
st yle
çĪ± çļĦ
{( -
åĬĽ åĴĮ
ĠQ CD
åĳ½ ä»¤
] _
è¿Ļ ç±»
u la
Ġla ck
æ¶Ī æ¯Ĵ
are nts
mit ted
ä¸Ģ å¤©
Ġdis per
Ġan isot
Ġserv ice
Ġcos mic
a ter
åĪ ł
æį ī
å¹³ è¡Į
Ġro tation
Ġpredic tions
èľ Ĥ
_ _
èħ °
po int
æµĭéĩı çļĦ
éĤ£ æł·
Ġgo al
æĺŁç³» çļĦ
å¤Ħ ç½®
æĬĢ å·§
Ġb an
çĽ¸ ç»ĵåĲĪ
ke ts
éħį å¤ĩ
;\;\ ;
ä¸º æŃ¤
åĪ© çİĩ
æ¹ĸ åĮĹ
Ġcorre lations
æĪĲ åĥı
ç»Ħ ç¾¤
å³° åĢ¼
Ġf av
ä¹ĭ ä¸ĭ
å±Ĥ éĿ¢
an cy
in al
åĩŃ åĢŁ
åĪĩ å®ŀ
åį° è±¡
Ġcompu te
Ġli tera
elec tric
ec ause
æĶ¶ åĪ°
å¹¿æ³Ľ çļĦ
æ¡ ¶
æľī ä»Ģä¹Ī
çĽ Ĩ
}) -\
è´§ çī©
æĬ ¼
y r
æľīåħ³ çļĦ
Ġmean ing
åģľ è½¦
Ġlim ited
å°ı åŃ¦
è¿ĺ èĥ½
Ġide al
ä¸ ¢
è¿ĩ çļĦ
çĸ ¼
M M
å¿ į
çĮ ľ
h al
éĶ ¥
æĺł å°Ħ
Ġgenera tion
ler s
Ġ }{\
Ġr ich
Ġflu id
E X
me tric
ĠG e
åĬ £
çĿ Ľ
dition ally
çĩĥ çĥ§
èĬ ³
èĭ¹ æŀľ
Ġ5 0
ĠS tu
Ġcand ida
éĢł åŀĭ
è¿Ķ åĽŀ
or ds
Ġb ri
Ġsugges ts
Ġper fect
èĥ ¸
æĥ³ è±¡
ç»ĦæĪĲ çļĦ
is ation
ç¿ ¼
çľģ çº§
v ature
Ġ1 00
ut ral
Ġper cent
)\\ &=
æĭ ¨
å¹¶ å°Ĩ
åĲĦ èĩª
é¼ ł
è® ¼
a i
li a
den s
) ~
ij k
å¥ĸ åĬ±
æĹ º
ĠAf ric
Ġinvol ves
ng ed
Ġ ing
^* _
Ġj ob
Ġpub lished
Ġb right
åıĳåĬ¨ æľº
å¹² åĩĢ
åĬłæĭ¿ å¤§
si ze
æĹ¥ åīį
Ġapproach es
le nce
å¾Ī å°ĳ
åĤ¨ åŃĺ
Ġho les
lo cal
å¹³ æĹ¶
æ¯« ç±³
Ġob ject
v olution
Ġcho ice
Ġoccur s
Ġrelations hip
Ġyou re
éª Ĺ
Ġaccre tion
ä¸ĭ åĪĹ
æľĢ å¤ļ
åħ¨ å¸Ĥ
æĿĲ è´¨
éĿ¢ è¯ķ
è¢« ç§°ä¸º
éŃ ħ
Ġenviron mental
çķĮ éĻĲ
ven tion
B ut
åĩº åıĳ
èĤº çĤİ
}\, +\,
su n
Ġdef ini
éĥ Ń
ron t
æķ´ æķ°
é£Ł çĶ¨
è´Ń çī©
åľ° è¯´
èĤ¡ æĿĥ
è®© æĪĳ
æ¤ İ
Ġj u
L C
ra tes
ec u
æĭħ å¿ĥ
é¸ £
åıĸå¾Ĺ äºĨ
åĽ½ æľī
ä¸Ĭ éĿ¢
è¯· æ±Ĥ
Ġeconom ic
åĲİ èĢħ
çĹħ ä¾ĭ
Ġcal l
çŁĽ çĽ¾
E P
Ġdeg rees
èĤ¡ä»½ æľīéĻĲåħ¬åı¸
' (\
Ġin tr
= (\
æķ°æį® çļĦ
åįĬ å¯¼ä½ĵ
çºª å¿µ
l ds
æĺ¯ ä¸ª
a ther
èĬ ¬
Ġhis tor
Ġcent ury
çĤ Ĵ
Ġte sts
éĢŁ çİĩ
åħ± æľī
Ġestablish ed
M P
æįŁ å®³
åĲĮ æľŁ
big cap
Ġrela x
åİļ åº¦
çĲĨ äºĭ
æł· åĵģ
} &=
se ts
Ġmagn itude
Ġ çĲĨè®º
ç»´ çĶŁç´ł
çīĪ æĿĥ
è¡Ģ ç®¡
åľ¨ è¿Ļç§į
è¡¥ è´´
äºº ç¾¤
éĥ½ è¦ģ
sta te
åİĺ ç±³
æĦŁ æĥħ
è¯¾ åłĤ
åĽł èĢĮ
Ġsp read
Ġ ä¸Ģç§į
æ¤ Ń
re f
Ġm ess
)} +\
å»º æĪĲ
éķ¿ æĹ¶éĹ´
ç¾ ½
D i
t w
ge t
åĬ¨ çĶ»
ç²ī ä¸Ŀ
te ly
åĬł ä»¥
Ġ çĶµ
æĸ° å¢ŀ
æĻ Ĵ
åŃĺåľ¨ çļĦ
éĢļ é£İ
å½¢ çļĦ
çķĻ ä¸ĭ
æŃ¤ åīį
å¼º å¤§
Ġt rea
ou nts
Ġmedi a
æĶ¯ åĩº
é¡µ éĿ¢
d den
ä» °
åĩ ¤
æłĩåĩĨ çļĦ
æľīéĻĲ çļĦ
ĠG u
Ġfinan cial
ta nces
åĿ Ĭ
æĭ Į
Ġ2 8
Ġthrough out
H D
éĺ² èħĲ
mp s
åŃ¦ èĢħ
ä¸»ç®¡ éĥ¨éĹ¨
å®Įæķ´ çļĦ
cha stic
Ġt ru
æįŁ åĿı
Ġf r
åıĳ éĢģ
äº² åŃĲ
acu um
| ^{\
}\, .
Ġequival ent
S ch
The y
Ġcha in
èµ ´
æĢİ æł·
éĴ Ļ
ä¸Ģ ç»Ħ
Ġcomb ination
[ -
æĿ¡ ä¾ĭ
S N
z y
çłĶç©¶ æīĢ
é¼ »
Ġcoll isions
| (
ä¸Ģ è·¯
Ġ4 0
R ight
åı¸ æ³ķ
Ġsub ject
æĴ ¤
ä¸Ģ ä»½
éħ ±
Ġsu ff
æĺ¯ ä»¥
Ġd ru
æīĵ çł´
ç¡ķ å£«
æķ°æį® åºĵ
Ġasympto tic
sum ing
id ent
u ce
ç °
è¡¥ åģ¿
Ġestima tes
Ġ æ²¡æľī
Ġato ms
é ¬
Ġcon serv
Ġ )\
ĠL o
Ġcomp arison
éĩĩ è®¿
Ġey e
Ġf lo
ç´§ å¯Ĩ
Ġresearch ers
B ox
Ġ limits
Ġne igh
åħ» æ®ĸ
Ġpha ses
Ġe ver
Ġinvol ved
Ġval u
Ġs tory
Ġdepend ing
æ± Ĺ
Ġs ound
æ´» è·ĥ
)^{ -\
æĴ Ĵ
Ġmus ic
çļĦ è¶ħ
Ġwas te
u ally
ç§ ī
éĺŁ çļĦ
i ti
i ms
U R
under set
åĿ ª
æĺ¯ åĽłä¸º
for ms
éĢī æīĭ
la p
åĸ· æ°Ķ
M R
çļĦ åįķ
çħ ®
æĲ ŀ
Ġr ing
Ġvari able
æľŁ éĻĲ
äºĪ ä»¥
Ġfeatu re
Ġ èĩª
Ġthe mselves
è¾¾ æĪĲ
Ġradi us
æ¨¡å¼ı çļĦ
åīį æĻ¯
åıĳ åĩº
Ġ éĿŀ
z er
æĪĳä»¬ ä¸º
çĶµ åĻ¨
Ġex ist
èĢģ äºº
è§Ĥå¯Ł åĪ°
åģļ äºĨ
è¯ķ çĤ¹
ĠTh en
æ¶¦ æ»ĳ
æ¶ ¡
Ġp an
M A
çļĦ åĬŁèĥ½
Ġstrateg ies
å¹¿ è¥¿
less sim
åīĸ éĿ¢
O n
Ġtop ological
Ġf le
åĦ¿ åŃĲ
æ» ĭ
æīŃ æĽ²
å½» åºķ
ä¸ §
æĪĳä»¬ å¯¹
å¹¿ åľº
éĶĢ éĩı
Ġelectr ons
Ġpro mo
ä¼Ĺ æīĢ
Ġabsor ption
L O
èĲ½ åľ°
Ġuni form
çĹ ķ
Ġw ind
åħ³ å¿ĥ
è¯ī è®¼
ç»Ħ ä»¶
æĲŃ å»º
Ġga me
äºĳ åįĹ
åŁº çĿ£
æĺİ æĺŁ
an ish
iz on
a e
ĠE arth
or ting
å·´ é»İ
le vel
Ġrepres ent
Ġma ps
wa ter
ç«ŀäºī åĬĽ
Ġli ving
éĢĶ å¾Ħ
åŁİ éķĩ
æłĩåĩĨ åĮĸ
èį£ èªī
è½¦ åŀĭ
æł¡ éķ¿
æŁĲ ä¸ª
çľŁæŃ£ çļĦ
ĠP er
Ġth ird
Ġ è¯´
èģĮ è´£
åĳ¨ çŁ¥
æ¡ Ĥ
Ġ è¿ĩ
åľ° æĿ¿
æĻļ ä¸Ĭ
| =\
Ġ ä¸ŃçļĦ
æĿŃ å·ŀ
æľĢ å¥½çļĦ
Ġli quid
Ġexhi bit
æ³¢ éķ¿
Ġgrow ing
Ġsu itable
ç¾İ å¥½
Ġanimal s
æĥħ æĦŁ
a ts
Ġd warf
è¿Ĳ ä½ľ
é¤Ĳ åİħ
struc ture
i ver
Ġre ally
å½¢ åĬ¿
éĩĩ éĽĨ
ĠN a
Ġrema ins
Ġ2 2
ä¸ Ļ
)= (\
Ġfood s
Ġ2 3
çº½ çº¦
H O
æ² «
æĽ Ŀ
ç¾İ è§Ĥ
åħĪè¿Ľ çļĦ
p ing
Ġreds hift
åĬ¨ èĥ½
ll s
éĺ¶æ®µ çļĦ
ffici ents
ç¾İ æľ¯
è¢ Ń
Ġqu ite
èĲ¥ éĢł
Ġs hi
çĸ ²
çļĦ èĥ½åĬĽ
Ġs ymbol
Ġunder lying
Ġcomplete ly
y pe
ä¼ĺ èī¯
ray s
Ġins tead
ta ges
Ġus er
å¤§ éĻĨ
å®¹ åĻ¨
å½ °
ä¸» å¯¼
å°Ĩ äºİ
cc ording
}{ {
èģļ éĽĨ
Ġcapac ity
ĠG ra
I V
å¼ ¥
æ° Ł
æ± ģ
ä¹Ł å°±
Ġpe ak
C T
bol ic
çĨ Ĭ
Ġsuper s
ä»Ĭ æĹ¥
Ġgraph s
åĽ½ çļĦ
éĢĤå½ĵ çļĦ
èµ· æºĲ
çŃī å¥ĸ
Ġin st
æ¯ķ ç«Ł
ther n
åĽŀ å½Ĵ
ĠS h
ç¦ı å»º
a ds
en ti
å½¢æĪĲ çļĦ
Ġbul k
ni an
å°ı åĮº
Ġsur faces
ä¸ī å¤§
çĶ¨ åĵģ
å¸¸ å¸¸
ä»Ķ ç»Ĩ
] {
u ni
æĸ¹æ³ķ çļĦ
æī¿ åĮħ
åĩĿ èģļ
b rac
çŃ Ĵ
Ġcur ve
æ´»åĬ¨ çļĦ
Ġte sting
Ġs igma
éĩį çļĦ
Ġ. ..
æī« æıı
lim sup
å·® åĪ«
èº« ä¸Ĭ
Ġc m
ä¹Ļ çĥ¯
Ġaccu racy
åľ°åĮº çļĦ
ĠB u
Ġmon itor
Ġc ra
W hile
Ġa ware
ç»Ł æ²»
Ġb ot
è¿ Ń
çº¿ ä¸ĭ
Ġtarge t
Ġfa il
Ġentangle ment
åį ¸
ä¼ Ĳ
å¹´ åľ¨
çĲĨ çĶ±
ä»ª è¡¨
èĩ Ĥ
æıĲé«ĺ äºĨ
éĿĻ æĢģ
Ġ ä½ľä¸º
Ġgraph ene
å°ĳ æķ°
16 7
Ġmulti p
de f
h is
çŃ ĭ
ĠS ec
æ·± åĮĸ
\\ &\
åıĸ ä»£
Ġcur ves
il la
æŃ£ç¡® çļĦ
Ġcharacteristic s
Ġrecom mend
æ¸© æļĸ
åŃĹç¬¦ ä¸²
Ġb ring
Ġd r
åĮºåĿĹ éĵ¾
Ġth ick
Ġp hi
Ġpro grams
G R
æľ¬ äºº
Ġreduc tion
at ch
Ġste ps
Ġo il
r ors
èĥľ åĪ©
ä¾ĽåºĶ éĵ¾
æ±¡æ°´ å¤ĦçĲĨ
Ġfor med
åıĤ èµĽ
è¥¿åħĥ åīį
æŁ ³
Ġ\(( -\
çĶ¨æĪ· çļĦ
Ġmini mum
äº ı
Right arrow
æĹł éľĢ
å°ļ æľª
Ġ ä½ĵ
su s
ç¨ĭåº¦ ä¸Ĭ
ff ic
çĽ ²
ca pe
åģļ æ³ķ
å¿ħ çĦ¶
Ġin ner
tic les
m ion
åİĤ åķĨ
çļĦ çİ¯å¢ĥ
Ġp en
b an
{ |\
èµ ¤
ĠG o
åĶ® åĲİ
éĿĴ æĺ¥
Ġpri v
Ġdev ice
is ting
æİĴ éĻ¤
}| {\
è§Ĥå¯Ł åĪ°çļĦ
Ġ åĪĨæŀĲ
Ġ edge
çĶµ çº¿
Ġp ow
it ary
ç»Ĩ èıĮ
éĹ´ éļĶ
Ġpol y
å¨ ľ
Ġb od
å´ ©
åĴĮ è°Ĳ
è¿Ļ ä¸¤ä¸ª
æľº éģĩ
çĥŃ æĥħ
æĢ» éĥ¨
çļĦ æīĢæľī
\, .\)
åħ ½
si tivity
åĨ ¶
Ġdiffere nces
å»ºç«ĭ äºĨ
T S
ĠA ss
in ity
æĦı å¤ĸ
åĩºçİ° åľ¨
Ġsha re
ĠFurther more
Ġsur round
åĻª å£°
ä½¿ åĳ½
Ġ\( [\
Ġac tually
æĪ Ĵ
me mber
æĮĸ æİĺ
æĺ¯ éĿŀå¸¸
æģĴæĺŁ çļĦ
A t
æī ĳ
å§ ¿
åĵª éĩĮ
äºĨ å¯¹
ĠC an
Ġbound s
ĠD es
èĭ± éĽĦ
Ġear lier
Ġ åħ¨
æ·· ä¹±
Ġthough t
D P
Ġrela tively
ä»ĸ äºº
Ġemb ed
æĦı å¤§åĪ©
åĪĨåĪ« ä¸º
å¯ ĵ
)^ *
6 00
Ġ æ¯Ķ
è¯ķ åĽ¾
tan ts
åĮĸ åĲĪçī©
lo ck
å®¶ äºº
Ġ åĲĳ
è¥¿ å®ī
ç²¾ å¯Ĩ
æĢ» è£ģ
æĬķ å½±
Ġ *
çļĦ å¸Ĥåľº
Ġuni verse
Ġb ase
Ġdef ine
æħ¢ æħ¢
b ilities
Ġide as
åĩº å¸Ń
éģĹ ä¼ł
ä½¿ åħ¶
èĬĤ çľģ
éĺ² æ°´
su ch
æĥħ æĻ¯
Ġneu tron
L S
ä¼ĹæīĢ åĳ¨çŁ¥
åĮ» å¸Ī
Ġpur pose
Ġappear s
Ġsimp ly
\[ {\
u psilon
è¿Ļ å°±æĺ¯
}- {\
éŃ Ĥ
åĮĹäº¬ å¸Ĥ
è¿Ļ ä¹Łæĺ¯
20 14
å¾Ī æľī
è·¯ çº¿
å®¡ æī¹
u gh
ĠM ar
Ġdisc rete
ä¿Ŀ åģ¥
Ġt rees
èĬĤ çº¦
struc tion
re lated
è¿ľ ç¨ĭ
Ġprotec t
b ili
Ġf all
çĥ ¤
äºº ä¸º
æĬ¥ èĢĥ
15 0
æĹ¶ ç©º
Ġmon ths
ä¸į å¤Ł
Ġsa mples
en ced
Ġ ä½ł
op era
Ġwor d
Ġc ity
}_{ +
å®¡ è®¡
Ġscenari o
T E
Ġ åĽłæŃ¤
Ġex change
}{ (\
å¼± çļĦ
æ¶ ¯
éģµ å®Ī
ä¼ĳ æģ¯
Ġimpro ved
é¥ ¼
T e
ce ed
æīį æĺ¯
ä¸į åıĹ
ç® Ń
ä¸ĵ é¢ĺ
åł ª
çī© èģĶç½ĳ
éĺ² æ²»
}\, ,
æĢĿ è·¯
æ°´ æŀľ
ç¨İ åĬ¡
Ġasp ects
ï¼Į ï¼Į
k in
Ġ åĽ½å®¶
n y
åĲĦ ä½į
Ġ åįķ
Ġ è®¡ç®Ĺ
F R
b el
ol i
Ġli f
Ġout side
ĠW orld
Ġfamili es
ĠH iggs
è®© ä½ł
}~ {
text style
æĥħ å½¢
ä¹ĭ ä¸º
ä¸ĸçķĮ ä¸Ĭ
å¤§ æĪĺ
çľĭ æĿ¥
æĿ¿ åĿĹ
èĬ Ŀ
Ġc reating
20 00
éĿĴ å²Ľ
Ġv ide
ed i
éĺµ åĪĹ
é£ŀ è¡Į
Ġpolynom ial
å¢ŀåĬł äºĨ
Ġet c
æĶ¶ è´Ń
Ġo ri
èº« è¾¹
æĺŁ çļĦ
ä¸Ń å¾®åŃĲ
Ġh ours
æĦŁ åºĶ
Ġqu ad
Ġalterna tive
çĽ Ĺ
Ġtyp ical
Ġcoe fficients
Ġy o
å¤§ å¤ļ
æ¸ Ķ
Ġcou nter
_{\ {
å¤© ç©º
}| \)
æĬĬ æı¡
å£° æ³¢
çº· çº·
an tum
)| ^{
èĤ¿ çĺ¤
å¼º åĪ¶
h ind
Ġmin im
åŃ©åŃĲ çļĦ
Ġl ist
éħ ·
u ch
è¾ Ī
è¯´ çļĦ
Ġcomp any
Ġn ano
åıį å¤į
Ġcon cep
Ġ ä¸»è¦ģ
g ni
å¯¹ åħ¶
å¯¼ æ¼Ķ
è¯Ħ å®¡
} &\
)} -
å¾Ī é«ĺ
Ġle ns
çĥŃ æ°´
çľĭ èµ·æĿ¥
Ġdec ision
Ġpossi bility
er ve
Ġemp ha
h u
Ġ æľįåĬ¡
Ġb la
Ġinter nal
Ġreson ance
}| ^
tin u
Ġ ç®¡çĲĨ
åĲĦ çº§
Ġga in
Ġfla t
Ġalgebra s
n m
Ġindic ate
èĪ °
jec tion
L A
ro magnetic
äºĮ çº§
åĽº ä½ĵ
çĲĥ è¿·
i le
ĠY our
çªĹ åı£
ro me
è¿Ľ çĲĥ
Ġ\({ }^{
Ġta ble
åı¤ ä»£
æļ ¨
å¥¥ è¿Ĳ
ĠPh ys
èµĦ è´¨
èī ³
å¹¿ æĴŃ
Ġspace time
Ġoff ers
å®¢æĪ· çļĦ
backs lash
æº ĥ
) {\
{ [
æĺİ çĻ½
èģļ çĦ¦
èĤ ª
è®¤ çŁ¥
Ġf ru
mon ic
å¥³ åĦ¿
ç²ĴåŃĲ çļĦ
Ġa rm
Ġlitera ture
é¬ ¼
Ġd on
Ġcr ystal
éĽĨ ç¾¤
Ġda ily
åħļ çļĦ
Ġ è¶ħ
åįģ åĽĽ
S ome
çłĶç©¶ çļĦ
di rec
Ġla tter
sp in
åľ¨ ä½¿çĶ¨
Ġ2 7
Ġbec ame
Ġdevelop ing
å¿ħè¦ģ çļĦ
ĠMon te
C N
ĠGa ussian
ä¸Ģä½ĵ åĮĸ
å¥ Ī
æ¿Ģ åĬ±
éĻ µ
b ert
re t
å¼Ģ æĭĵ
Ġin nov
ä»¥ å¾Ģ
) ãĢģ
ä¸Ģ é¡¹
æ¯Ķ äºļ
Ġequ ilibrium
Ġampl itude
Ġle d
\| =\
å±ı å¹ķ
Ġ{ {\
ä¸Ģ å¥Ĺ
çľ¼ çĿĽ
Ġperiod ic
ä¸į äºĨ
Ġj et
Ġru les
æĤ£èĢħ çļĦ
ch y
Ġcontin ue
æ£ ļ
Ġrespon sible
Ġsitu ation
ç¾İ é£Ł
Ġsto chastic
åº ŀ
åĽł åŃĲ
çİ°ä»£ åĮĸ
us ed
æĺ¯ä¸Ģ å®¶
çļĦ çĽ¸åħ³
an e
Ġpri or
çļĦ è¿ĩç¨ĭ
Ġ æĪĲ
äº¤ äºĴ
lu ding
w ing
H E
éģµ å¾ª
m y
éĻķ è¥¿
= &
os is
æº¶ è§£
æī ĩ
ĠT ra
åĨ¬ åŃ£
è¦ģ æ³¨æĦı
^{- (
å¿½ çķ¥
Ġmem ory
in duced
è®¾è®¡ å¸Ī
è´« åĽ°
Ġplas ma
vi al
Ġtr ig
åľ¨æľ¬æĸĩ ä¸ŃæĪĳä»¬
os ing
Ġd eli
æµ ©
Ġj o
çĮ Ľ
Ġprin ciple
P R
å¤ļ å®¶
è´¨éĩı åĴĮ
èĤ ©
ç¼ĸ ç¨ĭ
èİ ²
è¯» èĢħ
æĹĹ ä¸ĭ
sq cup
Ġexten sion
çļĦ æķĪæŀľ
Ġdy namic
M n
éĴ¢ éĵģ
è°ĥæŁ¥ äºĨ
æ³ Į
l tane
Ġu tiliz
ä¹Ł å°Ĩ
åĲĪçĲĨ çļĦ
ç§ ©
ä¸ĭ åİ»
ĠF irst
m ology
å¾Ĺ ä»¥
Ġmix ing
Ġs quare
ĠS ur
la s
ä¸Ģ çº§
çºª å½ķ
1 10
o ral
æī¿ è®¤
çŁŃ æľŁ
Ġpower ful
h ar
æŀ¶ æŀĦ
åĴĮ ç¤¾ä¼ļ
Ġcur vature
çłĶç©¶ äºĨ
ç¼ĸ åĪ¶
éĿĴ å°ĳå¹´
éĺ¿ æĭī
ä¼ł æī¿
çŃī å¾ħ
Ġsec tor
ä¸İ åħ¶ä»ĸ
Ġ2 6
ita min
èĦĤ èĤª
æľīæķĪ åľ°
ll ig
Ġ å¥½
åħī ä¼ı
åįİ ä¸º
Ġfre ed
a ke
I s
N o
Ġde b
Ġen j
æĬ¥ èŃ¦
åĽ¾ä¹¦ é¦Ĩ
Ġ ç©ºéĹ´
si a
ĠP ar
Ġsta ge
æ¿Ģ åıĳ
çļĦ ä¸ĢäºĽ
çĶ» éĿ¢
Ġa im
Ġin equ
ä¸Ń æĸĩ
æıĲ åĪ°
,\ ;
äººæ°ĳ åħ±åĴĮåĽ½
åĢº åĬ¡
C R
æī ®
è®¾ æľī
æ³ ³
ä¸ļ ä¸»
æĽ´ å¤§çļĦ
èį£ èİ·
D E
ï¼Ľ ï¼Ī
æĳ© æĵ¦
ä¸Ģä¸ª äºº
è¿ĺ åľ¨
æ¶µ çĽĸ
R es
Ġinc orpo
çĶ¨ æ°´
è½¦ éĹ´
åĸ· å°Ħ
Ġqu as
Ġtran sitions
çļĦä¸Ģ éĥ¨åĪĨ
éĻĲ åº¦
æ¯ı ä¸ªäºº
Ġhy po
Ġ æł¹æį®
ĠL ie
ä¹Łå°±æĺ¯ è¯´
æł ½
Ġul tra
Ġp ack
åĬł å¯Ĩ
Ġne arly
èŀį åħ¥
Ġuni versal
å¤Ħ çļĦ
Ġato mic
E O
}+ {\
Ġexp and
åįł æ¯Ķ
åĽ½ çİĭ
over set
titu te
mu ne
æ² ¦
ä»ħ ä»ħ
åĲİ ç»Ń
çŃĸ åĪĴ
çĩĥ æĸĻ
Ġbuil t
Ġs hift
ãĢģ ãĢĬ
éĻĲ äºİ
æĪĺ æĸĹ
Ġdeta il
ä¾Ŀ éĿł
Ġcorrec tions
èĤ ĸ
Ġre fer
How ever
å¸ ½
çŃī å¼ı
é¹ ı
æĦŁ åħ´è¶£
å§ ľ
æīĭ ç»Ń
Ġc y
ĠC hi
b ing
var pi
çļĦ åıĺåĮĸ
be ing
Ġ çĥŃ
Ġsu fficient
Ġobserv ation
ç½ĳ é¡µ
Ġcomb ined
åľ¨ ä¸į
å°± æľī
æĺŁ æľŁ
æĶ¶ èİ·
éļ¾ é¢ĺ
is s
Ġat temp
' -
Ġ å¦Ĥ
çĪ ·
Ġpatter n
as ons
çĥ Ĥ
èĢĮ æĪĲ
çĶŁæ´» çļĦ
an i
Ġlo cated
Ġtran si
k T
æĪĳä»¬çļĦ ç»ĵæŀľ
çĪĨ åıĳ
Ġpredic ted
åĲİ æľŁ
åİŁ æľ¬
ma tically
å² Ń
åºŁ æ°´
Ġorbit al
ä¸Ģ æĸ¹éĿ¢
Ġquick ly
çļĦ åħ³ç³»
çļĦ çĶŁäº§
Ġ åĲĮ
å®ĺ ç½ĳ
ä¸¤ äºº
åĭ ĺ
Ġconstruc ted
Ġbal ance
Ġsoci ety
çļĦ ç¬¬ä¸Ģ
åįĥ ä¸ĩ
Ġre lig
æĽ´ æľī
Ġqu al
éĹ ¹
æĿĤ å¿Ĺ
Ġvis ual
çļĦ ç©ºéĹ´
Ġrema in
a w
åı¯ æĮģç»Ń
ä¿ Ĭ
ĠW ar
Ġen c
Ġin put
å¼ķèµ· çļĦ
Ġrob ust
U S
Ġ3 2
æĥ ĳ
èĭ± æĸĩ
çļĦ æ¨¡åŀĭ
Ġg i
æĻ® åıĬ
é«ĺ èĢĥ
atu res
Ġchi ral
Ġallow ing
çļĦ å¾®
åĲ Ĳ
Ġgu id
tric es
éĺ² çģ«
) )^
ä»¥ä¸ĭ ç®Ģç§°
Ġproto col
æĤ ł
Ġr ights
ystem s
æĪĲ äº¤
å¯¹ æİ¥
èĴĻ åı¤
re hen
Ġpair s
è¡Ģ æ¶²
æĽ´ å¤§
æ¶Ī åĮĸ
å¦Ĥæŀľ æĺ¯
Ġl in
Ġdis order
Ġexpon ential
a f
åŃ¦ åĳĺ
æĲ ħ
Ġs il
è´Ŀ å°Ķ
Ġchar ged
ä¹Ł æ²¡æľī
æĹ¥ çĽĬ
çĽ´ çº¿
æĢ» ç»Ł
g ory
Ġ æ°´
Ġsing ular
Ġmath ema
L ED
æĪĳä»¬ å±ķç¤ºäºĨ
ç³ ķ
èĦ Ĩ
èĽĭçĻ½ è´¨
å¸Ĥåľº ä¸Ĭ
Ġex ists
æķĻèĤ² éĥ¨
S t
}} )\
æ¬ ł
è§Ĥ çľĭ
çŀ¬ éĹ´
re w
Ġv acuum
ç²¾ ç»Ĩ
Ġ å®ļ
æĪĳä»¬ æıĲåĩº
åħ¬ å¹³
å¹³ ç¨³
Ġel lip
Ġdistin ct
g l
Ġinclu ded
o red
è¿Ļ ä½į
è½¦ çļĦ
Ġlo cation
y a
åı¯ä»¥ è¯´
Ġac t
Ġ æıĲä¾Ľ
åĪĨ æĶ¯
)} ,\
ä¸Ģ ä½ĵçļĦ
è¯¾ é¢ĺ
åį± æľº
äºĶ å¹´
sta ble
ãĢĤ .
Ġseve re
æľ µ
Ġpo or
Ġve hic
éļ¾ åº¦
osp here
ha ve
o site
èĥ ģ
P V
Ġd rin
æĺ¯ éĢļè¿ĩ
æİ§ èĤ¡
Ġv acc
çĻ¾ åº¦
åŃ£ èĬĤ
æĮ º
ç§° ä¹ĭä¸º
çļĦ åħ¨
éĴ¢ ç®¡
Ġta x
åįķ çĭ¬
)} }{
Ġs y
æĶ¾ å¤§
åºĶçĶ¨ ç¨ĭåºı
r vert
Ġrec ord
=\ !
æľī åºı
åħħåĪĨ åıĳæĮ¥
è´µ å·ŀ
Ġsen sitive
Ġ äº§åĵģ
Ġco ordin
s mall
al gebra
su e
åı¯ çĶ¨
ä¸ ĺ
ä¸º å¤§å®¶
Ġh arm
è´¨ åŃĲ
å³ ¡
å¤ªéĺ³ èĥ½
Ġc en
éĤ® ä»¶
åħ¸ åŀĭçļĦ
Ġv or
}| =
Ġlo oking
bol d
æĿ¿ çļĦ
= [
b ot
f u
åįģ ä¸ī
ä»£ è°¢
Ġth resh
Ġcomplex ity
Ġwri ting
èĪª å¤©
] ^
en se
åĴĮ ä¸Ń
ä½¿ æĪĳä»¬
era ture
æŀģ ç«¯
è¡¨éĿ¢ çļĦ
å¹ ½
ç¼ĵ è§£
lo s
ĠC P
ä¸» åľº
tem s
Ġw arm
ä¸º å®¢æĪ·
tiv ated
i er
éļĲ æĤ£
Ġ\, .
å© Ĩ
ĠG erman
Ġcar ry
lo t
ot ing
åŁºç¡Ģ ä¸Ĭ
P o
om ing
åİŁ æĿ¥
æ¿Ģ çĥĪ
\ }.\)
ĠEng lish
å®¶ éĩĮ
å¤§åĪ© äºļ
åĲĪä½ľ ä¼Ļä¼´
è§£åĨ³ äºĨ
ĠI mp
Ġtens or
æĹł åħ³
a ms
Ġla nds
å¸Ī çĶŁ
P h
g eta
ĠAl though
Ġfreed om
al y
Ġ1 99
å½ĵ äºĭ
è§Ĥ å¿µ
Ġexp ression
Ġcorrec t
Ġread ing
Ġcontribu te
Ġ\( +
åįı ä½ľ
ä¸Ģæł· çļĦ
æĤ Ł
æ¤ Ĵ
æİ¥ åı£
ç»§ æī¿
! }\
çİ° éĩĳ
åįł åľ°
å¢ŀ éĢŁ
ä¾¿ æĺ¯
çº§ åĪ«
ä¸ľ æĸ¹
åģ¥ èº«
ĠSu ch
åľº åľ°
èĩ´ çļĦ
ä¹ĭ å¤Ħ
o id
ä¾Ŀ æīĺ
çļĦ ä¸ĵä¸ļ
Ġrela tivistic
Ġp arents
éĺ¿ éĩĮ
b ound
Ġ åı¯èĥ½
ari ties
æľī ä¸ª
Ġmove ment
r d
ni a
éĺ ģ
N ew
åĬ¨ éĩı
Ġdog s
M o
è¿ĩç¨ĭ çļĦ
äº§ çī©
æŀģ å¤§
æľº åºĬ
itu des
ä¸Ģ éĥ¨åĪĨ
ä¸´ æĹ¶
s ted
ä¸Ģ æī¹
çī¹ æĢ§çļĦ
d ri
ä¸Ĭ éĻĲ
åıĺ æĽ´
Ġ åį³
Ġg lass
Ġla ser
Ġ åĽ½
Ġ åĮħæĭ¬
_{ (\
Ġte eth
ap an
ting u
la mma
åĨį çĶŁ
)\\ &
)\, .
Ġsupp ly
çļĦ çī¹æĢ§
åĲĮåŃ¦ ä»¬
Ġpul s
ï¼ ħ
})\ \
Ġtur bu
Ġ tau
æĶ¯ éĥ¨
} ;\
æł¼ å¼ı
æĺŁ éĻħ
A x
ar ding
ri ly
ĠT hat
æ¨¡ åħ·
}) }{\
Ġhal o
çļĦ äºĭæĥħ
æ¸ħ çĲĨ
å¸¦æĿ¥ äºĨ
è¾ħ å¯¼
ä¸Ń æľĢ
å¹´ åºķ
åĮĸ åĴĮ
åĲİ æŀľ
ĠM ark
Ġru le
Ġp seudo
Ġbe am
ä¸Ń åŃ¦
è¶ħ è¶Ĭ
pa rame
Ġmanif old
lay er
8 33
åĩł ç§į
ub lic
å½¼ æŃ¤
Ġd ry
æĪĳä»¬ è¡¨æĺİ
å·¥ äºº
ç¥ Ń
åŁİ ä¹¡
æīĢè°ĵ çļĦ
qu ent
ĠA c
t yle
çļĦå¤§ å°ı
Ġf ir
æĺ¯ ä¸įæĺ¯
ĠA GN
Ġdetec t
åĩ ¸
æŀ ¢
è§£ æŀĲ
æ¾³ å¤§åĪ©äºļ
æľī çĤ¹
pa ir
çĻ «
Ġ æµĭéĩı
Ġla ws
éĻ¶ çĵ·
Ġfeed back
ra tic
U psilon
}- (
èĩªæ²» åĮº
P E
åĪĽ ç«ĭ
èĸĦ èĨľ
æĸ¹ å½¢
n ity
b c
Ġ äºĮ
ä½¿çĶ¨ å¯¿åĳ½
é¥ ²
C s
æĪĲä¸º äºĨ
ç¬¬äºĮ æ¬¡
çĽ¸å¯¹ åºĶ
å« Į
Ġpolic y
åĪ¶ æĪĲ
Ġb it
ad es
æ³¡ æ²«
Ġ æŃ¤
Ġradi al
Ġanaly tical
æľ ´
Ġestima ted
Ġsp lit
Ġpre p
çºº ç»ĩ
Ġf at
ä¸į ä½Ĩ
Ġansw er
cal led
Ġcho ose
R o
æļ ĳ
Ġcommu nities
åĲĦ å¤§
Ġro om
çļĦ çĬ¶æĢģ
Ġ\ :
p rec
æĸ° åĮº
Ġprac tices
Ġn an
ĠIn ter
å®ı è§Ĥ
si der
ç¬¬ä¸ī æĸ¹
ĠA ust
ä¸ŃåĽ½ çļĦ
D u
Ġ æĢ»
çļĦ äºĭ
åİļ çļĦ
Ġvis it
Ġinter n
ish ed
Ġdiff usion
ti st
ï¼Į ãĢĬ
Ġb eta
çĽĪ åĪ©
W ith
Ġcon dens
é¢Ŀ å¤ĸ
tis m
re st
çĶŁäº§ çº¿
åĲĪéĢĤ çļĦ
çļĦ ä¸įåĲĮ
è¡° åĩı
ç§ĺ ä¹¦
Ġb at
til ity
Ġf arm
Ġg ard
Ġpla t
)} ^
çļĦåŁºç¡Ģ ä¸Ĭ
é¦ ¨
Ġsta tion
æįĨ ç»ĳ
c ot
re di
å°Ĭ éĩį
åľ° çĲĨ
æľº ç»Ħ
è¿Ĳ ç®Ĺ
Ġcos ts
éľ ¸
èĴ¸ åıĳ
b rea
éģ ®
Ġmach ine
Ġ å½±åĵį
çĮ İ
Ġprog ress
sy ch
éħ ¬
åĪ¶ çº¦
èį Ĵ
tis h
äº§ èĥ½
å·² æľī
Ġ åŃ¦
M O
å¿ĥ éĩĮ
åĩı è½»
è´¢ å¯Į
Ġcontribu tions
å®ŀ åľ¨
ç» ³
Ġcul ture
Ġn ational
åŃ Ł
Ġh old
Ġcul tural
åĪł éĻ¤
Ġget ting
| >
Ġ }(
}_{ (
Ġstu dent
ç´«å¤ĸ çº¿
t ran
ĠIn s
11 1
è¿ĲåĬ¨ åĳĺ
èĩ³ åħ³
Ġlo ve
)\ |_{
Ġwe ek
éĥ¨ éķ¿
Ġne utral
Ġ å¾®
ä¸º çļĦ
Ġcol labora
çĶŁæĢģ çİ¯å¢ĥ
igh ted
ome tric
çİ°åľ¨ çļĦ
Ġcyc le
åĩº ç§Ł
åĪ¶ çļĦ
|\ ,\
Ġalgebra ic
Ġbound ed
b al
ä¸İ æŃ¤
å¯¼ åĲĳ
ci ent
åĩºçİ° çļĦ
Ġex cess
æĿĤ è´¨
äºī è®®
ĠS N
æ¯Ķ çī¹
æ³¨ åħ¥
éħį æĸ¹
Ġreac tion
Ġ çĤ¹
é¢ ĩ
ä¹ĭ è·¯
ç« Ń
f o
text up
Ġp or
ä¸¤ èĢħ
æº ¢
åĽł æĸ¯åĿ¦
do ws
Ġsol ve
Ġthera py
l vert
Ġ ç§į
g ers
Ġ éķ¿
- {\
Ġtrans mission
ig ure
ä¸İ åħ¶
åº· å¤į
ç¼ĵ æħ¢
çĶµ ç½ĳ
ĠS outh
under brace
èµ° åĲĳ
ĠS w
Ġexc el
i red
Ġbe hind
ä¼ļ éķ¿
æ¶ Į
p olar
åĢº åĪ¸
çľĭ è§ģ
ä¾¿ æį·
Ġdise ases
æĹł çĸĳ
ma rt
Ġ çĿĢ
å» Ĭ
ä¸» æľº
Ġ éĹ´
Ġbehavi our
co mple
å½¢æĪĲ äºĨ
Ġscien tific
ve x
ĠTh us
åħ¶ ä¸ŃçļĦ
Ġexact ly
or g
\| ^{
Ġpro tein
Ġeff ectively
Ġ ä½İ
Ġev ol
Ġobser ve
G s
è´ º
}} }{\
æº ¯
c ar
èĻ ¹
å¹³ æ»ĳ
Ġal though
æıŃ ç¤º
ac y
Ġdis covered
åĳ³ éģĵ
åįł æį®
k ers
æĺİæĺ¾ çļĦ
é¥® æĸĻ
Ġbri ef
çļĦ åĴĮ
Ġcharacteri zed
ä¸¤ æ¬¡
æ¨ª åĲĳ
è¹ Ī
æ°´ åĪĨ
é£İ æĻ¯
if y
Ġstrateg y
ç¼ł ç»ķ
æ¯ı æĹ¥
p ton
| {\
ä¸ľ åįĹ
do m
Ġ è´¨éĩı
éħį ä»¶
Ġcar ried
Ġ2 9
}) .\)
Ġdo ing
åı¯ çĶ¨äºİ
çİ° çĬ¶
åĪ¶ åĨ·
åŀĭ åı·
ĠD r
åħ¥ åı£
åİ» éĻ¤
åĨħ å¤ĸ
Ġmo ving
Ġta s
åľ¨ å¤§
si bility
çº ²
ä¸Ĭ åįĬå¹´
Ġdec omp
æĮ¯ èį¡
Ġm erg
Ġr ig
æľ¨ æĿĲ
12 8
åĪļ åĪļ
Ġachie ved
Ġbrea king
Ġgeome tric
åĤ¬ åĮĸ
Ġop tions
Ġallow ed
æĺİç¡® çļĦ
la nds
å½± è§Ĩ
B o
æĿ¡ æ¬¾
å¿ Į
æĭį åįĸ
ç¬¬ åħŃ
Ġsign als
åĴĮ æľįåĬ¡
æĪĳ æł¡
çļĦ è¿ĩç¨ĭä¸Ń
å®īåħ¨ çĶŁäº§
Ġme t
å°ĳ çļĦ
Ġpoli tical
Ġ éľĢè¦ģ
æ´» åĬĽ
r r
åħ´ å¥ĭ
çĶ³è¯· äºº
Ġcommon ly
å¹¿ä¸ľ çľģ
Ġchannel s
è¾½ å®ģ
Ġconjec ture
è¾ĥ å¤§çļĦ
Ġ æį®
çĪ ½
æĸ° åħ´
æİ¨ æĸŃ
z es
çļĦ éĢīæĭ©
æĹ¥ åŃĲ
åĩº è¡Į
è¿Ľ èĢĮ
Ġqu ar
Ġexerc ise
çļĦ æľī
ä¸Ģ çº¿
è¾ĥ é«ĺçļĦ
è®¡ éĩı
æİ¥ çĿĢ
mp ing
ĠM any
ĠRes earch
ä¾Ľ ç»Ļ
Ġti s
Ġshow ing
and s
çİ¯å¢ĥ ä¸Ń
Ġcalcu lation
çľĭ åĩº
éĿĻ çĶµ
rid ge
æµ ĩ
éħ ¿
å¥ĭ æĸĹ
re p
Ġanaly zed
od imensional
he ad
red uc
Ġcompan ies
æĺ¯ çļĦ
id ity
èµĶ åģ¿
P a
Ġd ual
éĽ ĩ
æİ¨ æµĭ
ç®Ģ åĮĸ
Ġsi tes
çĲĨè®º ä¸Ń
åıĳ æĶ¾
ä¸ľ åĮĹ
Ġf os
åīį è¿Ľ
f lat
is ten
çļĦ ç»ĵæŀĦ
Ġsuperconduc ting
down arrow
åķĨ å®¶
äºĴ çĽ¸
éĴ¢ æĿ¿
è¶Ĭ åįĹ
Ġinves t
é¡¾ éĹ®
' }\
l ar
å±ķ ä¼ļ
çĭ Ń
ec hn
ç»ıæµİ åıĳå±ķ
c lass
Ġaff ected
Ġprocess ing
è½½ ä½ĵ
ä»Ĭ åĲİ
Ġdetec tor
æĺ¯ ä»İ
Ġad ded
ä¸Ńåįİ äººæ°ĳåħ±åĴĮåĽ½
çļĦ è¡Įä¸º
}( -\
ĠS ince
Ġsc reen
}} |
era r
éĻĦ åĬł
Ġwri tten
Ġgenera te
è¢« è®¤ä¸º
Ġinte res
æĪ¿ éĹ´
åĲĮæĹ¶ ä¹Ł
è´¦ æĪ·
} :\
ac tion
çģ° å°ĺ
Ġdia gram
Ġo xy
ç§© åºı
çº³ ç¨İ
å§ »
C M
d dots
åı Ļ
Ġlar gest
åº Ļ
ä¸į çŁ¥
Ġsepa rate
å¹¼åĦ¿ åĽŃ
Ġ è®©
Ġwi ld
è¿ĩ äºİ
val u
ä¼ĺ è´¨çļĦ
Ġmin u
å¯¹ çļĦ
å°± åľ¨
Ġexam ine
é¦ĸ å¸Ń
Ġdisc us
if ically
Ġ åĬ¨
ä½ľ å®¶
ä¼½é©¬ å°Ħçº¿
8 00
Ġhydro gen
æĺ¾ å¾Ĺ
çª Ŀ
åĬŁ æķĪ
æĭī æĸ¯
çĻ¾åĪĨ çĤ¹
Ġw ood
do min
åħĦ å¼Ł
B a
è¿ģ ç§»
åı¯ åľ¨
ĠN orth
è½¬ è®©
Ġj oint
Ġle g
Ġcorresp ond
Ġho st
S A
us es
æ°ĳ ä¼Ĺ
éĩĩçĶ¨ äºĨ
è¿ĻäºĽ ç»ĵæŀľ
æĪ· å¤ĸ
ä¸¥éĩį çļĦ
xi ety
å®¢ è§Ĥ
çŃī çļĦ
æŁ ¯
æĿĥ å¨ģ
Ġopera tions
é¥± åĴĮ
éŁ §
æĺ¥ èĬĤ
æµª è´¹
æľ¬ ç½ĳç«Ļ
æĹ¥ æľŁ
å¤ĩ æ¡Ī
æķ£ çĥŃ
åĽ½å®¶ çļĦ
çĽ¸å¯¹ è®º
èĴĻ çī¹
æł ĭ
éĶ» çĤ¼
y z
Ġde mand
å¿« éĢĴ
y y
), (
h space
| ,
ĠI nc
Ġser ious
é¹ ¿
Ġselec tion
D o
Ġ çĽ¸åħ³
æģĴæĺŁ å½¢æĪĲ
è¯¸ å¤ļ
çģ« çģ¾
s cripts
åĮ ł
æįķ æįī
ç¯® æĿ¿
ç»Ļ äºĨ
g re
re la
ä¸į æĺĵ
ĠB ra
c les
Ġre pe
Ġcon trac
éĿ¢ ä¸Ĭ
æİĴ åĪĹ
æīį ä¼ļ
éĢı éľ²
æł¼ å±Ģ
in os
Ġsimu ltane
è¡ ¬
ex t
çļĦ ç³»ç»Ł
+\ ,\
C A
æĺ¯ ä¸ŃåĽ½
Ġsho ck
20 1
Ġacc omp
\ ;\
l ings
è¿Ļ æ¬¾
ä¹Ł å¾Ī
å¨ ĺ
Ġer rors
Ġreduc ing
å°½ å¿«
ç§ĳæĬĢ æľīéĻĲåħ¬åı¸
æ¶² åİĭ
æĵ ħ
[ -\
Ġpro jects
Ġac tions
z a
æĸ° é²ľ
bo ok
çļĦ çī¹çĤ¹
æĪª æŃ¢
æİĴ æ°´
çĩĥ æ°Ķ
è´Ł èį·
å»¶ è¿Ł
Ġhor izon
)\, ,
tr uc
| .
åı£ ç½©
Ġfinding s
Ġschool s
Ġmolec ules
ä¸ļ åĨħ
Ġprofi le
Ġprofession al
èħ¾ è®¯
åľ¨ é«ĺ
iv ing
Ġexp ec
å°Ķ æĸ¯
Ġin varian
éĵ ħ
å·² æĪĲä¸º
æĪĳä»¬çłĶç©¶ äºĨ
å¼ Ħ
Ġexp o
Ġar gu
12 5
ç» µ
æĭħ ä¿Ŀ
Ġe th
åĨ² çªģ
åħ¨ æĸ¹ä½į
ç§į åŃĲ
æ°Ķ è±¡
Ġmechan isms
è¯´ è¿ĩ
éĿŀ æ´²
åıĳçĶŁ çļĦ
Ġ åºĶ
Ġfor ward
=\ ,\
åľ° å½¢
äººæ°ĳ æ³ķéĻ¢
å¤ı åŃ£
g roup
çľĭ çĿĢ
çļĦ åĪĨæŀĲ
å¨ģ èĥģ
Ġdepend ent
éŃħ åĬĽ
al low
Ġra re
it on
il li
Ġnatural ly
Ġim mediate
åĩº åİ»
åĮĸ å¦Ĩ
Ġen ter
ä¸° åº¦
en ess
åĤ ħ
èĵĿ èī²
h ed
Ġc e
æ£ ĭ
tel li
çļĦ æ¦Ĥå¿µ
Ġrequire ments
åħī æ»ĳ
Ġarchi tec
)= (-
æ³ķ åħ°
Ġapp e
åħ¬ äº¤
Ġb lue
å¹´ åīį
Ġmod u
x p
_{ {
Ġp le
éĵ¶ å±ĳ
æĬ ¹
åħ³ èĬĤ
çº¦ ä¸º
Ġe at
Ġsta y
åģ ·
Ġund erg
;\;\ ;\;\
o tic
èİ İ
èĨ ı
æ¤Ń åľĨ
æºĲ çļĦ
ger y
Ġtra vel
p ris
å¤© ä¸ĭ
qu ark
è®² è¿°
Ġth ing
çĶŁ æ¶¯
be t
Ġstruc tural
è¿Ļæĺ¯ ä¸Ģä¸ª
f re
ĠS pec
æµ· åįĹ
( (\
Ġsome times
åĽ½ æ°ĳ
Ġformal ism
éĺ² çĸ«
ur s
ta ke
æī¿ åıĹ
ha ts
æľī å¤ļ
éĢ ¾
ä»¥ åħį
on ds
the y
f ere
Ġ ä¸įåĲĮ
åħ¬ ç¤º
çļĦ åıĮ
åģ¥ åħ¨
æ¹¿ åº¦
çĹ «
åĪĨæŀĲ äºĨ
ãĢĭ ï¼Ī
è½¦ ç«Ļ
å¼ķåħ¥ äºĨ
' }(
C ar
Ġ ç»ĵæŀĦ
Ġmod ified
Ġfi re
C ha
Ġpati ent
Ġexc lu
Ġf ro
O P
ti zation
ä¸Ĭå¸Ĥ åħ¬åı¸
åįģ äºĶ
å·´ è¥¿
Ġpic ture
i ent
t wo
ç¿ °
Ġtrans verse
çĥŃ éĩı
æħ °
Ġanaly tic
V ID
çĶ¨ äºº
ç»Ļ å¤§å®¶
æłĳ ç«ĭ
! \)
çŃī åĲĮ
Ġ6 0
å®Ĺ æĹ¨
on ical
ä»İ ä¸ļ
tand ard
æ°´å¹³ çļĦ
èĳĹ ä½ľ
R a
èĤ ¢
ç®¡çĲĨ ä½ĵç³»
åıĳçİ° çļĦ
æĭ ³
å¾® çĶŁçī©
z ero
}{ |\
li fe
Ġequ ip
Ġfor ces
åĬ© æĶ»
18 0
{( }
æİ¥ ç§į
) }\,
Ġ ä¸¤ä¸ª
å¤ª å¤ļ
ĠT i
äº§ä¸ļ åıĳå±ķ
Ġatta ck
Ġtherm ody
Ġbelie ve
Ġma trices
åı£ åĳ³
b re
åĩı éĢŁ
Ġstatis tics
Ġ çĶ±äºİ
æĿĳ æ°ĳ
Ġ3 1
åŃ©åŃĲ ä»¬
çħ¤ çĤŃ
ĠInd ia
Ġ( .
Ġse mi
åĽ¢ ç»ĵ
çĪ± åĽłæĸ¯åĿ¦
T C
lo ad
Ġv ic
éļĲ èĹı
10 1
åį §
æľ¬ ä¹¦
Ġdri ven
Ġcomp uting
åıĳ è¾¾
æĸ° æĺŁ
bb le
åºĵ åŃĺ
åĽ¾ çļĦ
è§£åĨ³ åĬŀæ³ķ
ou l
èĩ £
ç½ĳç»ľ çļĦ
åħ± äº§
å®ĮæĪĲ äºĨ
è¿Ļ å°±
ĠH igh
od ing
ĠO f
Ġca mp
S R
Ġsign s
å¡« åħħ
éĵ¶å±ĳ çĹħ
ç«ĭ ä½ĵ
å¥³ äºº
)= {\
æ¬¡ æķ°
å¯Ĩ åº¦çļĦ
Ġse a
åĪĽ å§ĭ
è¦ģæ±Ĥ çļĦ
res sive
po si
ä¸ĢèĪ¬ çļĦ
Ġmicro scop
}) )
og le
æĲº æīĭ
Ġ åŀĭ
an ger
èĭı å·ŀ
ri ty
è¿ĩ æĿ¥
Ġmagne to
r ig
Ġ å¾Ĺ
æĺ¯ çĶ¨
çłĶ è®¨
å¯Ĩ éĽĨ
å¦Ĥæŀľ æĤ¨
æŃ¤ ç±»
ä¸į ä¹ħ
ä¸ĵ ç§ĳ
20 13
pa rallel
Ġconc ern
ä¸Ĭ æľī
Ġexa min
éĺ Ĳ
æ³ ª
æĸ° çĸĨ
åĨħ åŃĺ
çĭ¬ç«ĭ çļĦ
æ¡¥ æ¢ģ
end er
Ġins tance
æķ´ æĶ¹
Ġrelax ation
è¢ ĸ
Ġpa rallel
æĪ¿ åŃĲ
è§£ çŃĶ
forma tions
å¼¯ æĽ²
ĠMod el
D R
Ġdeta ils
| ^{-
è¶³ ä»¥
è¡£ æľį
æ® ¿
form ing
lon e
å½ĵ å¤©
uri es
d ra
ç®Ģ è¦ģ
çĻ¾ å§ĵ
k x
p ted
Ġc ele
Ġprov ed
å¥¹ ä»¬
}] \
çĻ½ éħĴ
cc ccc
Ġse mic
æ±Ł è¥¿
P e
Ġcons ists
Ġris ks
æ³ Ĭ
åĽŀ é¡¾
åĨĻ ä½ľ
åħ¼ å®¹
äººåĬĽ èµĦæºĲ
Ġ eli
Ġb ox
åħ· ä½ĵçļĦ
è¢« è§Ĩä¸º
Ġgo als
æ¢¯ åº¦
çļĦ ä»·æł¼
ĠS he
M N
si vely
è´Ł æĭħ
åı¯ è¾¾
çħ Į
Ġvari ations
Ġcompu tation
ä¸įä»ħ ä»ħ
Ġima ging
G e
æµģ éĢļ
çĽ¸ å¯¹äºİ
Ġ\ !
è¿Ļ ä¹Ł
æ± °
Ġor th
åĵ² åŃ¦
E E
ĠC he
æ¼Ķ ç¤º
åĽŀ æĬ¥
ç¾İ æ´²
ins ic
èĶ ½
è¡ Ķ
nt z
ç¡® è¯Ĭ
ä¹¦ éĿ¢
åĽŃ æŀĹ
èĤĮ èĤī
Ġenj oy
ĠIn te
æŃ ĩ
Ġprac tical
åŃĹ æ¯į
Ġsa telli
éĩįè¦ģ çļĦæĺ¯
, ~
Ġlead ers
)= |
ç§» æ°ĳ
, }\\
here nce
çĻ« çĹ«
C H
è¡¨è¾¾ å¼ı
è¿Ļ ä¸¤
æĹł ç©·
çĻ¾ å¹´
ĠP ol
çĸ ¯
å¤ļ å¹´çļĦ
ç¢ Ĺ
rough t
Ġclo s
çĪ¸ çĪ¸
èĬĤ å¥ı
B S
å¼ ĺ
çļĦ åŃĺåľ¨
)} .\)
æĶ¾ ç½®
çĻ¾ ä¸ĩ
Ġplane ts
Ġ è¡Į
la tes
åĲĮ å¿Ĺ
å¸¸ æĢģ
è¿Ĳ è½¬
æĪĲ åŀĭ
èµ· äºĨ
for ce
Ġve geta
ç¼´ çº³
æ¸ £
Ġsu mma
åĿ ĳ
æķ°æį® æĺ¾ç¤º
åĨĽ äºĭ
éĽķ å¡ĳ
äº§åĵģ è´¨éĩı
Ġse x
æĮģ æľī
ä½Ľ æķĻ
Ġ æŃ£
Ġi ron
è½¨ è¿¹
ä¸Ń åĮ»
Ġdec ays
it ter
éĺŁ åĳĺ
Ġn odes
èĥ½ åĲ¦
ä¸»è¦ģ çļĦ
Ġs light
ä¸į å¼Ģ
Ġlea ves
Ġcurrent ly
}} .\)
æľĪ çļĦ
éªĮ æĶ¶
åĳ¨ å¹´
åĴĮ å¯¹
Ġimp ac
çĻ» å½ķ
Ġwi re
par row
è¶ħ å¯¹ç§°
Ġco des
å¦ ¥
è¶ĬæĿ¥è¶Ĭ å¤ļ
ĠM L
èĪŀ è¹Ī
çļĦ èĥ½éĩı
con n
æ¼Ķ è®²
æĽ ¹
å¢ ĵ
åıĳçİ° äºĨ
åĽº å®ļçļĦ
ĠJ apan
æĬĢæľ¯ åĴĮ
Ġsen sitivity
èĥĮæĻ¯ ä¸ĭ
è´ ¤
Ġfo ot
op h
ord ers
G S
on a
æľĢ æĹ©
Ġcomp rehen
Ġd op
æĺ¯ æĪĳä»¬
å±± è¥¿
ç¼º çĤ¹
ed uc
ĠRe g
omorph ic
a mple
en ed
è° Ĭ
our ce
å°½ åı¯èĥ½
æııè¿° äºĨ
å® ł
å¹³ å®ī
åĬŀ åŃ¦
æ¸ħ åįķ
ĠM ay
åĪĨå¸ĥ çļĦ
æĿĥ åĬĽ
Ġhuman s
Ġ å¼Ģ
Ġ çĶ¨äºİ
ä¸į åľ¨
Ġ3 5
{( }\
Ġstar ting
Ġreg ard
ĠO b
Ġtun nel
çĽĳçĿ£ ç®¡çĲĨ
æĹ¶ åħī
æ» ©
Ġco herent
çļĦ çĽ®æłĩ
ä»¥ å¤ĸ
æĹ¶éĹ´ åĨħ
\\ &=
Ġk ids
æ°ĳ éĹ´
Ġg lu
åįģ ä¸Ģ
ed eral
ç²¾ å¿ĥ
ec k
åĴĮ é«ĺ
Ġpredic t
å® ´
e ks
è¿ĩ åº¦
åĽ¾ æ¡Ī
èģĶ éĤ¦
åĪ¶éĢł åķĨ
éĥĳ å·ŀ
æĤ¬ æµ®
co hol
fy ing
ç¬Ķ è®°
Ġtechn ologies
Ġ æŃ¤å¤ĸ
Ġn arrow
çķ ľ
ĠC ana
ĠR ep
è¿ĲåĬ¨ çļĦ
å¤§ åŃ¦çĶŁ
è®° å¾Ĺ
atu ral
æĶ¾ åħ¥
å¥³ å£«
I ts
çĶµåŃĲ åķĨåĬ¡
å¼Ģåıĳ çļĦ
Ġinterpre tation
åľ¨ å¯¹
å¥ ł
ĠG reen
+ {\
ç»ı éĶĢ
ç§ĺ å¯Ĩ
å¿ĥ æĥħ
æķ´ æ²»
ä¹ĭéĹ´çļĦ åħ³ç³»
æľ¬ è´¨
è½¬ è½½
åĪĿ æľŁ
mod el
Ġapproxi mately
ĠAl so
Ġn one
æĪĳ æĥ³
åŁİ åĮº
Ġwave length
è Ł
\ }=
ec ting
çĶµ ç¦»
Ġyi eld
maliz ation
Ġarg ue
æŃĮ æĽ²
ĠAmeric a
æľī å®³
ç¼© å°ı
Ġthresh old
A pp
Ġprotec tion
Ġtas ks
Ġvari ation
å»¶ ç»Ń
çļĦ çĽ®çļĦ
ĠM il
é¸ ¿
Ġpop ulations
åħĭ æľį
qu asi
æĢ» é¢Ŀ
Ġcl oud
=\ ;
Ġta sk
ä¸į çĽ¸
åıĳ ä½ľ
åķ ¦
Ġyour self
t rans
ĠS te
Ġtra de
å¼ºçĥĪ çļĦ
éĿ¢ åīį
è¿ĺ æ²¡æľī
åĢ¾ æĸľ
åĩº åı°
ĠL HC
Ġinvol ving
M e
åĸľ çĪ±
Ġtrans formation
çĿ¡ çľł
ĠCar lo
æĪĳä»¬ å»ºè®®
ä¸ī æĺ¯
æĶ¶ èĹı
d V
i tion
ç¯® çĲĥ
æ» ŀ
ä¸Ńå¿ĥ çļĦ
Ġinten sity
Ġu ne
äº® åº¦
ä¹Ł ä¸įä¼ļ
D S
æĲħ æĭĮ
L E
å¤§ æ¦Ĥ
Ġm orph
æĸ¹ç¨ĭå¼ı çļĦ
å¸Ĥåľº éľĢæ±Ĥ
ç»ĥ ä¹ł
èĩªèº« çļĦ
func tion
od ic
ä¸Ĭ ä¸Ģ
Ġsto rage
Ġini ti
æĮ¯ åħ´
Ġextreme ly
Ġimp lies
L u
T i
Ġac cep
Ġsh arp
åĢŁ åĬ©
å¤ı å¤©
Ġgu ide
le ge
Ġinter mediate
9 00
åĽŀ å®¶
è£ ķ
èµ· éĩį
åıĹ æ¬¢è¿İ
Ġbenef it
Ġinterac ting
è¿Ļ æĦıåĳ³çĿĢ
ch ron
Ġde vi
çļĦ æľºä¼ļ
Ġ æīĢæľī
per s
Ġsyste matic
çī© ç§į
Ġsuper nov
Ġcontinu um
Ġimple ment
Ġdi ver
éŁ µ
is son
çĶ¨ çĶµ
ãĢĭ ãĢģãĢĬ
mic ro
Ġdisper sion
è¿ Ħ
Ġb ab
çĶ¨ ä½ľ
ĠM ic
æķĳ æı´
| <\
f g
20 2
éĨ ī
ffere nt
ä¾Ŀ çħ§
ish ing
10 8
æħ ķ
Ġ åĽłä¸º
th ere
Ġey es
+ (\
åıĳ è¨Ģ
ter min
çĽ®åīį çļĦ
è¡į çĶŁ
Ġ rou
ä¸į å¤ļ
æĽ¼ èģĶ
ç²® é£Ł
Ġopportu nities
. ï¼Į
pi es
Ġsubs tan
ĠU V
Ġst yle
çĭ ¼
) )}
è¶ĭ åĲĮ
å©ļ å§»
Ġsee ms
åıĳ èĤ²
pla ne
ç®Ģ ä»ĭ
Ġdefini tion
T V
å¤§ å¸Ī
ä¾¿ äºİ
,\\ &
Ġeff orts
Ġwid ely
åİŁ æĿĲæĸĻ
å¾® æ³¢
éĽ¶ ä»¶
N N
èĬ ½
äº§çĶŁ äºĨ
äº® çļĦ
Ġprob ably
æĲº å¸¦
äº« æľī
åį ľ
ç²¾ åĵģ
èĢĲ ç£¨
èĥ½ åľ¨
ĠSc hool
res sions
Ġstar ted
Ġexpla ined
ĠM ost
pm od
è¿Ľè¡Į æ¯Ķè¾ĥ
è¿Ŀ è§Ħ
è¿Ľ æĶ»
er ta
åıĺ éĿ©
+ |\
èĭ± æł¼åħ°
åı¦ ä¸Ģç§į
Ġgiv ing
j ected
è¿ĳä¼¼ åĢ¼
å®¶ çĶµ
l brace
Ġ& &
ĠThere fore
X Y
ç±»ä¼¼ äºİ
å¤ĸ åĽ½
Ġle gal
ĠSta te
ä¸¤ æŀģ
åıª éľĢ
A F
il bert
Ġpla ys
çİ¯å¢ĥ çļĦ
åĵģçīĮ çļĦ
Ġ åħ¶ä¸Ń
ç¦» å¿ĥ
æįŁ ä¼¤
æĬ« éľ²
ä¿¡æģ¯ çļĦ
Ġ ä¸ĩ
å¡ŀ å°Ķ
ä¸Ńå°ı ä¼ģä¸ļ
åİ¨ æĪ¿
ç¨ »
æıĲåĩº çļĦ
çī© èµĦ
åĳĬ çŁ¥
}= (\
èĢģ æĿ¿
Ġinf ection
è¿İ æĿ¥
il d
çŃ¾ çº¦
ho le
èģ ª
é¼ İ
éļĲ ç§ģ
Ġoxy gen
èĮ ħ
ç¡¬ åº¦
quen cy
äº Ń
Ġra ti
æīĵ åĩ»
å¹² æ¶ī
çĶ· æĢ§
tific ation
d w
Ġto ward
å·¥ ä¼ļ
ç»Ł çŃ¹
éľĢè¦ģ çļĦ
Ġt alk
ç²ī å°ĺ
Ġ\ |_{
mo de
è¸ ¢
_+ (
, "
éĹ¨ åºĹ
æīĢéľĢ çļĦ
e ties
Ġ åĮĸ
l ines
Ġsol id
æĪĳ åħ¬åı¸
æĪĳä»¬ è¦ģ
- (\
Ġin frared
äºĭä¸ļ åįķä½į
ol low
åĨħ æł¸
ç§° åı·
Ġ ä½¿
ä¸º ä¾ĭ
å®ļ åĲĳ
æ°´ åĪ©
ĠI sla
s ol
Ġga mes
æľī åĬĽ
erstand ing
Ġconse quences
ç¼© çŁŃ
Ġden sities
é» ı
w id
Ġ\ ,\,
Ġto ok
æĪĲ æķĪ
æĬ¥ ä»·
Ġoscil lations
ä¸į åŃĺåľ¨
ĠO p
n ucle
Ġ\ }.
è´ ¾
ä¸ª ä½ĵ
è¾ĥ å°ı
ç¦ı åĪ©
Ġtw odimensional
unc tion
åĴ ±
ä¸ĭ äºĨ
Ġpol lu
n tom
çĪ± å¥½
ä¸Ń æĢ§
èİ ī
Ġsome one
ä¸Ģ å¯¹
éĿŀ æ³ķ
æī¶ è´«
Ġw on
ä¸Ĭæµ· å¸Ĥ
Ġh tt
Ġspi ri
ĠI R
æĺ¯ ä¸ºäºĨ
q q
la w
Ġselec ted
uc k
ä¼¦ æķ¦
es tern
æľĢ éĩįè¦ģçļĦ
ç¼ĸ åı·
åľ° éĵģ
Ġpa ge
pro cess
åıĺåĮĸ çļĦ
è¯» ä¹¦
èĴ¸ æ±½
Ġcate gory
å§Ĩ æĸ¯
at om
m or
çļĦ åºĶçĶ¨
åĽ½å®¶ çº§
Ġno tion
ç«ŀ æĬĢ
T M
è¿Ń ä»£
åĪĨ æ³Į
Ġ çĶŁäº§
st u
Ġperturb ation
ä½ĵ ä¼ļ
n ic
Ġsuccess ful
Ġ çĶŁ
ar ity
ç©ºéĹ´ ä¸Ń
Ġdiffic ul
c ul
ä¸į è¶ħè¿ĩ
ĠG alactic
Ġ\([ -
Ġb ary
ĠH er
^{* }=
Ġanal ys
Ġt al
tific ial
ä¼° ç®Ĺ
æ°´ ä¸Ń
æĹ¥ æĬ¥
10 2
éĢī é¡¹
äººåĳĺ çļĦ
ãĢĤ ãĢĤ
åĲĮ æł·çļĦ
åĻ¨ åĴĮ
å¼Ĥ æĢ§
ä¼ĺç§Ģ çļĦ
Ġ3 6
åħ¬ åĬ¡
Ġcool ing
å©´ åĦ¿
åħħ è¶³
du al
è£ħ éħį
åįĹ æĸ¹
ĠæĪĳä»¬ è¿ĺ
Ġrun ning
ç©¶ ç«Ł
Ġimp lications
å¯» æ±Ĥ
}) /
éĨ Ľ
æĹ¶ä»£ çļĦ
Ġ è¿Ļä¸Ģ
ä¸į ç¨³å®ļ
ci te
Ġmaxi mal
ä¸į å¦Ĥ
as ter
æ¨¡ ç³Ĭ
æľ¬æĸĩ ä»¶
ç¡® å®ļçļĦ
Ġyi elds
ĠC al
æį® æĤī
Ġde al
ç¼ ¸
Ġsp ac
Ġcomb in
åľ¨ ç¾İåĽ½
Ġro ot
Ġim mune
åı« åģļ
ä¸ľ éĥ¨
åįĵ è¶Ĭ
ca te
æķĻ æĿĲ
çĶµ éĺ»
Ġimple mentation
ç¨ĭ åº¦çļĦ
Ġvide o
L o
Ġ åĬł
æĢ Ĵ
çĶµ åľº
Ġlay ers
æķĻ ä¼ļ
èµ° è¿Ľ
3 60
æ¸© é¦¨
è¡¡ éĩı
è¡Ģ åİĭ
Ġwid th
Q u
åĪĽ æĸ°çļĦ
å½ĵ å¹´
Ġ3 4
Ġ\, ,
Ġadvan tage
f it
math op
pha se
\| =
æ·±åľ³ å¸Ĥ
åı¯éĿł æĢ§
c el
åıĳå¸ĥ çļĦ
Ġ :=\
åİŁ åĪĽ
å¥³ åŃĲ
å®ļ å¾ĭ
è¯¥ åħ¬åı¸
Ġgo es
Ġopera tion
I G
ma ted
æľ¬ èµĽåŃ£
ç´§ æĢ¥
,\,\ ,\,\
äºĶ ä¸ª
åį¡ æ´Ľ
H S
Ġ èĩ³
ä¿® æŃ£
Ġcollec tion
ä¼ĺ å¼Ĥ
ur ch
Ġrepresen tations
ä» ²
æĻ¯ çĤ¹
Ġequip ment
æĭŁ è®®
Ġdistribu ted
ĠL y
ral s
Ġpho tons
& {\
çĶµ ä¿¡
æĬ ĸ
çº¿ æĿ¡
åħļ å»º
è®² åº§
ç¨İ æĶ¶
Ġdoc tor
å¹¶ å¯¹
äºĮ æ°§åĮĸ
Ġdemonstra ted
Ġin depend
) }\]
éĢ ¼
ra nt
Ġs we
Ġstr on
åħ¨ å¹´
èĥĮ åĲİ
åĲ »
è¯Ń éŁ³
ç®¡çĲĨ çļĦ
)- (
Ġprec ision
Ġsp her
10 5
lic ation
N S
Ġup da
äº¤ ä»ĺ
å¸Ĥ æĶ¿
å¨ ĥ
| -
nd ed
Ġb ad
èĻ ¾
po sition
ä»½ é¢Ŀ
Ġhi erar
r ist
éĴ ©
Ġdec rease
é¾Ļ å¤´
Ġelectro magnetic
å· ¢
ble s
ä¸į è®º
æĶ Ģ
ç»¿ åĮĸ
Ġag o
éŃ ı
ro id
ment ary
me ter
åĪĨ åī²
çĽ¸ è¿ĳ
ĠB a
ç»ĵ å©ļ
Ġk in
æĥ ©
Ġinf lation
Ġou ter
Ġ è¯ģæĺİ
å¥½ åĥı
åħī çļĦ
çĪ ¬
è¿Ħ ä»Ĭ
æľŁ åĪĬ
æº¶ åīĤ
k r
åĴĮ å¹³
éĢĢ ä¼ĳ
Ġ åĲĮæĹ¶
1 12
25 0
Ġear th
Ġsh ell
u parrow
Ġ å¤©
Ġ åĽĽ
æĢ§ æł¼
éĩĮ æĸ¯
Ġconver gence
å½ĵäºĭ äºº
Ġsur v
di o
Ġconfigu ration
Ġn ight
ĠH ar
åıį èĢĮ
æĬ½ è±¡
æĮĳ éĢī
Ġsugges ted
Ġexcel lent
ä¸ Ī
åįĬ åľº
Ġchalle nge
su pp
left rightarrow
èµĦ åĬ©
Ġ åĢ¼
æľŁ è´§
åıĹ çĲĨ
é¦ĸ éĥ½
æ²³ æµģ
B H
c en
Ġ å·²ç»ı
Ġa stro
ĠS un
çļĦé«ĺ åº¦
) _\
me try
å¾Ĺ åĩºçļĦ
20 12
æłĩ è®°
æĪĲåĬŁ çļĦ
p g
ç© ´
\[ "\
åĩĢ åĪ©æ¶¦
}" \]
ign ment
äº¤æĺĵ æīĢ
u x
Ġ çĬ¶æĢģ
Ġbe gan
æ°ĳ èĲ¥
Ġhealth care
am ond
çĥĺ å¹²
Ġc lin
è¥¿ æĸ¹
Ġ å¸Ĥåľº
ä½ł åı¯ä»¥
{ -\
Ġ æĪĲä¸º
ä¸ĭ è·Į
å¦Ĥ æľī
ç»ĵæŀľ æĺ¾ç¤º
çİĩ çļĦ
æĶ» åĿļ
Ġ ä¸ĢäºĽ
at ory
Ġdisc overy
Ġ3 3
ä¾¿ å®ľ
èĶ ¡
h es
v in
ä½İ çļĦ
æ¸¯ åı£
çĶ· åŃĲ
æ·ĺ æ±°
å®ļ äºĨ
ç»Ħç»ĩ çļĦ
çļĦå¤§ åŀĭ
Ġprop or
ĠĠ ĠĠ
ä¸» å¼ł
ific ation
ä¸ļ çļĦ
il le
Ġacc es
Ġfrequen cies
å± Ī
å»º æĿĲ
æĸĩ çī©
æĹħ å®¢
Ġfer mion
Ġre asons
æĴŃ æĶ¾
è ©
æĽ´ é«ĺçļĦ
a tic
ear s
éĩį ç»Ħ
å¥½ äºĨ
Ġexperi ences
åĵª ä¸ª
æĸĩ æľ¬
å¹ħ åº¦
Ġ æ³¢
éĺ² èĮĥ
æķ° æİ§
}) .}\
Ġm ig
Ġon to
ä½ĵ åĨħ
Ġ é¡¹çĽ®
Ġa mb
ä¸Ģ è¡Į
åħ³éĶ® è¯į
éĿł è¿ĳ
Ġ å¼ı
åĪĨ çļĦ
ore ntz
ç§ĳåŃ¦ å®¶
åľ¨ åħ¶
åįģ åħ«
çħ§ é¡¾
Ġenha nced
ĠJo hn
O T
åİ ī
é© °
Ġout put
ren ch
L T
)\ |
èħ »
Ġconven tional
b rid
Ġ åħ¶ä»ĸ
ä¾ ¯
ç¢ §
Ġins pi
ĠThe ir
ĠD elta
çĳ Ł
èį· åħ°
Ġsti mu
Ġclassi fication
ä¸į å¤ª
Ġ( {\
è© ¹
li de
çĲĨ æĢ§
åħ¨ ä¸ĸçķĮ
ä»ĸ è¯´
è¯· åıĤéĺħ
å±±ä¸ľ çľģ
Ġ ï¼Ł
Ġ æĺİ
Ġdis tingu
æ°Ķ çļĦ
å¿ĹæĦ¿ èĢħ
C omp
ä»¥ æŃ¤
éĥ İ
çĭ ®
ĠDi rac
ä¸Ģ ä»¶
ĠB i
Ġshow ed
åĮĹäº¬ æĹ¶éĹ´
qu ir
åĿļ åĨ³
åľ° è¡¨
æĸ° çĶŁ
Ġdep th
] )
åı ¹
xi de
dis c
åĩº åĶ®
æ³ķ å®ļ
æ¿Ģ ç´ł
gre ga
å¿½ è§Ĩ
ä½ĵ æ£Ģ
lim inf
æĪĲç«ĭ äºİ
éĻĨ ç»Ń
text normal
be tes
åħ¨ æĸ°çļĦ
Ġteach ers
ä¸Ĭ çº¿
å¿«éĢŁ å¢ŀéķ¿
M F
iv en
co mes
å®ŀ ä¹ł
ç¦ģ åĮº
t x
æĪĲ å¹´
èĭ± è¶ħ
ä¸¥æł¼ çļĦ
å¥ī çĮ®
Ġax is
é«ĺè´¨éĩı åıĳå±ķ
% ï¼Ľ
çĶŁ æĦı
çĿĢ åĬĽ
Ġto oth
çļĦ ä¸ī
æĪĳä»¬ è®¤ä¸º
ari ly
å¡« åĨĻ
å¡ ĺ
Ġ4 5
éķľ å¤´
Ġor d
çº¦ å®ļ
Ġh olds
Ġdec isions
teri es
I SO
é£ ĺ
è¦ģ æľī
ut y
\, ,\)
ä¸ľ äº¬
Ġflow s
Ġmanif olds
æ¸ħ éĻ¤
æ³ķ äºº
æľª èĥ½
åħī çĶµ
}}\ ,\
æ¬§ åħĥ
) )^{
Ġ è¿ĳ
å½ĵ ä»£
}^{* }
ä¸Ģ å¼ł
se e
æİ¥ å¾ħ
ä¼ļ åĩºçİ°
æľĢ ä¸º
è§Ĥæµĭ åĪ°
titu tion
! [
/ /
æĹł çĹĩçĬ¶
Ġdis play
ä¼ł æŁĵ
so me
^+ (
æĬĵ ä½ı
å¸Ĥ æĶ¿åºľ
Ġsug ar
ĠT ho
the tic
æ¯ĶèµĽ ä¸Ń
Ġinsta bility
ve ral
Ġbi as
Ġre nor
æµĭ å®ļ
æĬĺ åıł
Ġw alk
di ag
ati ves
s ha
éĻ Ģ
åĪ° æĿ¥
äººä»¬ çļĦ
Ġsto p
sk i
Ġ çĶµåŃĲ
é¸ Ń
çŃ¾ ç½²
äº ¨
æľĢè¿ĳ çļĦ
ç½ ķ
æĪĸ åħ¶ä»ĸ
Ġsee m
part ment
Ġrati os
_{ ,
çİ° æľīçļĦ
ul ti
éĵ Ń
te e
åĨĽ éĺŁ
Ġcon formal
Ġ ä¿¡æģ¯
re nce
å¸Ĥ å§Ķ
æłĩ è¯Ĩ
éĹ´ æİ¥
ĠB oth
å¾® åįļ
è¯± å¯¼
I nd
ĠD NA
éĴ ī
èº«ä½ĵ åģ¥åº·
Ġweb site
Ġsh or
Ġgra di
cep ti
çļĦ æ²»çĸĹ
ic on
è·¯ ä¸Ĭ
ç¡®å®ļ äºĨ
Ġexplicit ly
Ġth ous
ç§ĳæĬĢ åĪĽæĸ°
Ġproper ly
Ġwri te
Ġden se
ea rance
Ġ åĲĪ
è§£ è¯»
Ġemission s
Ġspectroscop y
} &=\
å¹´è½» äºº
temp erature
^{+ }\)
Fe As
ari th
æľª çŁ¥
åĪĩ å°Ķ
èĥ½éĩı çļĦ
Ġeigen val
ä½ĵ åĪ¶
}{ }^{
çŃī éĹ®é¢ĺ
çĽ¸ ä½į
åıª éľĢè¦ģ
äºī åıĸ
Ġopportu nity
Ġv itamin
ol s
13 0
çļĦ æľīæķĪ
Ġfas ter
Ġha ir
æĹ¥ çļĦ
ç»Ļ å®ļ
åıĳçĶŁ äºĨ
çĥŃ çĤ¹
Ġusu al
ĠSci ence
z en
Ġ åŃĺåľ¨
ç² ¹
ĠE instein
ä¼ł åĬ¨
è±¡ å¾ģ
ĠT wo
çŃīç¦»åŃĲ ä½ĵ
Ġfle xi
H a
Ġcate gor
åĲĮ äºĭ
Ġsta tic
çĶ» å®¶
çļĦ æłĩåĩĨ
Ġcha nging
= ~
den sity
è¿ĩ äºĨ
å°± ä¸į
f act
Ġw all
os es
Ġfe et
å¥ ´
ç«Ļ åľ¨
Ġelectr ical
ä¸ĢèĪ¬ æĿ¥è¯´
ä¸Ģ æµģ
åŁº åºķ
è§Ĩ éĩİ
åĩł å¤©
Ġpr ice
P O
çļĦ æł¸å¿ĥ
è¯´ æ³ķ
min ist
æ¬£ èµı
Ġbac teria
ti e
èİ ŀ
è¥¿ åįĹ
æĦ ī
åĬł åĿ¡
æľª ç»ı
m ig
Ġmix ed
èĦĬ æ¤İ
åįķ ä¸ª
æīĭ åĬ¨
B R
I F
M D
éĢļ æĬ¥
éĥ½ å¸Ĥ
ä¾Ľ çĶµ
å¼ķ çĶ¨
æł¡ åĩĨ
ä¸įå¾Ĺ ä¸į
) [
æľ¬ åľŁ
è¿ĺ å°Ĩ
Ġbel ong
Ġth rea
ha s
åıĳ æĢ§
ç»© æķĪ
åĢ¾ åĲĳ
Ġscien tists
èĮ Ĥ
å®ļä¹ī çļĦ
Ġ rough
èģĶ åĬ¨
N i
and au
èĬ± åĽŃ
è¿ŀæİ¥ çļĦ
çĤ ®
çºł ç¼ł
Ġabund ance
, |
å¾Ĺ åĪĨ
Ġ å¾Ī
ä½ľ äºĨ
æĪı åī§
å®ŀ çļĦ
è¿ŀ éĶģ
G o
éħį å¯¹
Ġiden tity
Ġresis tance
Ġsubstan tial
F i
Ġ éĥ¨åĪĨ
åĸ »
16 0
Ġintegra ted
Ġ éĩĮ
ä¼ļ å¯¼èĩ´
çļĦ è§Ħå®ļ
è¡Į èµ°
Ġmain ly
Ġser ve
Ġmen tion
} }^{(
åĪĨ è£Ĥ
çľ ī
æĺ¾ å¾®
L L
å¥½ å¤Ħ
è¿ĩæ»¤ åĻ¨
åĴĮ æĬĢæľ¯
åĪ© çļĦ
éĵ¶æ²³ ç³»
b x
as c
di es
é¢Ħ çº¦
æ¬§ åĨł
Ġd ro
èĵ ¬
ä¸Ģèĩ´ çļĦ
Ġconsider ing
çĶµ æŀģ
Ġfollow s
N C
Ġcon sum
ä¸¾ æİª
è´µ çļĦ
Ġenviron ments
Ġsustain able
E n
)^{ (
Ġphenomen a
h old
å¦ ¨
Ġas k
us ing
å¢ŀ å¤§
Ġhigh est
Ġremo ve
A G
ha m
ç®¡ æİ§
å¸Ŀ åĽ½
æĹ¥ åĨħ
å±Ģ éķ¿
çī¹ å®ļçļĦ
æŃ£ å¦Ĥ
Ġphenomen on
Ġa lone
Ġconcent ration
Ġc lu
æĴ °
Ġho mogeneous
Ġs in
-- --
Ġ\ ;\;
bi le
Ġda te
Ġinter face
Ġpres erv
åŃĲ åħ¬åı¸
H u
éĶħ çĤī
le x
ĠC ons
å½© èī²
Ġ\(|\ ,
ra s
}) (\
si p
åĪĨåĪ« æĺ¯
re ds
å¸¦ ç»Ļ
æł¸ æł¸
}} .}\
èº« å¿ĥ
æĭĽ åķĨ
Ġ åĪĻ
å¼º åĬ²
ä¾Ŀ æĹ§
cep tion
ç§ī æī¿
çļĦ æĢ»
ĠA nal
ä»ĸ æĺ¯
æį® äºĨè§£
Ġlo c
mar k
Ġin verse
æħ¢ æĢ§
æĢ» å±Ģ
Ġcol ors
è¿½ è¸ª
ä¸Ģ è¾¹
ke y
è®¡ç®Ĺ äºĨ
Ġinte llig
12 4
æ±¡ æ³¥
) ).\)
Ġnew s
åī© ä½Ļ
= {
N a
æĪĳ åľ¨
int ing
æī® æ¼Ķ
Ġ å°±æĺ¯
è¿Ļ æĹ¶
å¸¸ çĶ¨çļĦ
å¯Ĩ çłģ
ç±»ä¼¼ çļĦ
çŃĽ éĢī
ä¸İæŃ¤ åĲĮæĹ¶
éģŃ éģĩ
å½± åĥı
vi o
éĵĿ åĲĪéĩĳ
äºº éĥ½
il led
éģĵ çļĦ
æĮĩ ç¤º
æµİ åįĹ
ä¸º äºº
è¦ģ ä¹Ī
ç¬ ¼
Ġbo oks
éĢ ¸
Ġc ry
åĮºåŁŁ çļĦ
æļĤ æĹ¶
Ġ rank
ĠC or
ĠL ear
' }{
w as
èĢģ åĮĸ
Ġeff ort
Ġintern ational
è¿Ļ åı¥è¯Ŀ
éĢļè¿ĩ å¯¹
Ġb a
Ġnucle i
ĠC ent
Ġ çº¿
ta bility
çĥŃ å¸¦
Ġcontain ing
Ġgamma ray
S te
ĠN GC
æĸ¯ çļĦ
ä¸ī åįģ
å¢ŀ åĢ¼
ä¸į åºĶ
æĪĳä»¬ å°±
åĵ Ń
å®ļ æĢ§
ĠM in
b ow
ic a
é«ĺ å³°
éĻ¤ æŃ¤
Ġindic ates
æĮĩ åįĹ
åħ¬ æ°ĳ
åıĺ çļĦ
èĳ ±
ce an
åħ¶ ä½Ļ
åĨħ åľ¨
Ġmechan ical
Ġ æĥħåĨµ
æĹ ¬
ĠM us
çĥ ·
ä»İ ä¸Ń
ä¹ī å¤§åĪ©
ç¯ĩ æĸĩç«ł
Ġretur n
Ġ è¡¨ç¤º
Ġb le
^{- }\)
é©¬ ä¸Ĭ
æĲ ı
åĤ¨ å¤ĩ
sk ip
Ġan xiety
åħ¨ ç¨ĭ
10 3
åºŁ æ°Ķ
çºł çº·
éĢļ è´§
æºĲ äºİ
Ġpro be
tri vial
éħį éĢģ
Ġfu n
çĦ¦ çĤ¹
Ġabs olu
Ġ åºĶçĶ¨
æ°ĳ çĶŁ
ä»ĵ åºĵ
Ġrece ive
n x
æ°ĳ ä¸»
æįĲ èµł
Ġp sych
ra ft
ma il
æĸ°èĥ½æºĲ æ±½è½¦
Ġ å»ºè®¾
çĸ ¹
å®ŀéªĮ æĢ§
å¹³ æĿ¿
è¥¿ åĮĹ
ä»ħ æľī
å¤©çĦ¶ æ°Ķ
è®¸åı¯ è¯ģ
an ced
Ġprincip les
Ġprofi les
ĠW ork
gra ng
å¹³åĿĩ åĢ¼
o de
Ġ åıĮ
Ġadv ance
U T
çļĦ æķħäºĭ
åľ¨ æĸ°
åľ° è´¨
20 10
Ġinter ference
Ġcom ing
è¡¥ åĬ©
ç»Ī æŃ¢
èĽ ĩ
åĿ İ
Ġdisc over
S a
æ°Ķ ä½ĵçļĦ
å½±åĵį åĬĽ
Ġ çĽ®åīį
åĨį åº¦
Ġho pe
Ġexpo sure
æ´ Ĵ
Ġmodel ing
Ġop tion
å·²çŁ¥ çļĦ
å¥³ åŃ©
cri pt
Ġk er
åĩ» è´¥
o te
å¯¹ è¯Ŀ
çĸ¼ çĹĽ
å´© æºĥ
ĠB ay
Ġbu nd
Ġhu nd
AP P
Ġprec ise
u k
å¤ ķ
Ġso on
Ġvalu able
æ¯ ħ
åŃĲ å¥³
Ġwe eks
å¸¸ çĶ¨
æĭ¿ åĪ°
ti le
ĠB ased
d g
Ġv anish
10 4
åħ± è®¡
Ġ æĺŁ
çļĦ ä½įç½®
ti a
Ġpo si
Ġat tribu
å² ³
èķ ¾
al es
äºº æĸĩ
ä¸Ģä¸ª æĸ°çļĦ
èĪ ¶
10 9
Ġmon th
Ġflav or
ä¸į å¯¹ç§°
)} -\
ç®Ĺ ç¬¦
ĠAust ra
| }{
åħī åħī
æĸĩåĮĸ çļĦ
Ġsec tions
æĿ ī
èģļ æ°¨
ä¸Ń æīĢ
Ġar ise
s ess
Ġ- (
åīį æľŁ
å¿« çļĦ
ri ers
int y
Ġde lay
å§ ĳ
èĪ Ł
éĻĦ ä»¶
}} [
}}} &{{
Ġenga ge
Ġe p
ç£ģ åĮĸ
Ġstr u
é©± åĬ¨çļĦ
inc luding
_{ |\
è¿ĺ éľĢè¦ģ
åķ ¤
Ġconcep ts
è¯Ħ éĢī
Ġgene tic
al so
Ġs ched
åŁº åĩĨ
ĠCh in
Ġf ront
ĠD ay
ten ance
co mb
)\\ &\
ĠEx p
ç²¾ç¡® çļĦ
: //
æķ ²
æ°´ è´¨
ç¨ £
å¿« æį·
}| <
7 00
åŃ Ŀ
R O
æĺ¯ å¾Ī
st ood
çļĦ å®īåħ¨
ä¸Ģ å¤§
lap se
a ran
Ġ ice
è¡ ·
åħ¬ æĸ¤
Ġinvol ve
tern ational
Ġma c
æĬķ è¯ī
ç¿ Ķ
ĠCh ris
äººæīį åŁ¹åħ»
P s
å»º æ¨¡
åĴĮ éĿŀ
)\\ &=\
Ġv ital
è¡į çĶŁçī©
ä¸º éĽ¶
èĥ º
åĬŀ äºĭ
çĪ± å¿ĥ
Ġcle arly
Ġmo ments
Ġ4 8
é©¬ åħĭ
åī§ æĥħ
åĽ½ äº§
æµģ åĩº
Ġra tional
is tance
lic k
äºĨè§£ åĪ°
ä¸ Ľ
è§£ éĻ¤
Ġca vity
å»ºçŃĳ çī©
ç»ĺ åĪ¶
Ġtrea ted
èģļ åĲĪ
i ff
Ġ éĿŀå¸¸
te llar
Ġw al
é½Ĳ åħ¨
Ġquanti ties
çļĦ åı¯èĥ½æĢ§
ur n
B D
or bit
å¤§ èĩ´
\, (
og en
ä¸Ģ æ¬¾
Ġ\(( {\
Ġbod ies
Ġsur ve
å¤§å®¶ éĥ½
éķĢ éĶĮ
\ }}\
ab ric
ç«ĭ è¶³
çĻ½çĻľé£İ æĤ£èĢħ
' )\
ĠB lack
Ġfa ir
Ġor ders
ĠE duc
ä½¿çĶ¨ äºĨ
Ġpotential s
Ġconse quence
, &
rou ps
sta nd
Ġthin king
o o
Ġ. \
å¸Ī èĮĥ
Ġintr insic
åĪĨ åĮĸ
lo mb
e ep
å¸ Ĳ
æĸ° åįİ
ha ps
red it
com mu
Ġeasi er
éķ¿ æ±Ł
éļı æĦı
æ±Łèĭı çľģ
åĴĮ åľ¨
åĬ³åĬ¨ èĢħ
åľº ä¸Ĭ
20 11
æ¼ ł
Ġdata b
Ġdescri bes
å¹¿æ³Ľ åºĶçĶ¨äºİ
ä¸į åı¯èĥ½
éľ ī
åĲĦ çķĮ
Ġsub se
æĺ¯ åı¯ä»¥
ĠBri tish
åĨľ äº§åĵģ
èĥ½åĬĽ çļĦ
éĻį è§£
mp tions
æł¸ éħ¸
æļ´ éľ²
å¦» åŃĲ
i math
Ġfra g
Ġstand ards
Ġbusiness es
Ġpolynom ials
æĭī æł¼
Ġ= &
æĢ ¨
éĽ¶ éĥ¨ä»¶
Ġadvan ced
æ´ ½
èµ· çĤ¹
ad y
åįģ å¤§
M E
æ¹ ĺ
ä½ľ çī©
ä½į çļĦ
éĴ ¥
å±± åĮº
Ġgen eric
ra ne
éĹ¨ çļĦ
Ġv ision
Ġ3 8
( |\
é«ĺ æĸ°æĬĢæľ¯
çļĦä¸Ģ èĩ´
Ġorgan ization
ĠS ha
id ing
æłĩ é¢ĺ
è§ģ çļĦ
elec tron
Ġ ç»Ħ
å¹´ åĪĿ
çŃī é¢ĨåŁŁ
ld ren
è°ĥ è¯ķ
æī¿ è½½
ä¾µ æĿĥ
åľ° éľĩ
10 6
Ġbegin ning
åĵģ çļĦ
os ph
ci ous
Ġsta tus
ç»ĵæŀľ çļĦ
å¤ļ å¹´æĿ¥
åĽŀ å¿Ĩ
åīª åĪĩ
n ation
Ġ å·²
Ġf ine
åıĳ çĥŃ
ĠR ie
Ġpres ents
Ġdoes nt
Ġevalu ate
è¿Ļ ä¸İ
Ġsepa ration
ĠA b
æ¢ ³
çī¹åĪ« æĺ¯åľ¨
èĢ¶ ç¨£
è½¬ åĲĳ
å¯Į æľī
] }(
åģĩ å®ļ
] ,\
å¿ĥ èĦı
Ġcomp a
åĽŀ æĿ¥
åĲ¬ åĪ°
Ġfollow ed
Ġsche mes
o res
ä¸Ĭ åİ»
å¤ĸ çķĮ
åıĤåĬł äºĨ
o dot
ĠS T
^* )
ur rent
Ġdri ving
brac k
åĲī æŀĹ
Ġreduc es
go ing
æ¸ ´
Ġke V
Ġ åıĺ
Ġ ç¬¬
Ġj us
éĹ ¸
ess or
åĮĹ æĸ¹
ãĢĭ ãĢĤ
}^{ +\
çĶµ ç«Ļ
å¾® åĪĨ
èķ ´
ç»ĺ çĶ»
Ġd anger
éĴ ł
Ġac id
Ġlocal ly
Ġ çİ°
Ġ å®¶
di ff
éļ ¶
Ġar ri
èĩ³åħ³ éĩįè¦ģ
è¾ °
nd e
åľ¨ åĨħçļĦ
æĺ¯ æĪĳ
Ġref erence
Ġresour ce
çļĦ åĬ¨æĢģ
Ġs par
æĦŁ åıĹåĪ°
^* ,
ä¿® è®¢
Ġsitu ations
ti te
re al
å½ĵ ä¸ĭ
åĲĦ åĽ½
ä¼ł åªĴ
èĥ ĸ
è¾ Ł
å¼Ģ è®¾
è¥¿ åĵ¥
Ġkine tic
çģ« éĶħ
ç¥ŀ ç§ĺ
çĶ· äºº
æİĪ äºĪ
Ġwe ather
æĹł æķĪ
ä¸º ä½ķ
Ġcontrol led
f a
Ġi ons
çĲĨ å·¥
Ġ3 7
çļĦ çļĦ
æĺ¯ å¦Ĥä½ķ
æ²¦ ä¸º
Ġ æľĪæĹ¥
è¿ľ è¿ľ
)=\ {
èĥ½åĬĽ åĴĮ
ĠI m
ĠEurope an
æĶ¾ å°Ħ
ç¡ Ŀ
æĹ¶éĹ´ åĴĮ
æľīåħ³ éĥ¨éĹ¨
æ³ķå¾ĭ æ³ķè§Ħ
é Ħ
åĿļ å®ļ
æľ¬ åħ¬åı¸
10 7
åıĤ å±ķ
Ġstudy ing
Ġ åĬŁèĥ½
ç»ı è´¹
å¤´ çļĦ
reg ular
Ġing redi
r brace
å® ª
çİ¯å¢ĥ ä¿ĿæĬ¤
ĠP ri
ĠCh ina
åĲ ķ
Ġen ables
å½¢å¼ı çļĦ
{ )}\)
Ġa cade
æľĪ åºķ
æĳ Ĭ
Ġcoll ision
åĨ ¯
ä¸į åĬ¨
æĶ¶ ç¼©
åĦ Ĵ
)| _{
Ġcap ital
çĹĽ èĭ¦
å®ŀ ä¾ĭ
Ġorgan izations
Ġold er
phys ical
Ġneigh bor
te ch
è¿Ľ åº¦
åŃ¦æł¡ çļĦ
Ġdra w
) }_{\
å¹¶ ä¸İ
èģĮ èĥ½
c lu
åī¯ ä¸»ä»»
Ġmechan ics
æł ĵ
Ġm or
å¥½ å¥½
æŁĲ ä¸Ģ
II I
b ro
èĦ ¾
titu de
Ġperiod s
éĺµ å®¹
Ġconclu de
ä¸ª çĻ¾åĪĨçĤ¹
ä»·åĢ¼ çļĦ
åº¦ åģĩ
sp ect
14 0
åĪĨå¸ĥ å¼ı
Ġsupp le
Ġfriend s
ra t
éķ¿ æ²Ļ
æ²¿ çĿĢ
Ġgi ant
Ġe ating
ĠC enter
éĢīæĭ© çļĦ
æŃ£å¸¸ çļĦ
çī¹æ®Ĭ çļĦ
Ġ éĩį
Ġpotential ly
ç¢İ çīĩ
hi te
ä¸ľ èİŀ
å¤ª å¹³
éĢı éķľ
Ġscenari os
Ġre pla
ĠD ata
æĪĳä»¬ è®¨è®º
æĥ §
çĿ Ĳ
ala xy
Ġpla ces
ĠæĪĳä»¬ åıĳçİ°
Ġbir th
is ter
æŀģ ä¸º
åıĳçĶŁ åľ¨
å½¢å¼ı ä¸»ä¹ī
æħĪ åĸĦ
Ġnear by
å°Ĩ æĿ¥
ĠE d
bra ry
åĶ®åĲİ æľįåĬ¡
å¸ Ĩ
Ġfor mer
å¿ĥ æĢģ
ä¸ĵæ³¨ äºİ
Ġvir tual
| +
Ġ æĬĬ
èĪ Į
Ġconfir m
Ġpriv ate
me a
ĠM ed
Ġpla ced
åĵĪ å°Ķ
å¦ĩ å¥³
ãĢĭ ãĢĬ
Ġ åģļ
}} .\]
ers on
äºĴ èģĶ
èĪ¹ èĪ¶
çľŁå®ŀ çļĦ
æī¹ è¯Ħ
Ġnumer ous
Ġconsu mption
Ġeli min
d W
Ġs ou
}\ {\
Ġcomp osition
èīºæľ¯ å®¶
æ±¡æŁĵ çī©
f la
Ġpla stic
Ġequ i
é©¬ å°Ķ
C F
te ncy
ra tive
åĵ ¦
ĠB an
å¤© æĸĩ
åįļ è§Ī
12 2
æĶ¾ å¿ĥ
s cale
éĻ Į
Ġpropaga tion
z i
Ġcol um
n ti
ĠT eV
ä¹ĭ æīĢä»¥
åĨħ å¿ĥ
}^{* })\)
çļĦ æ¸©åº¦
æĸ° å»º
èĦ± è´«
Ġsecond ary
çļĩ å¸Ŀ
) /\
Ġ æłĩåĩĨ
è¿Ļç§į æĸ¹æ³ķ
çĽ´ è§Ĥ
Ġhe ating
}^{* }\
Ġ ç¤¾ä¼ļ
ĠAd ditionally
Ġ æŀľ
èĩª ä¿¡
il ing
å¯¼èĩ´ çļĦ
æĭħ å½ĵ
Ġcoe fficient
Ġconcer ns
åĬł æĿĥ
ç¾İ å®¹
æĬ¤ æłı
Ġrema rk
åĪĽå§ĭ äºº
è¯ Ī
~~ \
flu id
åī ¥
äº¬ ä¸ľ
Ġ ç»ıæµİ
å· ©
Ġn ur
è¦ģ åľ¨
ä¸ĭ æ»ĳ
èģļæ°¨ éħ¯
b all
con tinu
å½ Ń
Ġ. ,
ç±³ çļĦ
ä»£ æĽ¿
ä¸Ģèĩ´ æĢ§
Ġmus cle
Ġe ra
14 3
æŁ´ æ²¹
ç»ĵ ç®Ĺ
ç»Ļ ä½ł
çĶ¨ åľ°
æĮĩ ä»¤
R S
èĩª åŃ¦
}) _{\
è¯Ŀ é¢ĺ
ç»ĵæĿŁ åĲİ
èĲ¥ æĶ¶
æ½ľ åĬĽçļĦ
ä¿ ±
ä¹¦ æ³ķ
ä¸ĸçķĮ å¤§æĪĺ
qu ate
25 6
Ġcom mit
Ġexci tation
erta inty
}\ |\)
Ġb reed
è®¤ åĲĮ
ä¸» æµģ
ĠJ a
Ġauth ors
Ġinstr u
Ġslight ly
ch ar
åħ¥ éĢī
ä½Ĩ ä¸į
æ°Ķ æ¸©
æĪĸèĢħ æĺ¯
Ġc iv
| +|
åħ ĳ
ä¿¡ ä»°
Ġwhere as
ç¾¤ çļĦ
B M
å¹¶ æľª
tiv ation
éĢĢ åĩº
11 5
åħĥç´ł çļĦ
Ġmajor ity
Ġha nds
triangle right
Ġa p
Ġte sted
å·´ èĲ¨
Ġcompu tational
ĠH y
& -
æľī ä¸ĢäºĽ
Ġcorre lated
çŁ «
åħī çº¿
an u
å¯¹ æķ°
ĠT echn
}\ ;\
çº ±
æĪĳä»¬ æĬ¥åĳĬ
åĽĽ å¤§
åºĹ éĵº
Ġsec ure
ho p
æīĭ å·¥
éĵ¾ æĿ¡
åľ¨ ä¸İ
æİĴ åºı
) &\
ä» ĳ
ab s
æĺİ çļĦ
å¿ĥ ä¸Ń
é¡¶ çº§
å®ĮåĸĦ çļĦ
Ġpur cha
h el
ĠN or
Ġ è®º
éĹ´ è·Ŀ
Ġlo st
çĽ´ èĩ³
. ãĢĤ
da ta
13 7
ç¼º å°ĳ
av a
è¡¨çİ° åĩº
Ġminu tes
Ġan cient
ç³ĸ å°¿
Ġvol tage
e es
ä¸ĭ ä¸Ģ
å°ı å¿ĥ
éĻ¤ å°ĺ
f inite
ra b
Ġte ll
Ġad ults
ç»ıéĶĢ åķĨ
th an
ed imensional
åĽŀ å¤į
Ġemo tional
è¯ µ
Ġsi m
Ġassu mption
Ġs lo
åĴĮ å¤§
Ġ ä»ĸä»¬
äºĨ ä¸ĢäºĽ
å®¢ åľº
æ£Ģ å¯Ł
æĽ¾ åľ¨
Ġ _\
æĬ ļ
Ġ3 9
Ġ8 0
çĺ ¦
ä¹ĥ èĩ³
,\ ,\,
Ġ= -
Ġdri ve
Ġ ä¸ĵä¸ļ
æĪĺ èĥľ
æµĻæ±Ł çľģ
G P
ä¾ ¦
ç½ĳ æł¼
ä»£æķ° çļĦ
åħ¬ å°º
é¡¶ éĥ¨
tr ical
ç¥Ŀ ç¦ı
è¾¹ çļĦ
åĨ· åĩĿ
éĥ½ æ²¡æľī
13 5
éģĹ äº§
Ġperturb ations
Ġh eld
Ġ éĩıåŃĲ
çļĦ é¦ĸ
me tal
}^{ [
æ³¢ çļĦ
åı Ķ
ä¸º ä¼ģä¸ļ
pha ntom
éĺ Ī
çŃī åľ°
çĶ¨äºº åįķä½į
oun tain
äºĨ å¾Īå¤ļ
æĪĳä»¬ æĬĬ
å¯¼ å¸Ī
æĸ¯ æĭī
Ġro ut
è¶³å¤Ł çļĦ
ä¸ļ çķĮ
mi ons
å¨ģ å°Ķ
Ġreal istic
æ ª
æŀ ļ
Ġfu el
æĸ°åĨł èĤºçĤİ
Ġrapid ly
' .
w er
åľ¨ åĨħ
è½® èĥİ
æĬ¥ å¯¼
x z
Ġ èĥ½å¤Ł
Ġo dd
el ine
åħ³ç³» çļĦ
åĲĪ çº¦
ĠS D
11 3
å¿ħ éľĢ
åŁİå¸Ĥ çļĦ
ol l
è¿Ļ éĥ¨
ĠGa mma
Ġm ine
åįı åķĨ
hy per
åº¦ éĩı
ĠL u
ĠR ic
n te
Ġ4 2
Ġins ights
Ġ åıĳ
' ^
or m
Ġ7 0
Ġ çī¹
Ġ ä¸ºäºĨ
Ġdis tances
Ġsa mp
çŁ©éĺµ çļĦ
çļĩ é©¬
Ġ& :=
å· ¾
çĹħ çļĦ
13 2
åıĮ åĲĳ
Ġbos on
åĲ ŀ
Ġin e
æ½ ĺ
g ue
on on
ĠE ven
L ong
åľ° ä¸Ĭ
ĠU se
D C
f s
h ouse
Ġconf lic
åĪ¶ èį¯
op e
çİĩ åħĪ
nc ing
Ġ tan
Ġcom for
æľĢåĲİ ä¸Ģ
Ġin t
ĠS O
çłĶ åĪ¶
èĬĤ æĹ¥
æĬķ æĶ¾
çĶ¨ è½¦
çŃī å¤ļç§į
nt ing
åĳ½ è¿Ĳ
Ġf resh
çĸ¾çĹħ çļĦ
B I
åĪ ®
å¼Ģ å¿ĥ
è°ĥ åĪ¶
Ġa tom
åİĤ æĪ¿
Ġpromo te
u ma
Ġhydro dy
R T
Ġcol on
èº«ä»½ è¯ģ
var Lambda
åİ¦ éĹ¨
Ġspe ak
åĨ¶ éĩĳ
s cal
Ġ nd
ç²ĺ åº¦
Ġ è®¾è®¡
Ġco inc
æīĵ ç®Ĺ
å»ºè®¾ çļĦ
åĿĩ ä¸º
èĳĹ åĲįçļĦ
eli hood
æ°Ķ æ°Ľ
ç«¯ çļĦ
æ¬ º
éĵ ĥ
æ£ ķ
åĺī å®¾
Ġp ort
éĢī ä¸¾
æĬķ ç¥¨
æ´ģ åĩĢ
da tion
æ¶ Ľ
å¾· éĩĮ
Ġeconom y
Ġteach ing
Ġembed ded
] .\)
Ġ\( =
å¯ ¨
ĠU K
emp h
Ġcomprehen sive
lob al
Ġmonitor ing
ĠG RB
åı£ ç¢ĳ
åĨ ķ
éļĶ çĥŃ
åķ¤ éħĴ
r ceil
åĻ¨ ä»¶
11 8
mo c
è®² è¯Ŀ
Ġassu mptions
æ±ĩ æĬ¥
åĬ³åĬ¨ åĲĪåĲĮ
æ¨¡ æĿ¿
ä¸įæĸŃ çļĦ
O ur
åľ¨ è¿ĻäºĽ
Ġ ;\
åĶ ¤
éĺ³ å¸Ĥ
Ġconfigu rations
U n
Ġa xi
æĳĦ åĥı
Ġatm osphere
Ġsurround ing
Ġexp ressions
Ġ åıĪ
çļĦ åİŁåĪĻ
Ġ ç¬¬ä¸Ģ
æľī è®¸å¤ļ
ç±³ åħ°
åĸ· æ¶Ĥ
mu l
éģ £
ĠM y
åĪĽ åĬŀ
Ġti ght
ĠæĪĳä»¬ çļĦ
ĠSp ace
èģĮ ä½į
éĴ¢ ç»ĵæŀĦ
Ġcompu ted
éĺ» åĬĽ
Ġco gni
åıĬ åħ¶ä»ĸ
åĪĩ æį¢
ç§ģ äºº
çĽ¸ åĮ¹éħį
æ³¢ åĩ½æķ°
v able
or gan
Ġnumer ically
æī¹ åıĳ
su res
h t
Ġhe ight
åŁŁ åĲį
Ġfi le
Ġampl itudes
osph eric
k m
å¢ĥ åĨħ
ora tory
åĪĨ åħ¬åı¸
æľ¬ å±Ĭ
ä¸» æ¼Ķ
Ġ lambda
ç¡® åĪĩ
å¢¨ è¥¿åĵ¥
2 20
åįģ ä¹Ŀ
åĿĩ è¡¡
è´¢ ç»ı
Ġinf lamma
æ²ī æ·Ģ
æŃ §
åĮº éĹ´
çĶŁæĪĲ çļĦ
éº» çĥ¦
3 50
Ġpro m
éĥ¨åĪĨ çļĦ
åı¯ä»¥ ä½¿çĶ¨
Ġrelations hips
H ere
c lo
Ġin struc
}( (
æ³ķ åĴĮ
æĽ´ å®¹æĺĵ
åŁºéĩĳ ä¼ļ
åīį æ²¿
Ġcan onical
ä½İ ç¢³
Ġdomin ant
ä¸Ĭ å¹´
the ir
Ġobserv ational
Ġ è¡¨æĺİ
çº ¬
åºĶ åĬĽ
éĤ£ ç§į
æ·± åıĹ
R ic
Ġmathema tical
å¹´ èµ·
éĤ ĵ
è¾¾ åĪ°äºĨ
å°ı ç¨ĭåºı
éĥ½ å¾Ī
Ġv ul
Ġassu med
w hile
}^ +
i ed
ä¸» è§Ĵ
è¿ĺ åĮħæĭ¬
Ġgen erator
Ġcre ation
çļĦ åİĨåı²
é«ĺ æĸ¯
åı° åĮĹ
Ġclos ely
ä»· æ¯Ķ
Ġb l
çĲĨè®º åĴĮ
Ġ ç±»
ma ins
ç®¡ çļĦ
æıĴ åħ¥
æĿ¥ è®²
æ½ľ èĥ½
çĲĨæĥ³ çļĦ
éĢĤåºĶ æĢ§
æĬµ æĬĹ
Ġdi verse
Ġ æµģ
or ing
Ġe lastic
æİ§åĪ¶ ç³»ç»Ł
æ¾ Ħ
}) |
åĬł éĩį
ĠH all
åįģ åħŃ
Ġgeneraliz ation
éĢļè´§ èĨ¨èĥĢ
c to
Ġapp arent
Ġcom mer
éĿĴ çĿĲ
Ġlin ks
ĠM sun
ä¼ģä¸ļ åľ¨
Ġformu lation
tu na
Ġp ric
è¡Į é©¶
hy dro
Ġsha red
Ġrepres ents
Ġtur ns
th in
æĿ¿ æĿĲ
ä¾µ çĬ¯
Ġin ver
ä¿¡ èµĸ
éĢ ¢
éĴ ®
11 9
S h
Ġun known
éĩĳèŀį æľºæŀĦ
l ceil
on ent
ä½ Ĳ
Ġabs ence
] -
æľī æ²¡æľī
su al
æĪĲ åĵģ
ĠE ach
å¸ĥ æľĹ
å¹¿ éĺĶ
ĠY ork
Ġfac ili
Ġ ç½ĳç»ľ
åľ¨ å¤ĸ
çĽ¸ æľº
å¸¸ åĬ¡
Ġ å½¢æĪĲ
\{ -
ä¾§ éĩį
çļĦ ç®¡çĲĨ
Ġ åĬĽ
å¥½ è¯Ħ
Ġker nel
_{+ }\)
çģ¾ å®³
Ġma g
ç¬¬ ä¸ĥ
é¢Ħæµĭ çļĦ
, -\
O r
Q CD
é ĳ
çļĦéĩįè¦ģ æĢ§
ou ds
Ġ4 3
åį° åıĳ
çļĦ æľĭåıĭ
Ġs izes
ä¾ ¨
å¸¦ å®½
Ġexperiment ally
I A
S F
ĠS tandard
éĳ «
Ġ ç»Ļ
æ¯ı æľĪ
B O
a mp
åľ¨ å®¶
åŃĲ éĽĨ
13 4
Ġdescri bing
è¯± åıĳ
åĴ± ä»¬
ä¸Ģ åı¥
åĿ Ŀ
Ġl isten
Ġwork ers
èĲ Ŀ
æĶ¿ åĬ¡
sec tion
Ġ ä½ľ
re ci
çİ Ħ
ho to
ä¸ĭ ä¸ĢæŃ¥
os s
ç§Ł è½¦
1 33
}\ !\
k ov
åľĨ æŁ±
Ġ( -\
çŃī çĽ¸åħ³
ç² ¤
è§£åĨ³ éĹ®é¢ĺ
å¯¼ èĪª
ç§ĳ çĽ®
åĭ ¾
åºĶè¯¥ æĺ¯
æģ ¼
Ġinf er
çīĽ é¡¿
Ġsignific ance
è¯ŀ çĶŁ
Ġf ight
(\ {
ä¾ £
Ġde ad
ä½ı å®¿
Ġnon trivial
Ġstra ight
ä¸į å¤§
Ġro ad
Ġ æµ·
ä¸į èµ·
æĢ§ å¥½
å¯¹åºĶ çļĦ
genera te
æĸĩ æ¡£
Ġeff ec
Ġtrans form
åĪĳ äºĭ
æ°¸ ä¹ħ
Ġexhi bits
ni hi
çĥ ¹
h skip
Ġ åıĹ
åĩł åįģ
Ġgra du
åħ¶ä¸Ń åĮħæĭ¬
N T
Ġ }}
æłĩ çļĦ
grang ian
è¶ħå¯¼ ä½ĵ
Ġhistor ical
D s
ä¸į ç¡®å®ļæĢ§
åħ¬åı¸ åľ¨
æľīè¶£ çļĦ
y p
ä¾ ł
ĠP al
Ġhe ar
ffici ently
æľ¬ æĿ¥
con f
ĠCO VID
Ġ åħĥ
Ġ åĽ½éĻħ
æľīä¸Ģ å®ļçļĦ
ä»ĵ åĤ¨
P M
j o
ou rier
duc tion
wid th
Ġex ecu
çĲĥ çļĦ
Ġ åıĤæķ°
)) (
æ¬§ çĽŁ
å¤« å¦»
Ġband s
ma king
es ts
åľ¨ åīį
}&{{ }\
Ġ erg
Ġevery one
Ġesti mation
Ġneu ro
åľ¨æľ¬æĸĩ ä»¶
e per
Ġc ro
Ġi tems
ĠM eV
Ġne g
' re
æĹł æķ°
æ´»åĬ¨ ä¸Ń
ĠTe lescope
ä¸Ģæ®µ æĹ¶éĹ´
Ġgard en
åĲİ éĿ¢
åľº åĲĪ
Ġstru gg
= &\
Ġel se
ot t
åĪ« çļĦ
è¯ģæĺİ äºĨ
im il
i med
è·¨ è¶Ĭ
ti fied
æĺ¯ å°Ĩ
Ġ åħīè°±
å¼Ģ å¹ķ
fre quency
è´ ª
ĠC l
çĸĳ éĹ®
æķ° éĩıçļĦ
ï¼ļ ãĢģ
åįł æľī
è¯¦ç»Ĩ çļĦ
çĳŀ å£«
é«ĺ é¢ĳ
åŀ ¢
èį §
Ġrele ase
Ġensu ring
_ -(
or tation
Ġpro te
Ġla un
Ġconf idence
æ¶ ¤
Ġen semb
æ¸Ĳ æ¸Ĳ
ç£¨ æįŁ
Ġconserv ation
te en
Ġre ality
åĳ¨æľŁ æĢ§
çĲ ³
Ġsk y
æĸ ¥
ç»ĵæŀľ ä¸İ
åĴĮ ç®¡çĲĨ
è½¬ åĬ¨
p ective
å®ŀ è´¨
Ġal cohol
ĠE u
teri or
Ġha b
è¡¨ æł¼
Ġexp ress
æĪ¿ äº§
Ġag ricul
äºº ä¸İ
Ġp lu
ç»Ħ å»º
åĤ ²
ç´¯ ç§¯
Ġeduc ational
å« ©
; \,
Ġ çĦ¶åĲİ
Ġre produc
è¯¥ æ¨¡åŀĭ
æĪª éĿ¢
æľº çĶµ
å®īåħ¨ çļĦ
cou p
Ġexci ted
)) -
Ġvir us
ä¼ģä¸ļ åĴĮ
æ®ĭ çķĻ
Ġfil m
æĪĳ æĺ¯
å±Ģ éĿ¢
åº§ è°Ī
ç»Łä¸Ģ çļĦ
çŃī å¤ļ
èĤ¡ ä»·
Ġunc ertain
çĻĮ çĹĩ
g ent
ch arge
Ġse ven
è¿ĩç¨ĭ ä¸ŃçļĦ
éĵģ ç£ģ
X X
Ġ4 6
11 4
Ġreg i
æ¶Ĥ å±Ĥ
Ġanti fer
Ġ rac
æĿ¥ è¿Ľè¡Į
22 2
äº¦ è¯·åıĤéĺħ
Ġdiscus sion
æĹ¥ èĩ³
å¯¼ çĶµ
ä¼ł éĢģ
æĢ» çĽĳ
g ar
l ined
Ġdis ks
æĿ¥ æııè¿°
Ġpres cri
æ¼Ķ åĮĸ
Ġtra ffic
Ġ è¾ĥ
le ar
é¢ ł
èİ· å¥ĸ
åĪĹ åħ¥
Ġ äºĽ
è½ §
æĸ° åĬłåĿ¡
Ġexp ressed
åĲ« ä¹ī
a di
Ġrece ived
Ġ åĲĦ
çļĦ åŃ¦çĶŁ
çĽ¸ éĤ»
ä»¶ äºĭ
Ġtop ic
d P
çļĦ ç²¾ç¥ŀ
åıĳ èµ·
éĻ¤æŃ¤ ä¹ĭå¤ĸ
ä¸Ń èį¯
str onom
æ£Ģæµĭ åĪ°
P er
åĪĴ åĪĨ
è´Ł è½½
Ġreli able
R I
{ }
å¾ħ éģĩ
éĻĦè¿ĳ çļĦ
çļĦ æĦŁè§ī
Ġcon vex
| )
å¼Ģ å·¥
é©¬ æĿ¥
åĽ½å®¶ åĴĮ
å¯¹ çŃī
åĽ¾ ä¸Ń
æ¸¸ æ³³
ç¿ ħ
Ġplan ning
Ġc er
rac t
cu ment
200 8
Ġaff ects
\ ,\,
b r
ä¸¤ å¤§
12 1
Ġ4 1
éĺĢ éĹ¨
or tant
la tors
è´§ æŀ¶
Ġadj ust
Ġ è¦ģæ±Ĥ
he ther
è®¡ç®Ĺ åĩº
in variant
å¹´ è¢«
æ· ®
éĴ¢ çĲ´
Ġpos sess
& &
Ġ ä½Ĩæĺ¯
Ġp et
èĥ ļ
é¢ĳ ç¹ģ
Ġrec overy
è¿Ļ ä¸¤ç§į
è§Ĩ è§Ĵ
Ġjour ney
C l
Ġ èĩªå·±
å¸ĥ ç½®
é»Ħ èī²
ä»ĺ åĩº
åİ Ħ
å¼º åĬĽ
Ġreg u
_{- }\)
Ġmanu fac
æİ ©
12 6
Ġ$ \
éĺ² çĪĨ
è®° è½½
çļĦ æĹ¶
en sive
ä¸į æĥ³
Ġb all
Ġconclu sion
èĿ ¶
Ġinst al
Ġp ion
Ġe g
ĠK ing
fic ial
Ġcharacteri ze
B L
Ġ åĲį
çĶŁ çĲĨ
Ġpro mis
14 4
Ġname ly
Ġed ges
æ¡Ĩæŀ¶ åĨħ
èĴĻçī¹ åį¡æ´Ľ
l li
Ġapp earance
av ig
è¿Ľ åĩºåı£
ec es
åĲĳ ä¸Ĭ
lus ter
çł´ ç¢İ
p seudo
åı¯ æł¹æį®
å¥ ¢
ä¸Ģ å¸¦
æĮ «
in ted
ä¸Ĭ ä¼ł
}= \)
ä¸» æķĻ
ĠP ark
ä¹Ĳ è§Ĥ
Ġsus cepti
C r
åıªæľī åľ¨
è¯¢ éĹ®
Ġconn ections
è½¬åĮĸ ä¸º
D is
ç§ĳ æĻ®
ç¤¾ä¼ļ ä¸»ä¹ī
ä¹¡ éķĩ
G M
Ġs tor
an ge
ä¼ļ å¯¹
æ¼Ķ åĶ±
Ġfe ma
J o
é« ĵ
åİĨ ç¨ĭ
w in
)}&{{ }=\
åı¯ä»¥ å°Ĩ
å¢ĥ å¤ĸ
w p
si tes
æĶ¯ æı´
è§ģ è¯ģ
å®ŀéĻħ æĥħåĨµ
çļĦ æĿ¡ä»¶
Ġs uc
æľ¬ å¾ģ
å½ĵ ä½ł
èĦĬ æŁ±
Ġs ymp
Ġal lo
Ġdi f
Ġcollec ted
z ens
æĺ¯ éĿŀ
ä¸İ çļĦ
ĠB ecause
è®© ä»ĸ
Ġstation ary
d h
ä¼ł è¯´
åĮĸå¦Ĩ åĵģ
s how
åħ¥ åŃ¦
çĶĺ èĤĥ
C E
ä¸Ģ åº¦
éĢļ çĶ¨çļĦ
' ,\
Ġh ous
Ġsp on
^{+ }}\
Ġmar gin
åĩĨç¡® æĢ§
Ġanisot ropy
Ġ äº§çĶŁ
ĠF rench
éĹ¨ çªĹ
Ġtechn ical
Ġsum mer
Ġcandida te
he res
åĢ¼ ä¸º
Ġlea ve
pris ing
A X
x ic
in frared
åı Ľ
al ities
Ġsupp orted
çīĻ é½¿
mun ic
Ġman ner
Ġhar monic
æĪĲ äºº
ä»Ģä¹Ī æĺ¯
Ġradi ative
ä¸Ģ çīĩ
ri e
ĠE mp
èĪ ±
ç½ĳç«Ļ çļĦ
Ġillust rate
~ }
è¢« åĳĬ
tiv eness
çºł æŃ£
ä¸ĸçķĮ çļĦ
é¥² æĸĻ
Ġd edic
å¯¹ å¾ħ
æīĢ ç¤º
ä¸»è¦ģ çĶ¨äºİ
liz ed
ä¸į å®¹æĺĵ
åı¸ æľº
åį´ æĺ¯
çļ®èĤ¤ çĹħ
æĹ¥ ä¸ĭåįĪ
}}&{{ }=\
çī© ä½ĵçļĦ
Ġ4 4
åĨ· åĨ»
æ¶Īè´¹èĢħ çļĦ
å±ı éļľ
ä¸į å¹³çŃī
ä¸º ä¸»é¢ĺ
éĺ ±
çĬ ¬
Ġn ons
ç¿ ģ
Ġa gen
å¤§ èĦĳ
Ġpro ton
ä¸ĭ æĿ¥çļĦ
Ġ9 0
\! =\!
åĪĨ ç»Ħ
Ġ( (
åŃ¦ æľŁ
N L
Ġco mma
}) }\)
åıĺ é¢ĳ
Ġbec oming
åĲ¯ åıĳ
Ġimpro ving
ç½ļ æ¬¾
h or
Ġin fra
Ġre place
tain ed
Ġh ence
Ġsp ot
Ġmid dle
Ġ éĢīæĭ©
Ġse quences
ä¼ł è¾¾
ww w
Ġw r
å¹³æĸ¹ åħ¬éĩĮ
é«ĺéĢŁ åħ¬è·¯
èµĭ äºĪ
B u
æĺ¯ çĶ±äºİ
si dent
Ġencou ra
åľ¨ åħ¨åĽ½
ĠT a
ac tive
Ġpre fer
Ġdomin ated
Ġaccele ration
è¶ħ å¸Ĥ
Ġb io
åīį åĲİ
11 6
hi on
ĠF u
ç»Ħ è£ħ
ç®Ĺ æĺ¯
ç§ĳåŃ¦ éĻ¢
)/ (
åĳ¨åĽ´ çļĦ
Ġintegra tion
4 50
ä¸ĢçĽ´ åľ¨
ä¸¤ ä½į
ç¨³ åģ¥
åĢº æĿĥ
æĬµ è¾¾
Ġ å®ŀéªĮ
èĲ §
Ġcomp ati
Ġ{ (
åĩĢ æ°´
Ġ æ¨¡å¼ı
el ines
ç³»ç»Ł ä¸ŃçļĦ
the red
\ },\
}\ \\
æĺ¨ å¤©
çļĦ éĢŁåº¦
Ġ æ¯Ķè¾ĥ
Ġsol ving
èľ ¡
bur st
Ġre member
[ {\
Ġ è¿Ļæĺ¯
åĪ° å¹´
Ġstr ic
éĻ· åħ¥
A fter
}= (-
Ġam ounts
åĽĽå·Ŀ çľģ
åı£ èħĶ
çĭ ±
Ġpe op
mit ting
d X
m its
åįģ åŃĹ
Ġac tual
{{ {
Ġmis sion
çļĦ ä¸ŃåĽ½
å¤§ è¿ŀ
æľº åĬ¨
æİĴ åĩº
Ġreg arding
èģĮ åĬ¡
çĬ¹ å¤ª
çļĦ æµ·
åĬ¨ èį¡
ĠAfric an
Ġ çľĭ
è¦ģ æĥ³
^* _{
æĩ Ī
Ġtis sue
Ġpossi bly
Ġbir ds
nd erstanding
æ¡ ©
åħ» çĶŁ
c ross
Ġrec over
æİ§åĪ¶ åĻ¨
Ġcircu ms
Ġw inter
åĲĪ ä¼Ļ
ä¿¡ æīĺ
çİ¯ ç»ķ
16 67
Ġunder stood
éī´ äºİ
Ġtrac k
Ġlink ed
æĽ °
Ġ åİŁ
æī ģ
èĳ Ľ
) },\)
ĠP hi
æģĴ å®ļ
åıĳå¸ĥ äºĨ
da ys
åı¤ èĢģ
F S
ä¸Ģ çĶŁ
on duc
Ġshe ar
^* (\
Ġdec ades
Ġ æĸ¹éĿ¢
ou b
åħ¬ å¯ĵ
min al
çº¦ ç¿°
Ġasp ect
èĢģå¹´ äºº
y our
Ġen able
çİĩ ä¸º
ä¸Ģ åĲĮ
Ġimple mented
S r
ĠS erv
æ³¨æĦı çļĦæĺ¯
çĽ¸äºĴä½ľçĶ¨ çļĦ
Ġ æľĢåĲİ
å¤ļ äºº
éĻįä½İ äºĨ
Ġhi dden
é¹ °
Ġ æ´»åĬ¨
ä¼ł å¥ĩ
æĺĵ äºİ
åºĶçĶ¨ çļĦ
éħ¸ çĽĲ
Ġb rought
Ġme mber
i lo
åĬ¨ èĦī
éļı ä¹ĭ
èĩª è§ī
ä¸»è¦ģ æľī
Ġcoup lings
Ġcaus ing
ä¸Ĭ æĺ¯
çļĦ éĥ¨åĪĨ
Ġan nu
y ear
æĪĳ å¸Ĥ
Ġco opera
con d
ç Ģ
Ġp arent
ĠD uring
ĠE lec
ä¸ªæĢ§ åĮĸ
æĸĩ èīº
å®¡ è§Ĩ
æī¶ æĮģ
é«ĺ èĥ½
çĽ¸ è¿ŀ
æĹ¥ åľ¨
Ġdis cri
Ġchalle nging
H T
s ign
å¤ĦçĲĨ åĻ¨
Ġproced ures
è ¤
çļĦ ä¸ľè¥¿
å°Ĩ æĺ¯
11 7
Ġfi ber
14 5
30 4
12 9
æĬĢæľ¯ äººåĳĺ
cha in
Ġ æķĻèĤ²
Ġon edimensional
åıĤ çħ§
æĸ¹åĲĳ çļĦ
äºĭ çī©
Ġevalu ation
Ġcircu it
e q
Ġp ush
Ġgenera ting
æµĵ ç¼©
el ian
ä¸ĭ æ¸¸
æł¡ åĮº
èĩªçĦ¶ çļĦ
k g
æļĤ åģľ
ĠGen eral
il lion
Ġpredic tion
Ġdru g
Ġ ï¼ģ
è°ĥ è§£
åİ» äºĨ
è¿ľ ç¦»
bo ard
Ġf l
Ġe c
ä¼ģä¸ļ å®¶
Ġti ps
è·Ł çĿĢ
Ġevery thing
ĠInd ian
Ġ åħ³ç³»
)} )\
è¶ħ æĸ°æĺŁ
åĩı èĤ¥
åıł åĬł
æĺĨ æĺİ
) }}{\
Ġ åı·
Ġg over
çİī ç±³
Ġprogram ming
p ter
çİ© åħ·
G O
Ġp m
æĪĳä»¬ è®¨è®ºäºĨ
Ġ4 7
ç»ıæµİ çļĦ
åºķ éĥ¨
è§Ĥæµĭ ç»ĵæŀľ
P la
dri ven
Ġ ä¸Ńå¿ĥ
çļĦ é¡¹çĽ®
å¹´ å¼Ģå§ĭ
ine ment
Ġhu ge
Ġfer mions
è°¨ æħİ
d al
ho mology
Ġ åĪ¶
Ġ æŀģ
ig ital
å± ¿
åľĨ æ»¡
è¾ī çħĮ
Ġ ä¸ĢèĪ¬
ä¸į ä½ı
Ġinte ger
æ³¨æĦı åĪ°
inte rac
p in
Ġcon sul
fic i
Ġmetal licity
Ġreveal ed
è¿Ļ å¯¹
æĸ° æĹ¶ä»£
12 7
ä½Ļ äºº
Ġ åĽł
Ġc ris
Ġ éĿ¢
ĠA ccording
éľ ľ
é½¿ è½®
æľī æĹ¶åĢĻ
Ġm er
æķ° ç»Ħ
äº® çĤ¹
åľ¨ åĽ½åĨħ
å®¢ æľį
A ll
~ ,
Ġex tent
mal ous
Ġta il
å¾ģ æĶ¶
åĨ Ī
Ġcha nce
æľīéĻĲ è´£ä»»
å·¨ åŀĭ
~ .
Ġ åĩ½æķ°
ä½ľä¸º ä¸Ģä¸ª
è°ĥ åĳ³
el le
Ġe a
ir ical
Ġor bits
éĥ½ éľĢè¦ģ
å¤ĸ å£³
èĬ± è´¹
çĽ¸å¯¹ æĢ§
åī¯ ä¹¦è®°
æ² ¸
tic ip
è¡Įä¸º çļĦ
ä¿ĥ ä½¿
èĹ »
è¯Ĭ çĸĹ
Ġbelie ved
Ġ å®ŀçİ°
å¤§ éģĵ
16 8
é¡¶ çĤ¹
ä»·åĢ¼ è§Ĥ
g cd
p on
èģĮ ç§°
Ġcho sen
ali for
çĸ² åĬ³
ä¸ª åĪ«
æ¯Ķ åĪĨ
æ¸©åº¦ çļĦ
è¯Ĺ äºº
Ġs la
çĶµ è§£
od s
èĬ Ĵ
ç¼ĸ åĨĻ
æīİ å®ŀ
B s
ç« £
ä»ĸä»¬ åľ¨
Ġreac tions
* }
in y
æĺ¾ç¤º å±ı
Ġvari ability
æĮ¤ åİĭ
çĶ¨ èį¯
æ¸© å®¤
G A
y th
Ġ éĩįè¦ģ
Ġcon tro
è°ĥ æİ§
og onal
åĪĹ è¡¨
èĲ Į
æĢ» éĩı
éĽķ åĪ»
Ġsupers ymmetric
ä¸º åĩĨ
æĿ¥ è®¡ç®Ĺ
åĲĪ èĤ¥
ĠB er
Ġmo bile
èĮ¶ åı¶
çļĦ æķ°éĩı
ĠF i
æĭī åħĭ
èģļ åĲĪçī©
ä¿Ŀ å®Ī
åĽłä¸º å®ĥ
çĽ¸ ç»§
å¿ĥ çģµ
åıĹ çĽĬ
13 8
å¤´ éĥ¨
oci ties
ra m
å®ļ éĩı
æĸ¯ åŁº
åį³ ä¾¿
æĺ¯ æĹł
åīį æıĲ
Ġme mb
ari an
åĭ ¿
åģĩ å¦Ĥ
}^{* }(
tic ular
åįł é¢Ĩ
çĶ· ç¯®
Ġinequ ality
ç²¾ åĬĽ
äºı æįŁ
è¿Ļ è¡¨æĺİ
éĻĦ å±ŀ
Ġ åĨį
ĠO ther
the ore
r n
Ġc iti
æµıè§Ī åĻ¨
ĠJ ew
tain ing
}\, -\,
is on
è¾ĥ å¥½çļĦ
ç§¯æŀģ å¼Ģå±ķ
] )=
] \!
the ory
Ġpre gn
H I
}^{ -\
Ġcandida tes
bold math
åı¯ è¡Į
åĪ° ä½į
åıĹ ä¼¤
}\\ &
Ġmil li
Ġ å¼Ģå§ĭ
æľī æľĽ
åįĩ é«ĺ
Ġ æĸ¹å¼ı
}) ]
åıĺ éĩıçļĦ
Ġse ason
Ġhe tero
æĹ¢ çĦ¶
Ġano ma
è§£ çłģ
åıĺ ä¸º
æİ¥ åĪ°
çĽ´ æµģ
æ¯ı åĳ¨
j a
åıĳ åħī
di tions
ĠH o
Ġpla te
D es
çļĦ è§Ĵåº¦
æİ¨ è¡Į
èı Ĭ
Ġmost ly
8 333
ä¹¦ ç±į
æīĢä»¥ åľ¨
Ġwor th
æĢ§ ä»·æ¯Ķ
Ġsa ve
æİĴ æŁ¥
ä¿¡æģ¯ æĬĢæľ¯
Ġconstra int
ch ro
B i
Ġ èµ·
æĥħ èĬĤ
æķ°æį® éĽĨ
æĿ¥çľĭ çľĭ
Ġmaxi m
Ġk pc
17 0
è§Ĥ èµı
è¾ĥ å¤ļ
re lation
ä¸į åĩº
Ġn m
çłĶç©¶ ä¸Ńå¿ĥ
13 9
atter y
åĬł æ²¹
åħ» æĬ¤
Ġellip tic
Ġvor tex
Ġspher ical
å½ĵ ä»Ĭ
ç¦ ½
velop ment
çŃī æĸ¹å¼ı
th en
}) .\]
Ġas ymmetry
ç³ĸå°¿ çĹħ
ic o
åŀ Ĵ
å¹¶ è¡¨æĺİ
Ġmaintain ing
Ġb ed
Ġg alactic
24 0
Ġbro ken
E instein
æĺ¯åĲ¦ æľī
mun ity
å¢ŀ è¿Ľ
gra vity
Ġch ronic
èŁ ¹
Ġ èİ·å¾Ĺ
çķĻ åľ¨
åİ¿ çº§
Ġcirc ular
çļĦ åħ¶ä»ĸ
ĠS to
Ġj ud
ä¹ĭ æĹ¥èµ·
åĨħ æ¶µ
il ding
Ġout comes
å®¤ å¤ĸ
)| =
é¥° æ¼Ķ
ĠR iver
Ġu lti
çĶµ ç«ŀ
ĠL orentz
ç»Ļ æĪĳ
E V
13 6
o ck
åħļ æĶ¯éĥ¨
çĽ®æłĩ æĺ¯
Ġdia betes
Ġfru it
m l
ga s
Ġar ray
Ġsee k
å¤§ åľ°
pos es
æł ħ
æ°´ ç®±
ä½ł ä¼ļ
ç£ ħ
13 1
Ġorgan ic
åĮ» æ²»
ash ing
Ġ rho
th or
Ġe pi
è½ °
ough t
Ġpers pective
è¶ħ å£°æ³¢
åĩıå°ĳ äºĨ
Ġtreat ments
æĭľ ä»ģ
ç§ĺä¹¦ éķ¿
ä¼ĺ äºİ
Ġunc ertainty
ĠR ed
è¯Ħ ä¸º
è´§ è¿Ĳ
Ġsimultane ously
èĢĮ æĿ¥
Ġx y
æĥ¯ æĢ§
fact uring
ä¿¡ èªī
äº¦ ç§°
c ence
åĴ ¸
åĪĿ å¿ĥ
éĺ¿æĭī ä¼¯
åĴĮ åıĳå±ķ
æĹ¶ æ®µ
æĢģ åĬ¿
Ġar c
åİĨåı² ä¸Ĭ
E s
æĸ Į
éĽĨåĽ¢ åħ¬åı¸
èĢĲ èħĲèļĢ
çŁ¿ å±±
æĪĳä»¬ ä¹Ł
ç´¢ å¼ķ
Ġ ä»»ä½ķ
å¸ ĺ
æĦŁ çŁ¥
é©¬ æĭī
hi fts
f in
è ¤Ĳ
Ġ åħ±
éĹ¨ åı£
Ġres ol
è´¯å½» èĲ½å®ŀ
k n
ä¸Ģ æĶ¯
èĹ ¤
è·¨ å¢ĥ
æµ· å²¸
åıª ä¸įè¿ĩ
Ġsur gery
Ġre v
ĠV i
14 2
Ġadvan tages
åħ¬ æŃ£
åįķ ä½ĵ
æ¾³ éĹ¨
pho ton
æĸ¹ éĴĪ
çŀ¬ æĹ¶
Ġ ä¸»
Ġother wise
ä¸į ä¸Ģæł·
éĻ¤ éĿŀ
è´¦ åı·
æĬ ¬
Ġdetermin ation
N D
N O
ä¸º æł¸å¿ĥ
èĥ½ èĢĹ
æ®ĸ æ°ĳ
èĳ ¬
ç»ĵåĲĪ èµ·æĿ¥
Ġgu aran
P I
^ -(
çļĦ ä½ľåĵģ
å·¥ä½ľ èĢħ
ä¼ļ å½±åĵį
Ġ5 5
è¿ĲèĲ¥ åķĨ
æľ¬ ç«Ļ
ne u
Ġdi ame
M any
æľī çĶ¨
é¹ ħ
è£ģ åĪ¤
2 60
Ġ æľ¬æĸĩ
éĺĪ åĢ¼
åľ¨ è¿ĩåİ»
i u
ograph y
Ġ éĩĳ
å£ ¶
çĶ² éĨĽ
Ġm outh
æ®µ æĹ¶éĹ´
Ġclass room
çģµ éŃĤ
åĪĩå°Ķ è¥¿
er ies
åĸ Ĭ
.. ..
Ġho mes
é¢Ŀ å¤ĸçļĦ
ol y
ĠM c
Ġacade mic
Ġal ler
Ġen ab
æķ° åįģ
ç¨ ł
ĠL ab
ä¼Ĭ æĸ¯
åĨ° éĽª
å±ķçİ° åĩº
W hy
Ġ\ },
çļĦ ä¸Ĭ
æĶ¶ åıĸ
ri an
é¦ĸ æī¹
åĪ¤ åĨ³
' =\
çļĦ è®¡ç®Ĺ
çļĦ æĢ§èĥ½
se cu
Ġj ets
Ġcons titu
æ¯Ķçī¹ å¸ģ
a ign
è¿ĩ æķı
a z
a in
æĪĳä»¬ åĪ©çĶ¨
é«ĺ éĵģ
ĠAss oci
u u
is ely
èĭ į
Ġbehavi ors
æĲľç´¢ å¼ķæĵİ
f ies
çļĦ çİ°è±¡
el t
ĠO ver
Ġro ck
ç¬Ķ èĢħ
w hat
Ġ },
æĥ ¨
åı· çłģ
B T
åľ¨ æĪĳä»¬
au ti
åĽº æĢģ
å®ģ æ³¢
Ġtry ing
Ġvary ing
th rough
ĠIn ternational
Ġ çİĭ
çľģ å¸Ĥ
å¹³åı° çļĦ
a ks
Ġc ub
Ġse ed
est yle
Ġver tex
P D
å± ¡
åģ¥åº· çļĦ
Ġexten sive
ä¸º åħ¶
Ġsu fficiently
éĢĤ å®ľ
åĥ µ
Ġ å·¥ç¨ĭ
re sul
teri al
Ġuni ts
ä¼°è®¡ åĢ¼
Ġsw it
èĬ ¦
éģĵ çĲĨ
åİ ķ
å¤ļ éĩį
åħ¨ èº«
æĹ¥ ä¸ĬåįĪ
çĪ± å°Ķ
æ¦Ĥ è¿°
Ġ èĥ½éĩı
å¤į åį°
tane ous
å¤ļ äºĨ
par ticles
frac tion
æ§ Ľ
14 1
æĽ¿ æį¢
b io
æĺ¯ è¦ģ
æĪĳ è§īå¾Ĺ
ĠIns titute
a tio
n n
Ġ ç³»
nab le
åı£ æĦŁ
Ġlar g
Ġfocus ed
Ġsatelli te
Ġsurve ys
çļĦ æľĢå¤§
Ġs qu
æĪĳ éĻ¢
k o
} $
in dependent
éĢ Ŀ
çĽ ¼
æĪĳ å°±
éĥ ¡
Ġ ran
æ² ª
Ġca ts
åĨ³å®ļ äºĨ
Ġvis ible
Ġapproxi mate
ä¸į åĲ«
åħ¬ä¼Ĺ åı·
d m
æĺİ å¹´
é¢Ħ èŃ¦
å®ŀéªĮ ä¸Ń
å°¼ æĸ¯
Ġimprove ment
å¯¹ æµģ
çŃī çī¹çĤ¹
UR L
Ġ åİ»
Ġ\ #
çļĦ æīĭ
19 9
åºŁ å¼ĥ
æľī ä¸¤ä¸ª
èĢĥ éªĮ
Ġ4 9
åįķä½į çļĦ
Ġnutri ents
u ter
Ġp at
é¢Ĩ è¢ĸ
F A
Ġm m
è¯´ è¯Ŀ
vec tor
Ġout flow
èĥ½å¤Ł åľ¨
Ġengine ering
M ar
Ġf abric
æŀ ¯
çİĩ åĴĮ
éĤ£ å°±æĺ¯
200 9
æ½® æµģ
Ġmess age
çļĦ åıį
Ġb one
çĥŃ éĹ¨
åºŁ çī©
Ġfre quently
Ġmetal lic
te nds
le v
}= {
å¹¶ éĢļè¿ĩ
è¶Ĭ å¤§
Ġhapp ens
e ven
ç» Ĵ
æľī æľºä¼ļ
èı ©
c x
Ġfi x
åľŁ èĢ³
Ġ æĸĩåĮĸ
Ġn ation
è½¬ åħ¥
åīĤ éĩı
ĠCou lomb
æĹł éĶ¡
å·© åĽº
Ġ ^{-
Ġdis tor
Ġdecomp osition
w hen
Ġ å¸¸
ç§ĳåŃ¦ æĬĢæľ¯
å®ĩå®Ļ åŃ¦
Ġte lescope
æķ£ è£ħ
è°Ī åĪ¤
m ically
Ġar tificial
Ġsto re
Ġrecommend ed
æĪĳä»¬ ä¼ļ
æİ¥ åħ¥
yst als
Ġsta ges
èĮ İ
çļĦ æŃ£
it z
Ġapp lying
19 2
ĠD a
åģĩ æľŁ
Ġemploy ed
çºµ åĲĳ
Ġ åĪ©çĶ¨
åı¯ åıĺ
è°ĥ åĴĮ
è¿Ļç§į æĥħåĨµ
è¶ĬæĿ¥è¶Ĭ å¤ļçļĦ
æľī æĿĥ
çľŁ è¯ļ
Ġinter net
äº® çĽ¸
ç£ģåľº çļĦ
Ġassu me
æ²¡æľī ä»»ä½ķ
ä¸¾ æĬ¥
Ġmin or
T A
X iv
16 3
æŀĹ ä¸ļ
ĠChin ese
çŃī è¡Įä¸ļ
ac ob
ĠR ob
so ft
æĢ» åĴĮ
ä¸ĩ å¹³æĸ¹ç±³
Ġad ding
Ġocc up
çģĮ è£ħ
æīĢå¾Ĺ ç¨İ
m g
Ġp p
æł ĸ
res olution
prod uce
çķĻ åŃ¦
J u
Ġs atu
Ġhapp en
Ġdi pole
Ġdis ru
æĤ Ķ
æŀĦ ä»¶
iv es
æĢĢ çĸĳ
è±ª åįİ
M ore
ä¹ĭ ä¸Ĭ
Ġse eds
Ġsh all
Ġcap ture
å°ı ç±³
ç²ī æľ«
è¿½ æº¯
Ġ åĬ¨æĢģ
Ġ5 1
14 7
æŃ¦ åĻ¨
Ġill ness
Ġqual ita
= }
mu lation
åĮĹ ç¾İ
Ġcorrec tion
Ġtunnel ing
Ġvul ne
çĶŁ åĬ¨
å·¥ ä»¶
Ġmo tor
ç«Ļ çĤ¹
æĿĢ èıĮ
ĠA g
ĠB ar
æ³° åĽ½
è¡¨è¾¾ æĸ¹å¼ı
åŁĥ åıĬ
Ġ åĪĨå¸ĥ
Ġ= (
ĠA re
èģĶ ç»ľ
row ave
éħį æľī
æľºæŀĦ çļĦ
Ġeffici ently
ĠLa mbda
Ġ )=
over rightarrow
18 5
]= [
Ġbot tom
th ese
Ġc ite
çł Į
éĵ ¬
Ġbu y
å°Ĩ ç»§ç»Ń
ç£ Ĭ
pa ra
Ġproduc es
çªģ åıĳ
Ġcap able
æĻ®éĢļ çļĦ
; \)
}} ,\]
æł· åŃĲ
Ġoptim ization
C om
çļĦ åıĳçĶŁ
Ġc ard
ç½ ¢
éĻį æ¸©
Ġvari eties
èĲ½ åĲİ
æ¸¸æĪı çļĦ
éģŃ åĪ°
ç° §
2 30
C an
Ġ åĽ¾
Ġd m
Ġsta bili
åıĳå±ķ åĴĮ
çļĦ éķ¿
æľī åĬĽçļĦ
è´ ®
Ġpro mp
Ġno tice
e ve
åĴĮ ä¸į
ĠS an
æ¯Ķ éĩį
åį³ æĹ¶
Ġs mart
Ġh um
å¦ ®
Ġso called
18 8
æī¾ åĪ°äºĨ
F C
è¿Ļ åľº
ä¼ļ äº§çĶŁ
è¿ľ çļĦ
Ġvel ocities
åĬ Ŀ
åĢ¼å¾Ĺ ä¸Ģ
Ġi d
Ġco ding
å³ »
åıĸå¾Ĺ çļĦ
Ġins titu
æ³¨ æĺİ
Ġro ots
äºĶ å¤§
çļĩ å®¶
da ble
Ġany thing
Ġunderg o
æĺİ å¤©
å¿ł è¯ļ
æģ ¨
äºĮ æīĭ
æī¿ åĬŀ
Ġrec yc
å»ºçŃĳ éĿ¢ç§¯
Ġpul se
Ġd elta
Ġg ot
çķ ı
è¯´ æĺ¯
æ¸©åº¦ åĴĮ
å¤įæĿĤ æĢ§
Ġconfir med
Ġimpac ts
åĲĮ è¡Į
Ġ æµĭ
Ġ çİ¯å¢ĥ
Ġ ç¡®å®ļ
nc k
15 9
lic ated
éĢīæĭ© äºĨ
ator ial
Ġ åħ³äºİ
ol o
åĪĨ æĪĲ
ä½ľ æĸĩ
åı¯ä»¥ ä»İ
å¼Ģåıĳ åĮº
Ġ æĹĭè½¬
åľ¨ è¯¥
å¹¶ çĶ¨
18 2
æ²³åįĹ çľģ
for d
è¾ĥ å°ĳ
åĬ© çĲĨ
23 5
Ġspectroscop ic
j j
it ons
Ġcontin ues
ç²¾ç¡® åº¦
Ġsimp li
ï¼ļ ï¼Ī
å¾® å¼±
man s
ç¤¾ä¼ļ çļĦ
Ġown ers
æ² ¥
14 8
éĴ¢ çŃĭ
Ġ20 20
äº²åŃĲ éī´å®ļ
Ġa de
al t
Ġma pping
})= (
ä¸Ń è¶ħ
Ġconduc ted
Ġf ear
çĦ ļ
ç¾İ å¥½çļĦ
Ġpart ners
Ġcollec tive
æľį çĶ¨
åİĭ åĻ¨
Ġphoto metric
Ġpla ns
Ġ ä½ľçĶ¨
ä¸Ń åĴĮ
as ts
è¿ĺ åİŁ
Ġda ma
å®ŀçİ° çļĦ
Ġau di
æĽĿ åħī
Ġturbu lence
ä¸į ä¸Ĭ
Ġu na
}{\ |
èļ ģ
S H
S Y
åħ Ķ
23 1
i ma
åľ¨ åħ¨çĲĥ
éĿ¢ æĿ¿
éĹ¨ æ§Ľ
Ġelectric ity
å¥¥è¿Ĳ ä¼ļ
è¿ĩ å¤ļ
å¾Ĺ åĪ°çļĦ
çİ¯ æ¯Ķ
Ġw alls
ä¿¡ å¿µ
16 6
æłĩåĩĨ æ¨¡åŀĭ
pho to
æĪĳä»¬ éľĢè¦ģ
åķĨ åľº
ĠSu pp
B V
Ġ ?
å¹´ çº§
36 5
Ġstron ger
Ġp in
æ®ĭ ä½Ļ
Ġrelig ious
Ġord inary
Ġdi versity
19 0
å® °
ä¸Ģ åįĬ
éĻĲ åĢ¼
ç®¡çĲĨ åĴĮ
Ġlangu ages
æķ Ľ
ä½ľ æĪĺ
åĪ° ä¸Ģä¸ª
å°Ķ çļĦ
Ġgradi ent
Ġ æ¨¡æĭŁ
ä¸Ģæ¬¡ æĢ§
ä¸Ń çŃī
åĬł éĢŁåº¦
æĶ¯ éħį
I J
Ġas semb
çºª å¾ĭ
Ġbar rier
çİ¯ çĲĥ
Ġintroduc tion
} '(
Ġ è¥¿
è¡Į æĥħ
è®¾è®¡ åĴĮ
éĺ» æŃ¢
Ġ\({ }^{\
Ġreve als
ç»Ļ äºº
Ġ. \]
è§Ĥ åħī
14 6
man nian
Ġval id
} }^{-
Ġ èĢĥèĻĳ
Ġa ges
ä¸Ĭ å¸Ŀ
æĽ´ å¿«
å·² è¢«
Ġ5 2
Ġcho ices
b l
Ġ è¡Įä¸ļ
ĠN ot
è¾ĥ å¥½
Ġno de
V O
}} }\\
qu antum
å®¢ äºº
æµª æ¼«
ä¸įéĶĻ çļĦ
Ġ åŃ¦çĶŁ
çļĦ ä½İ
it ro
Ġspec ifically
Ġmode rate
U ni
çļĦ å¤©
at op
å¯¹ éĺµ
ĠN ow
æ°Ķ æ³¡
éĻ¢ å£«
Ġcha ins
po tential
å·²ç»ı æĪĲä¸º
Ġfil ms
Ġ åħ¥
æ°ĳ äºĭ
åľ¨ åĴĮ
ç®¡çĲĨ ç³»ç»Ł
æ¢ ¨
çĸĹ æ³ķ
ä¸ªäºº ä¿¡æģ¯
Ġmain tenance
ä¿Ŀè¯ģ éĩĳ
ä¹ĺ ä»¥
çģŃ çģ«
n p
en cies
çĻ» éĻĨ
äºĨ çļĦ
åķĨ åºĹ
æĽ²çº¿ çļĦ
Ġsuccess fully
ĠSec ond
R E
-\ ,\
éķ ģ
os sible
ç¦ ħ
An other
ĠSur vey
å¤§ åİħ
Ġre new
Ġv ast
Ġsp an
Ġinvestiga tion
Ġmagne tization
}\ }
=\ {|
Ġis nt
ten ing
åİŁåĽł æĺ¯
Ġopera ting
Ġpi ece
äºº äºĭ
ĠA ct
æľįåĬ¡ ä¸Ńå¿ĥ
B E
åĴ ¬
Ġdiff er
åĨħå®¹ çļĦ
ç¿ ł
Ġexper ts
is tency
ä¸Ń åŃĺåľ¨
è£ Ķ
}=\ {\
ran es
å°Ķ å¾·
Ġobserv ables
é¡¶ ç«¯
åłµ å¡ŀ
D D
ç²¾ èĭ±
å¾® å¾®
èĤ ļ
15 2
ç»¼åĲĪ æĢ§
æ·ĺ å®Ŀ
ĠCana da
åıĬ ä»¥ä¸Ĭ
å¥ĸ é¡¹
éĺ» çĩĥ
è°¢ è°¢
æĿ¥æºĲ äºİ
Ġ åıį
å¹´ ä»¥æĿ¥
æĸ° é¢ĸ
çĲĥ åľº
\, ,\
å®ĥ åı¯ä»¥
æŃ¥ ä¼Ĳ
æĿĥ çļĦ
å¤ª ç©º
Ġsub set
æ¶² æĻ¶
çŃ¾ åĲį
åįĹ åĮĹ
åįĹ å®ģ
15 1
çŁ³ åĮĸ
Ġ\([ -\
ä¸ ¸
Ġis ot
æĤ Ħ
Ġpo sitions
x e
åĪĨ çº§
ĠRe v
çıł å®Ŀ
Ġcan t
16 5
é¦ĸ ä¸ª
ren ts
] [
tu p
15 7
çļĦ èĩª
Ġs tories
å°± åĮ»
å¿ħé¡» è¦ģ
å±ĭ é¡¶
èµļ éĴ±
åĳ¨ æľ«
Ġ çº¦
çļĦ ä¼ĺåĬ¿
|= |
Ġkeep ing
èī° éļ¾
Ġa id
ul arities
era tion
æł¸ æŁ¥
17 5
Ġ æııè¿°
is en
Ġw el
åıĳ åĶ®
å·¥ åºı
åĲĮ ä¸Ģä¸ª
éĻ¤ å¤ĸ
Ġinter val
}] =\
ĠAu g
P N
our ces
tribu tion
Ġteach er
Ġdecre ases
G u
åħī æºĲ
Ġter ri
ä¼´ éļıçĿĢ
Ġevent ually
åīį æĿ¥
éĴ¢ æĿĲ
Ġbi ological
C L
äºº å¿ĥ
æķĪ åĬĽ
éĢł ä»·
æīĭ è¡¨
raph ic
y e
Ġe cos
Ġmod ules
éĺ² å¾¡
åĿĩ åı¯
Ġro tating
Ġhelp ing
Ġge ts
åľŁèĢ³ åħ¶
Ġo ral
å· ·
æĬ Ħ
éª¨ å¹²
Ġamp li
å°ı åŃ©
å¤ĦçĲĨ çļĦ
èĳ£äºĭ ä¼ļ
Ġc redit
èĢħ åĴĮ
è°ĥ çĶ¨
ĠV ir
chi ld
æŀģ å¤§çļĦ
æĸ¹ åĿĹ
Ġma ni
æľŁ åĨħ
ç¬¬ä¸Ģ æĹ¶éĹ´
Ġinter fer
ç¨Ģ éĩĬ
Ġacces sible
en cing
ç¬¬ åħ«
åİŁ åĲį
Ġfore st
ju ga
15 4
14 9
p ower
Ġsta ff
ora ry
2 25
Ġ ~~
åºĨ ç¥Ŀ
äºĭåĬ¡ æīĢ
M T
ti tive
Ġin ho
çĶŁ èĤ²
Ġrepres ented
éģŃ åıĹ
Ġ æĸ¯
Ġph y
é£Łåĵģ å®īåħ¨
äº¤éĢļ è¿Ĳè¾ĵ
Ġatta cks
Ġmat ch
s ti
w ood
å¾Ĺ åĩºäºĨ
åīį éĿ¢
å·ŀ çļĦ
åĥı ç´ł
çİĭ åĽ½
it zer
ä¹ĭ éĻħ
Ġlo ad
èĦļ æīĭ
æĹ ±
ä»İ æľª
00 1
16 9
Ġhab ita
éĺ² å®Ī
èĻļ åģĩ
Ġna med
ä¸Ģ éĥ¨
æīĭ ä¸Ń
Ġpar tition
çļĦ æµĭéĩı
æĪĳ ä¼ļ
å¢ ħ
åĽº åĮĸ
Ġcri teria
åħļå§Ķ ä¹¦è®°
åįķ çº¯
åĨ³ å¿ĥ
Ġ ç¾İåĽ½
å¯¹ æĬĹ
æĦŁ æģ©
åĮ» ä¿Ŀ
è¯ķ åīĤ
çĵ £
è½¬åŀĭ åįĩçº§
å¿ĺ è®°
Ġsplit ting
Ġd ental
åĲİ åį«
å®Į æ¯ķ
åıĪ æľī
ĠS ystem
åıĬ çĽ¸åħ³
Ġsp here
Ġdes tro
Ġpolic ies
- {
ĠD u
Ġexp ect
çĲĨè®º ä¸Ĭ
" .
Ġs ch
çĶµ æ¢¯
Ġpol ym
Ġlog arith
çļĦ åħīè°±
å°Ķ å¤«
ç´ł åħ»
18 4
23 4
èµĭ èĥ½
é¡ ½
éĶ ¯
çĶµè§Ĩ åı°
åŁºçĿ£ æķĻ
Ġ mathbb
ti se
is tence
Ġcha nged
å¡ĳ èĥ¶
åĳĪçİ° åĩº
Ġlands cape
ä»İ æĿ¥
M I
n j
Ġa vera
åĩ ¹
ĠS ep
ä¼ł å¯¼
æ³¨ å°Ħ
æľīåħ³ è§Ħå®ļ
Ġevolution ary
çĤ¹ åĴĮ
Ġopp osite
Ġfail ure
ell s
ç«ĭ åĪ»
15 8
f old
çİ° å·²
Ġinc ome
15 3
çīµ å¤´
Ġrec ur
es us
Ġb en
)) +
Ġcogni tive
å¤į åħ´
15 5
ä¹° åįĸ
åıĳå¸ĥ ä¼ļ
è§£ æĶ¾
ä¸ĩ ç¾İåħĥ
åĽ° æī°
Ġweak ly
ĠD ec
åĻ¨ æ¢°
ä¼ĺ éĽħ
Ġlocal ized
Ġquad ratic
T u
æĦŁ åĬ¨
çĶµ å¼§
ĠH ilbert
ç¦» ä¸įå¼Ģ
çģ¯ åħī
çŁ® æĺŁ
Ġano malous
Ġhypo thesis
Ġ ä¹ĭéĹ´
åľ¨ æŁĲäºĽ
åı¯ä»¥ æł¹æį®
çĶ· å¥³
åįłåľ° éĿ¢ç§¯
åħ¬ åĪĨ
æīĢ è¿°
Ġla test
æł¸ å®ŀ
ï¼ į
ĠC alifor
Ġas suming
çī¹ ç§į
Ġk id
Ġ6 4
Ġprima rily
Ġcat alog
Ġencou rage
Ġdis orders
16 2
éĻĲåĪ¶ çļĦ
S I
Ġ æĸ°çļĦ
Ġ å¯¼èĩ´
ä¸Ń éĥ¨
Ġcol lapse
Ġinteres ted
Ġ æĭī
ä»¥ åħ¶
ä¸ĭ ä¸Ģä¸ª
+\ |
Ġle tter
ç³»ç»Ł åĴĮ
ĠO nce
åĨį åĬłä¸Ĭ
Ġcol li
ĠUni verse
Ġresp ond
Ġmil itary
è¯¸ å¦Ĥ
Ġ æķ°åŃĹ
Ġn avig
\, +\,\
çĥŃ çĪ±
è¶ħ åĩº
æĹ© ä¸Ĭ
éĹ» åĲį
sur face
æķ ·
å°ĳ éĩı
ä¸¥ è°¨
çī©è´¨ çļĦ
Ġvi bra
Ġkin ds
èµ Ĳ
ç®¡çĲĨ äººåĳĺ
Ġplay ers
Ġu nu
qu ality
æľĢ æĸ°çļĦ
åħĪ åīįçļĦ
çģ« è½¦
å¡ĳ éĢł
æ²Ī éĺ³
3 000
æĹł ç¼Ŀ
åĽłæŃ¤ åľ¨
ill ing
åĨ¬ å¤©
Ġ å¼ł
é© ³
Ġca u
ä¹ħ çļĦ
Ġread y
ĠLa grangian
çĶ¨ ä»¥
Ġh on
lec tion
rec t
ĠW ater
åºĶ åľ¨
åĮº åĨħ
ç¾İ åĳ³
çĹħ åĽł
å¼Ģåıĳ äºĨ
å¯¹ é½Ĳ
do or
å¹¶ ä¸º
éĤ ª
17 6
æķ£ æķ£
éĥ¨éĹ¨ çļĦ
é¾Ļ æ±Ł
åĿĲ èĲ½
Ġ å¢ŀéķ¿
åŃĺ æĶ¾
Ġ5 6
Ġtop ology
func tions
s l
ĠB ose
åĸľæ¬¢ çļĦ
æ²ī ç§¯
èĢĮ å·²
Ġ ç£ģ
è¯Ń æĸĩ
æ¼Ķ è¿Ľ
tuna tely
å°± éľĢè¦ģ
Ġsp ring
è¡¨çİ° ä¸º
äºº å¤§
su es
èģĶåĲĪ åĽ½
æĩĤ å¾Ĺ
p ace
Ġ ic
20 4
Ġtr ust
Ġ åŁºæľ¬
on y
åĩ ¶
an ted
15 6
Ġtra jec
èģĮä¸ļ æķĻèĤ²
ç®¡çĲĨ å·¥ä½ľ
çĬ¶æĢģ ä¸ĭ
ä¹ĺ åĿĲ
Ġincreasing ly
Ġpollu tion
Ġma l
Ġk m
)} |
ç«ĭ çļĦ
Ġreal ized
Ġexci tations
ra in
28 0
m x
åħī çİ¯
éĩįè¦ģ ä½ľçĶ¨
çīĩ çļĦ
æĶ¿çŃĸ çļĦ
èŃ¦ å¯Ł
f ted
ä¸Ģ äºº
Ġg r
\\ &=\
éĢī è´Ń
L R
ä¹ Ĵ
N ow
Ġ çī¹æĢ§
ä¹Ł ä¸º
ä¸ºå®¢æĪ· æıĲä¾Ľ
è® ¶
18 6
Ġexperi enced
Ġt um
åħĥ çļĦ
Ġmodu li
n an
ĠW est
Ġver tices
å¥¶ èĮ¶
Ġ ç»´
ä¸į å½ĵ
åıĭ å¥½
Ġå¹´ æľĪæĹ¥
ä¾Ľ æ°´
æĨ ¾
5 000
æĹ Ń
ä¸į åıĬ
Ġre volution
è¿Ļ å®¶
ä¼ļ è¢«
min ous
æĢİä¹Ī æł·
åľ¨æľ¬æĸĩ ä¸Ń
17 4
åĨľ èį¯
Ġ ly
é¢ĺ æĿĲ
çģ« ç®Ń
éĽĨåĽ¢ æľīéĻĲåħ¬åı¸
Ġsupp orts
Ġrenor malization
åħ¨ æ°ĳ
å¾Ī éĩįè¦ģ
Ġdo mains
sing le
Ġdetec tors
æĺ¾å¾® éķľ
Ġ çĲĨ
æµģ æ°´
æł¼ æĸ¯
Ġ5 4
éħĴ ç²¾
èĦ± ç¦»
Ġform ing
m ers
ç«Ł çĦ¶
Ġt race
ä¸Ĭ çıŃ
çĹ Ĵ
äº¤ æĽ¿
19 8
Ġaware ness
ä¸Ģä¸ª æľĪ
æīĢ å±ŀ
ç±» æ¯Ķ
éĽĨ è£ħ
æ´Ĺ è¡£
æĲŃ è½½
M AP
s he
ä¸Ģ è½®
ä¸ī æĺŁ
æİ¨ å¯¼
Ġsa w
é² į
Ġapproxi ma
é«ĺ å±Ĥ
Ġdo cument
d B
w ri
æĪĳä»¬ è°ĥæŁ¥
ĠP r
æĸĩ æĹħ
æľįåĬ¡ ä¸ļ
åħ¶ä»ĸ çļĦ
Ġ ç»ı
Ġ æģĴæĺŁ
ä¸į äºĪ
çľĭ åĪ°äºĨ
æĬ½ æł·
é«ĺæķĪ çļĦ
è£ ¹
for ward
19 5
Ġcompa rable
^+ _
æ¢ħ è¥¿
æłĳ æľ¨
Ġ éĺ¶æ®µ
åĮ Ļ
åı¯ è§Ĩ
éĩı åĴĮ
ä½ĵ éĩį
æĪĺ å½¹
æ¿Ģ æ´»
ĠEn ergy
Ġinj ury
3 75
Ġas ked
ä¿Ŀ å¯Ĩ
è± «
çļĦäºº çĶŁ
éĤ® æĶ¿
Ġlik elihood
Ġe ta
Ġbab y
å®¶ çĶ¨
Ġ6 5
Ġho sp
åĬ³ åĬ¡
Ġcl ouds
si zed
äº§ä¸ļ çļĦ
çģµ æķı
åħ¬åĬ¡ åĳĺ
åľ¨ æĪĳ
22 8
Ġ mathcal
ç¹ģ èį£
è¥¿åħĥåīį å¹´
çļĦ æĹĭè½¬
ma tics
ĠH el
è¾¹çķĮ æĿ¡ä»¶
æĿ ł
å¹³ åĿ¦
æ¸©åº¦ ä¸ĭ
Ġ )^{
æĻ ´
åħī æĿŁ
Ġpri me
çī¢ åĽº
z s
ran ts
å§ĵ åĲį
ä¸º ä¸ŃåĽ½
æİ¨ åĩºçļĦ
å¤§ åİ¦
å®ĩå®Ļ å°Ħçº¿
ä½¿æĪĳä»¬ èĥ½å¤Ł
ĠU nder
am ily
}}&{{ }=
ç»ıåİĨ äºĨ
' )^
èĢĮ åĩº
æľįåĬ¡ å¹³åı°
teri on
k k
å±± èĦī
äº² èĩª
æĹ¥å¸¸ çĶŁæ´»
Ġn ative
åı¯ è°ĵ
Ġex tin
ä½Ĩ ä»ĸ
lec tic
Ġdia grams
ä½¿çĶ¨ èĢħ
A ccording
p an
Ġto ur
Ġdru gs
v or
Ġ ç¤º
æĶ¿åºľ ä¿¡æģ¯
åįł çĶ¨
éĤ® ç®±
Ġregular ly
y x
at ric
ĠC u
çĽ¸ å®¹
17 7
å»ºè®¾ é¡¹çĽ®
ç»ıæµİ ç¤¾ä¼ļ
çļĦ éĩį
å¯¹ è§Ĵ
ĠS ub
}{ }_{
li ance
åĻ¨ å®ĺ
çİ¯ æ°§
è§Ĵ éĢĲ
çĨ ¬
lass ical
o ti
å°Ķ çī¹
S W
}) ,\]
\{ (
ä»Ĭ å¹´çļĦ
28 6
Ġfrac tional
åĢ¡ å¯¼
A b
Ġ åľº
æĪĳ ä¹Ł
ble m
èµ· çĿĢ
æºĲ å¤´
Ġvio lation
Ġplat form
çī ²
æŀ £
od d
æł¡ åıĭ
å±± å¸Ĥ
åºĶçĶ¨ åĪ°
æ´Ĺ æ¶¤
çİ ²
st ream
it o
ç« ĸ
16 1
åĿļ åĽº
Ġdirec tions
Ġexpla nation
Ġ è°ĥæŁ¥
Ġpro jective
çĽ¸åħ³ æĢ§
èĢĲ å¿ĥ
ste ad
é¢ģ åıĳ
}}&{ {\
ri or
Ġdes pite
Ġnon zero
Ġpur poses
çģŃ ç»Ŀ
Ġanisot ropic
Ġdetermin ing
)! }
in dows
ti m
Ġcomp ounds
Ġcons tants
è¿ŀç»Ń çļĦ
Ġidenti fication
Ġfeel ing
è©¹ å§Ĩæĸ¯
Ġ ä¸ĸçķĮ
qu ilibrium
è°ĥ åº¦
å¤± ä¸ļ
çıŃ çº§
Ġtri ang
omorph ism
ä¸§ å¤±
scripts tyle
d S
Ġ è½¬
Ġco ok
è¾ĥ å¼ºçļĦ
ant ly
åĥı æĺ¯
è§¦ åıĳ
é»ĳèī² ç´ł
Ġk ms
æķĻ åłĤ
èĢĲ çĶ¨
æıĲä¾ĽäºĨ ä¸Ģä¸ª
Ġmeasu ring
ĠMark ov
Ġ round
ä¸º ä¸Ńå¿ĥ
è¡Į ç¨ĭ
è¯¥ æĸ¹æ³ķ
Ġmas ter
ä¸Ī å¤«
g r
u si
æ¼Ķ å¥ı
Ġfil ter
çļĦåīį æıĲ
i ft
ä¸į å¿ħ
åı¯ä»¥ è®©
åĪĨæŀĲ åĴĮ
S E
çī© æµ¦
ĠP en
éľ ŀ
è¯¥ é¡¹çĽ®
ä¼ĺ è¶Ĭ
æ·»åĬł åīĤ
ĠAfric a
i int
l Vert
åĴ ³
Ġ= -\
åı¯ åĪĨä¸º
Ġ5 3
å¤§å®¶ çļĦ
B B
ä¸» åĬĽ
20 5
æĸ¹ç¨ĭ çļĦ
Ġ äºĶ
ä»ħ æ¬¡
Ġbo ard
åģı åĲĳ
Ġ äºļ
ç®¡çĲĨ å±Ģ
Ġ é©¬
ĠG Hz
Ġconcer ning
ĠOb serv
T a
çļĦ é£İ
ä» ĩ
ha d
çĥŃ çĥĪ
19 4
çľŁ æĺ¯
ma ch
ç¤¾ ä¿Ŀ
Ġattemp t
uc lide
å¾® éĩı
Ġabsolu te
2 11
w ho
Ġco vered
å°Ĩ ä»¥
are st
é£Ł æĿĲ
èĶ ĵ
+ }
å¾Ĺ çŁ¥
æŃ£ äº¤
17 9
Ġprep ared
M on
ä¸Ģ å¼Ģå§ĭ
çĭ Ĳ
ç®Ģ æ´ģ
ä¿® å»º
éĶĢåĶ® é¢Ŀ
}) ,\)
å·² å®ĮæĪĲ
}\, (
çĽĳ å¯Ł
l arge
Ġ çİĩ
çļĦ éĩıåŃĲ
åħ³ æĢĢ
ĠL arge
ç»´ äºļ
è§ģ åĪ°
30 8
æİ¨ åĩºäºĨ
å¾® ç²Ĵ
æĢİä¹Ī åĬŀ
Ġfav or
Ġd c
åıĳå±ķ è¶ĭåĬ¿
åıĭ è°Ĭ
æ¶² æĢģ
Ġreach ed
{ $
Ġ ç§°
tec tion
ä¹ĭ åĨħ
Ġpe ace
ose ph
çº¯ ç²¹
Ġcharacteri zation
Ġ å¢ŀåĬł
el o
æľĢ åħ·
Ġl igh
Ġth i
å±Ģ éĻĲ
45 6
é¥Ń åºĹ
ç³ Ļ
ĠEduc ation
èį§ åħī
s ho
èĸ Ľ
p rin
åĸ Ģ
éĻ· éĺ±
Ġsupernov a
é»ĺ è®¤
Ġtre nds
6 25
Ġ æīĢä»¥
å¤ĩ åıĹ
Ġop in
Ġiso lated
æ¯Ķè¾ĥ äºĨ
è§¦ æĳ¸
Ġdig es
^{( -
17 2
ob serv
Ġimmediate ly
Ġinstru ment
Ġ çĶŁæ´»
è° ľ
æľĢ é«ĺçļĦ
ä¸¤ ä¾§
æŃ¥ è¡Į
éĿŀå¸¸ éĩįè¦ģ
åıĪ æĺ¯
com ing
æķıæĦŁ åº¦
2 33
åħ¥ ä¾µ
Ġle pton
ach ing
åī§ éĻ¢
] ,\)
ç³ Ł
_* (
ta ct
Ġb illion
ro b
Ġor dered
çĭ Ħ
Ġ7 5
æ¹ Ľ
åıĪ ç§°
å¼ĺ æī¬
h ich
çĶ¨ å¿ĥ
Ġ( ,
å¤ļ è¾¾
å¾® åŀĭ
ple t
Ġcorrespon ds
Ġs q
è¡¨ è¿°
Ġsc an
V R
c la
Ġ5 9
ç»ĵæŀĦ åĴĮ
åĨł çĬ¶
^{+ }(
Ġclin ical
çļĦ ä¸ĸçķĮ
Ġf ederal
åŃ¦ éĩĳ
äºĭ å®ľ
éĩĮ ç¨ĭ
çŁŃ çļĦ
Ġexpon ent
Ġ å¸ĥ
ĠT c
åĮĸ çī©
nu ll
åħ± å»º
åĪĿ çº§
çĽ®çļĦ åľ°
}~ \
Ġdatab ase
Ġon going
åĲİ åĨį
å¤ĸ æ±ĩ
æľĢä½³ çļĦ
ils on
Ġmention ed
Ġintellig ence
nd ra
Ġcon t
äººåı£ çº¦
çĥŃ çļĦ
Ġ| |
ç¾¤ å²Ľ
æĹ© å°±
çŁŃ è§Ĩé¢ĳ
\|=\ |
åįģ ä¸ĥ
Ġbu d
or dered
ng s
çľĭ åĪ°çļĦ
èĵĦ çĶµæ±ł
Ġhtt ps
Ġ å¹¶ä¸Ķ
æĺ¯ ä¸º
end s
åĬ¨ æľº
è´Ł éĿ¢
æĮī éĴ®
P H
}} ,\)
èĮ Ħ
è¿ĻéĩĮ çļĦ
Ġessential ly
c in
d ig
æ½ Ń
åĩĨç¡® çļĦ
Ġcolum n
}= [
ĠC ount
ä¸ĵ è¾ĳ
ä»¥ä¸Ĭ å°±æĺ¯
Ġgrow n
Ġsymme tries
åĵģ è´¨çļĦ
17 1
lor ing
+ -
Ġb ond
åľ° å¹³
çª ĳ
æĻ® åĭĴ
å¤§åŃ¦ çļĦ
éĵ¸ éĢł
ä¸Ģ ä¸ĸ
åĪĨ å¼Ģ
li k
ç©º ä¸Ń
we ight
äºĳ è®¡ç®Ĺ
æ³¨æĦı äºĭé¡¹
Ġcons isting
èª ĵ
Ġb orn
èĳ¡èĲĦ çīĻ
u min
åĴĮ ä¸Ģä¸ª
ca se
ç§Ł éĩĳ
æ®ĭ çĸ¾
Ġ !
çļĦ åĲĦç§į
ä¸Ģ åĳ¨
ab c
é¢Ĩ åıĸ
äºĨ è®¸å¤ļ
åĸ ī
col og
èĮĥåĽ´ åĨħçļĦ
Ġb attery
lo re
éĢļè¿ĩ ä½¿çĶ¨
ora tion
æĪĳä»¬çļĦ æĸ¹æ³ķ
æ´¾ åĩº
ĠAmeric ans
roscop ic
Ġ ä¸įæĺ¯
Ġre min
ab i
è¶Ĭ é«ĺ
Ġsha pes
çļĦ å¼Ģ
å®ļ ä»·
æ¨ ±
æĬĬ å®ĥ
:=\ {
Ġbound aries
æĥĬ è®¶
Ġ æľº
Ġ ï¼Ī
åĳ½ åĲį
èģĶç³» èµ·æĿ¥
Ġ å®īåħ¨
ä¸į åĪ©
ab atic
æ¸ħ åįİ
27 2
æľīéĻĲè´£ä»» åħ¬åı¸
åľ° åŁŁ
ä»İ å°ı
Ġdis pla
æ³¢ æĿŁ
æ·± çļĦ
Ġ å¯Ĩåº¦
ĠS y
æķ´ é¡¿
ä¹¦ åĨĻ
èŃ¦ åĳĬ
Ġhor mon
çļĦ çī¹å¾ģ
å¤§ å°ıçļĦ
åĩº èī²
çŃī å·¥ä½ľ
äºĮ åħĥ
åĮ»éĻ¢ çļĦ
ä¾Ŀèµĸ äºİ
) ]\
çĲ ¼
22 1
^{+ }\
åĨĴ éĻ©
w ord
ä¸Ģ åº§
ĠF ourier
æ¨¡ ä»¿
é»ĳ æļĹ
Ġ å¼º
18 3
éĺ¿ æł¹
Ġmedic ine
Ġmes on
åĲ» åĲĪ
çļĦ æľĢä½³
éĥ¨ éĺŁ
åĨ³ å®ļçļĦ
Ġvis co
åľ¨ ä¸¤ä¸ª
ĠGo ogle
æľĢ æľī
di an
\[ (
P re
Ġ\ ;\
Ġelement ary
Ġinvest ment
èĦļæīĭ æŀ¶
ä¸Ģ åĿĹ
æľī èī²
ç´ Ĭ
æµ· åħ³
our nal
23 2
èĴ ĭ
Ġrefer red
ä½į ç´ł
ä¸įåĲĮ äºİ
22 7
çļĦ åŃ¦ä¹ł
ä¸Ģ å±Ĥ
æĦ ģ
æĶ¶ å½ķ
ä¸į ç¬¦åĲĪ
Ġg rid
æĸ° ä¸Ģä»£
ca st
åĤ¨ èĥ½
æĴŀ åĩ»
Ġwr ong
\, |\,
åĩĨ åĪĻ
Ġz one
æĺ¾ç¤º äºĨ
å« ģ
m c
\, {\
ä¹ĺ å®¢
. (
C ol
M c
çļĦ é£İéĻ©
åĨħ èĴĻåı¤
çº¢å¤ĸ çº¿
C e
Ġv ess
ä¸įä»ħ æĺ¯
g ene
Ġ å¯¹ç§°
ä¹Ł ä¸įæĺ¯
æĽ´ æĶ¹
pe ak
ä¾Ŀ æ¬¡
éĺ» ç¢į
Ġdep ression
D NA
çļĦ åĩ½æķ°
ä¸Ń åı¯ä»¥
ou nced
it ors
åĪ© çī©æµ¦
ĠN et
æķĻ å®¤
Ġ5 7
17 8
æ¯ıä¸Ģ ä½į
? -
li an
æ¶Ī æķ£
Ġassess ment
o ted
æĦı å¿Ĺ
Ġwor lds
åĲĥ é¥Ń
e ak
Ġ å¦Ĥä½ķ
å¯¹ æĪĳ
åħ¨ èĩªåĬ¨
17 3
^+ }
Ġtop ics
åİĭç¼© æľº
æŀ¢ çº½
çļĦ è¡¨çİ°
å§ ļ
lec ted
}| _{\
ä¹ĭä¸Ģ çļĦ
Ġquanti tative
) ]=
j l
Ġde formation
çĶµè§Ĩ åī§
æµģåĬ¨ æĢ§
ä¸Ļ çĥ¯
åħ± è¯Ĩ
Ġsuperconduc tivity
åĳ Ģ
ç¦» å©ļ
æ²» æĦĪ
å¸® æī¶
Ġconduc tivity
Ġarg uments
Ġsh aring
ä¼¯ çī¹
Ġthous ands
å ļ
the less
Ġcla im
åĳĺå·¥ çļĦ
åħħåĪĨ åĪ©çĶ¨
ä¼Ł å¤§çļĦ
ç¾İä¸½ çļĦ
Ġ èĻ½çĦ¶
åĪĿ ä¸Ń
reduc ible
R F
j m
Ġ( ).
å¾Ī å°ı
è·¯ éĿ¢
45 5
å²Ľ å±¿
Ġsetting s
åĴĮ å°ı
Ġreson ances
æ¹ĸåįĹ çľģ
Ġprincip al
Ġs it
* }\)
æĪĳä»¬ æīĢ
ä»ĸ è¿ĺ
åħ±äº§ åħļ
^{ {\
æĢ ĸ
å¤ľ éĹ´
2 67
3 48
h d
Ġ å¿ĥ
Ġ ä¸ĬçļĦ
åľ¨ åĮĹäº¬
å¸Ĥ éķ¿
çİĭ æľĿ
åįĥ çĵ¦
ä»¥ä¸ĭ çļĦ
Ġcondens ate
Ġa ims
Ġe ight
20 8
åħ± èµ¢
Ġlow est
ç¤¼ çī©
d der
g ment
è¿Ļ æĿ¡
æ± ª
å®¶ ä¸Ń
æĹ¶éĹ´ ä¸º
Ġrep orts
å®¢æĪ· ç«¯
ç´§ ç´§
Ġbrief ly
ãĢĤ ãĢĲ
åĪ ¹
çľĭ æ³ķ
18 1
imp lies
æĴ° åĨĻ
é©¬æĿ¥ è¥¿äºļ
L D
Ġr ings
èī² ç´ł
16 4
Ġar ising
çĦ¦ èĻĳ
Ġw ent
åı¯ä»¥ è¢«
20 3
è¿ĺ åı¯
Ġli es
P U
Ġ åĲĦç§į
19 7
å¦Ĥ åĲĮ
ĠTh rough
å¤į åıĳ
Ġd ot
ä¸ĭ æĸ¹
æĽ´ è¿Ľä¸ĢæŃ¥
na mical
è®© ä»ĸä»¬
18 9
æĺ¾ç¤º åľ¨
é«ĺåº¦ éĩįè§Ĩ
Ġ tic
Ġst ream
çİ¯å¢ĥ ä¸ĭ
ä¸į åģľ
Ġex tends
è¥¿ æł¼
çķĮ å®ļ
19 1
åħ» æĪĲ
çŁ¿ çī©
å®Įç¾İ çļĦ
åĴĮ æĹł
ä¸º ä½ł
bre ve
Ġpropor tional
Ġ éĤ£ä¹Ī
Ġin v
æĮ ª
Ġcon vers
}) )\
Ġinf ections
w orld
Ġdes ired
27 5
éĨ ĭ
æ¶¨ å¹ħ
Ġ æĢģ
ä¸Ģ åı°
ä»Ģä¹Ī æł·çļĦ
èĳ¡èĲĦ éħĴ
Ġcategor ies
Ġcommer cial
çĶµ èĥ½
mis try
M g
å¤§ æī¹
åıĺ åĬ¨
Ġhyper bolic
Ġsatisf y
Ġ( .)
Ġbe a
èī ĩ
æĸ¯ åį¡
ç»ĵæŀľ è¡¨æĺİ
ĠPo isson
Ġspe ech
è®° ä½ı
Ġemp irical
Ġhand le
Ġcover ing
Ġsamp ling
Ġ å¤ĦçĲĨ
Ġ éĻĲåĪ¶
Ġ5 8
åı¶ çīĩ
æĸ¹æ³ķ æĿ¥
Ġnon commu
Ġtemp oral
çīĽ å¥¶
Ġsign ature
åľ¨ ä½İ
æ¸ Ŀ
èħ ķ
ä¹¡æĿĳ æĮ¯åħ´
S to
ç§į ç§į
Ġwell known
_{+ }
Ġinterpre ted
varian ce
æĭīæł¼ æľĹ
éĺ¿æł¹ å»·
Ġbe auti
25 3
å½±åĵį çļĦ
Ġexpla ins
G en
åĪ© æģ¯
ous tic
äºī å¤º
åĲ¸å¼ķ åĬĽ
4 29
é«ĺ åİŁ
å®ļä¹ī ä¸º
Ġconn ect
3 40
f its
Ġre produce
as te
å¤ĸ ç§ĳ
åķĨ ä¼ļ
Ġac ts
æĿ° åĩº
uclide an
R ec
ro magne
åĴĮ å¤ļ
as tern
di al
19 6
æĵįä½ľ èĢħ
Ġ20 21
ita tions
Ġreflec tion
Ġ èĥ½åĬĽ
th al
ä¹Ł æ²¡
çļĦä¸Ģ åĪĩ
æŃĮ æīĭ
3 29
le st
ä¸º çĶ¨æĪ·
ĠI II
20 6
ä¹Ĳ è¶£
Ġcol our
Ġ åĩºçİ°
Ġre in
éĩį åıł
di a
è§Ħ ç«ł
æ¢³ çĲĨ
ç«£ å·¥
},\ ,\
çª ĥ
a mples
ra tor
Ġf al
ĠY ang
Al though
åĩº åħ·
Ġtrans formations
r Vert
Ġ æĿ¡ä»¶
ab il
å¤į èĭı
æıĲåįĩ äºĨ
é¹ ¤
Ġenhance ment
Ġ åĲĪä½ľ
he alth
åıĺå¼Ĥ æĢ§
Ġ è´¨
ma nif
æĮ ½
æľĢ éĩįè¦ģ
Ġdis sip
èµ° åĩº
Ġ tit
ä¸Ģ æĸ¹
åĪ« å¢ħ
Ġsupp orting
èĪĴ æľį
tri but
çĶŁäº§ åĴĮ
Ġga te
åĩĿ ç»ĵ
æĢĢ åŃķ
3 28
çļĦ åħ·ä½ĵ
æŀģ æŀģ
èģĶåĲĪ ä¼ļ
i us
u te
ä¸į ä¸Ģå®ļ
ĠM arch
ĠB ur
æĤ¨ åı¯ä»¥
Ġcou n
reed imensional
Ġvehic le
Ġthermody namic
åĢ¼å¾Ĺä¸Ģ æıĲ
b ers
Ġg ir
pri l
Ġcomp ound
åŃĺåľ¨ äºİ
Ġindust rial
éĴ» çŁ³
Ġ ç¬¬äºĮ
Ġm ir
ç¼º å¤±
å®ĺ åĳĺ
æ¯« æĹł
itu d
a sion
å¼ Ĭ
çĲĥ ä½ĵ
26 5
Ġhelp ful
æ³Ħ æ¼ı
Ġtre nd
Ġcollabora tion
}, }\\
et ing
éĹ¨ ç¥¨
)) }\
38 0
ç»ı çºª
è®¡ æķ°
éľĢæ±Ĥ çļĦ
è¿İ æİ¥
ç§ģ åĭŁ
å¼Ģ éĢļ
åīį èĢħ
å®ī ç½®
å®³ æĢķ
ç²ī ç¢İ
ĠJu ne
Ġprofession als
Ġmicroscop ic
ä¾§éĩį äºİ
æĭ ¾
æĺ¯ä¸Ģ æ¬¾
æĹ¶ æľº
Ġfin ally
Ġima gin
ä¼Ł å¤§
R C
Ġ åĮºåŁŁ
æĬĢæľ¯ åĪĽæĸ°
27 3
æĬµ æĬ¼
Ġextrac t
Ġrecon struc
Ġprote ins
e en
Ġ åħ¨çĲĥ
Ġo mega
åĴ ½
Ġm ys
å¸¦ çļĦ
Ġun stable
Ġremo ved
a a
Ġ è®¾å¤ĩ
Ġp al
æİĴ è¡Į
Ġtra in
å½¢ å®¹
åĨį è¡Į
18 7
Ġ æĬķèµĦ
æĺ¯ åı¯
ä¼ļ å±ķ
è¢« åĬ¨
Ġno thing
åıĳçĶµ æľº
Ġeg gs
3 47
ä¸Ń ä»ĭ
æĸ¹ åı¯
ach es
mo ment
Ġproduc ing
Ġfer romagnetic
Ġpu mp
Ġ }=
Ġexp osed
Ġref ers
Ġharm ful
a ff
ti ous
ä¹Ĳ åĽŃ
Ġhea vi
S c
Ġ éĩĩçĶ¨
Ġs tic
ä¸į å®ľ
Ġg old
ĠA ir
åĲĳ åīį
ç¡® ç«ĭ
22 6
å¼Ģå±ķ äºĨ
Ġinvarian ts
èĲĿ åįľ
T c
åľ¨ ä»ĸ
el ing
æ°´ éĩı
ä¸ī çº§
éĩĳ åĪļ
Ġselec t
åĶ¯ä¸Ģ çļĦ
æĪĳ çľģ
ä¹ĭ æĹħ
}\\ &\
åĸ Ĥ
åį° ç¬¬
Ġuncertain ties
5 50
Ġ Omega
çļĦ æĶ¯æĮģ
å½±åĵį åĪ°
ĠCh rist
çĪ±å°Ķ åħ°
Ġ ,\]
Ġl ic
åħĭ èİ±
Ġquar ks
I d
Ġp c
Ġb ath
æŁ¥ æī¾
er ves
Ġp ac
ĠM edic
Ġlarg ely
n ol
Ġ é£İ
ll l
çķ ´
Ġcomp aring
å°Ĩ æĪĲä¸º
ä½ĵçİ° äºĨ
] +\
er ge
åŃĲ åĴĮ
ç¥ ¸
olog ically
åĥ §
Ġwork ed
çŁŃ æļĤ
éĢĢ åĮĸ
Ġbene ficial
æľĢåĪĿ çļĦ
Ġvehic les
Ġargu ment
) })\)
åŃĺ æ¬¾
æĺ¾ç¤º åĩº
sta tes
çĨŁ ç»ĥ
ĠSt ar
) ]\)
d p
æĪĳ åı¸
çĦ °
æŃ¤ åĲİ
æīĭ æ³ķ
27 0
ç«ŀ ä»·
Ġplanet ary
å¼Ģ äºĨ
è¢ ģ
æĴ ķ
è¿½ ç©¶
ĠCh ar
Ġmus cles
Ġtha ts
Ġinstr uments
Ġ åįĬ
Ġof fe
çĶŁ æĹ¥
æĹ¢ æľī
ä¸¥ èĤĥ
éĻª ä¼´
åŃ¦ åĴĮ
Ġan nihi
dic tion
èģĶ çļĦ
åıĹ åĪ°äºĨ
éĺ¿å°Ķ æ³ķ
R s
Ġ ç»Ł
Ġ è®¤ä¸º
Ġa stronom
nd rome
èĴ ľ
S ha
ä¸Ģ åıª
åĬ¡ å¿ħ
ep t
Ġsimu lated
Ġto ld
ten ed
çĽ¸åħ³ éĥ¨éĹ¨
æİĴæĶ¾ éĩı
æĥĬ åĸľ
Ġrele ased
é³ ŀ
Ġur ban
R u
çķĻ æĦı
Ġcontinu ed
B r
Ġ éĢŁåº¦
Ġ vers
ä¸į è§ģ
æ¶ ħ
Ġsugges ting
~~~~ ~~~~
Ġstra in
5 60
çļĦ åħ¬åı¸
é¡¹ å·¥ä½ľ
ĠDe partment
èµ¢å¾Ĺ äºĨ
3 24
7 50
b ru
Ġha v
)} )=
Ġlimit ing
èĩªè¡Į è½¦
Ġcamp aign
éĺĲ è¿°
A V
L P
äºĴ åĬ¨çļĦ
åİĨ ç»ı
ä¸¾ ä¾ĭ
Ġnecess arily
C he
åĩº åľº
Ġdi e
å¦Ĥæŀľ æľī
æī§ çħ§
æīĺ çĽĺ
çļĦ åĽĽ
Ġcomp osed
19 3
Ġ7 2
åŃĺåľ¨ çĿĢ
åį¡ å°Ķ
99 9
ä¸»æĮģ äºº
Ġdeli ver
Ġs ent
Ġplay ed
Ġ è¿ĩç¨ĭ
Ġv a
ä¹Ł ä¸įèĥ½
éĴ¢ ä¸Ŀ
çľ¼ éķľ
Ġfam ous
å®ĥ åľ¨
bu la
Ġ æİ§åĪ¶
Ġre ly
æİ¥ åľ°
æĺŁ çº§
èĢĲ çģ«
Ġrecon struction
P Q
Ġchi lds
Ġsol ved
ç©¿ çĿĢ
) }^{\
éĿŀ éĽ¶
Ġthick ness
åłª ç§°
å¤ļ åĲį
Ġco homology
æ¸© æ³ī
æ³ ¼
æĢ§ å¼º
ä¹ĭ åľ°
èº« ä½ĵçļĦ
Ġlog ic
Ġneutr inos
ĠG al
å·¥ä½ľ å®¤
25 4
23 6
E G
Ġth ri
å°± ç®Ĺ
Ġcol la
ä¿ĥ éĶĢ
Ġsepa rated
Ġwon der
w ill
è½ ¿
ther mal
^{* })
_{- }
å®£ åĳĬ
Ġe mail
ä¸º æľ¬
æ³¢ åħ°
å¾® è½¯
ĠPro f
Ġconstra in
Ġdiagn osis
q x
Ġ åŃ¦æł¡
æĪĳ è¦ģ
ĠG roup
å®ĥ ä¸İ
Ġhe aring
å¦Ĥæŀľ æ²¡æľī
åħ·æľī èī¯å¥½çļĦ
r ons
Ġp lus
Ġv s
æĶ¯ æŀ¶
æĿĥ éĻĲ
çĮ ´
çħ¤ çŁ¿
Ġtrig ger
Ġarchitec ture
d k
å¸Ĥ åĮº
48 0
æĽ¼ åŁİ
Ġw at
åıĺ éĢŁ
éħį çĶµ
30 1
åŁºæľ¬ çļĦ
Ġpolar ized
3 67
)= [
åĨħ åľ°
èģĶ ç»ĵ
æ£ µ
çĽĳ ä¼ļ
æĻºèĥ½ æīĭæľº
Ġgreat ly
çĿ¡ è§ī
æ²³åĮĹ çľģ
Ġ çī©
Ġb rown
åŃ µ
åĴĮ æĸ°
æĬĵ å¥½
æ© Ļ
B ar
ta tes
åį ¤
è½¦ ä¸»
åĲĦ æĸ¹
ä¸įæĸŃ æıĲé«ĺ
Ġmix ture
Ġ å®ĥä»¬
ĠF ood
æĺŁ ä½ĵ
33 0
ç§¯æŀģ çļĦ
åĢĻéĢī äºº
åĨ³ è®®
æĪ¿ ä»·
Ġga ve
Ġpaper s
åĢŁ æ¬¾
ç¼´ è´¹
Ġcorrespond ence
äºº æĢ§
å¤ĸ äº¤
20 7
ç«ĭ æ³ķ
Ġac tiv
åĿļ å®Ī
Ġwin dow
R P
ä¸ª äººçļĦ
ĠL in
sk y
n ec
Ġs ac
ä¸Ń åıĳçİ°
å¤Ħ å¤Ħ
è§£éĩĬ ä¸º
N BA
] _{\
åĪĨ ä¼ļ
åĻ¨ æĿĲ
Ġaccurate ly
" ,
4 40
i bility
Ġd v
ĠT ype
åĮħ å®¹
ç½ĳç»ľ å®īåħ¨
ç¤¼ åĵģ
Ġexamin ed
k q
Ġ éļıçĿĢ
çĲĨ è´¢
}) _
20 9
26 9
4 49
S b
{ )}
æĺ ı
ĠT ur
}}\ ;
23 8
ç§» æ¤į
ç§ĳåŃ¦ çļĦ
age ment
Ġ å¥¹
ä¹Ł è¢«
ĠIn stead
H y
Ġ åıĺåĮĸ
Ġd ic
ï¼ī ï¼Ľ
æ¸ħ æ°´
Ġelec t
Ġdiame ter
èĭ ĳ
Ġac qui
ä¸¥ ç¦ģ
é¢ĦæľŁ çļĦ
Ġpow ers
' )=
4 60
i or
Ġ ign
æķĻèĤ² çļĦ
ä½Ĩæĺ¯ åľ¨
Ġformula s
Ġinflamma tion
Ġ æ¯ı
åĲĦ éĥ¨éĹ¨
å¾Īå¤ļ çļĦ
Ġreson ant
Ġ ç¨ĭ
Ġre ci
ä¸İ ä¼ļ
pro v
ç»Ĩ åĪĨ
si l
éĹ ¯
ĠC li
ç»ĵ æĻ¶
å¤ĸ å½¢
å®Į å¤ĩ
Ġno tes
AS A
æģĲ æĢĸ
åĸ·æ°Ķ å¼ı
6 50
äºº å¯¹
è¡¨ å½°
ä¸Ģå®ļ ä¼ļ
æŀĦæĪĲ çļĦ
Ġprec isely
}( |
Ġand or
åħĪ è¡Į
è¿ĻäºĽ éĹ®é¢ĺ
å¼ķ åıĳçļĦ
è¿Ļ ä»½
Ġwe alth
ç»´ çļĦ
H o
éĢļ è¡Į
ten s
æ¸¯ æ¾³
Ġ åŃ¦ä¹ł
Ġ rays
è½ ©
25 7
åĽ½å®¶ éĺŁ
è·µ è¡Į
å¥ĳ æľº
éĦ Ĥ
Ġgra ins
æ¶¦æ»ĳ æ²¹
Ġmanufac ture
le in
æĪĳä»¬ é¦ĸåħĪ
ç¤º ä¾ĭ
æ°ĳ å®¿
æĹłéĻĲ çļĦ
S tu
å¾Ĺ äºĨ
sp a
22 4
Ġstre t
pol y
+ {
åĳ Ĩ
åĮĸ çĸĹ
Ġk no
Ġmo ther
ci um
}\\ &=
æıĲåĩº äºĨä¸Ģä¸ª
ed ing
éĹ ·
-\ !
å¸ĥ é²ģ
å¿«éĢŁ åıĳå±ķ
çĽ¸ä¼¼ çļĦ
or ous
åĽł æŀľ
Ġsp ins
Ga ussian
26 3
Ġconc rete
5 67
l ly
c s
åĲĪ è§Ħ
ä»£è¡¨ çļĦ
ĠNe u
ä¸Ń æĸŃ
æ³ »
æİĴ æ°Ķ
ä½ľä¸º ä¸Ģç§į
ç¨³ æŃ¥
é»ĳ é¾Ļæ±Ł
Ġiden tical
Ġadv ice
Ġfit ting
çŁ« æŃ£
F L
çļĦ éĤ£
ĠH I
å¹³ æķ´
éĩĩ æł·
å¦Ĥæŀľ åľ¨
26 4
Ġlif estyle
Ġcompati ble
çļĦ è¡¨éĿ¢
on ly
çĶ² æĸ¹
çļĦæľĢ æĸ°
Ġemploy ees
4 35
ri a
ç² ª
è·¯ æĺĵ
^* =
èĨ Ģ
Ġbin aries
4 38
le ase
ä¸Ń ä½¿çĶ¨
)\ \\
ĠV er
å¤± æľĽ
å®¡ è®®
36 4
æ¬§ ç¾İ
ĠMa x
å¤ªå¹³ æ´ĭ
o cc
åķĨ åŁİ
8 75
b ration
éĴ ¾
ç²¾ çĽĬ
è§£åĨ³æĸ¹æ¡Ī çļĦ
åĲ¸å¼ķ äºĨ
åįķä¸Ģ çļĦ
Ġcry pto
Ġ åĮº
ĠWe b
æĸ° è½¦
ç«Ļ å¼ı
èµĦæºĲ çļĦ
çļĦ æĸ¹åĲĳ
ome try
27 8
~ }\
åľ¨ æł¡
Ġins ight
æŁĶ è½¯
Ġbran ch
Ġjour nal
F in
æĸ ©
éĴ Ľ
å¤´ åıĳ
29 4
å°¼ å¥¥
ĠSu per
Ġevalu ated
Ġslow ly
Ġremark able
æł Ī
èº« ä¸º
30 7
åħ¨åĽ½ åĲĦåľ°
Ġneigh b
T P
u mb
Ġstate ment
4 67
M ost
le ts
èĩª åıĳ
res olved
æŁĵ èī²
å¯¹ çħ§
åĩº ä¸Ģä¸ª
åı¯ä»¥ æĺ¯
æ³¨ çĽ®
ç§¯ éĩĳ
èĸ ¯
Ġpower law
tend ed
æł½ åŁ¹
Ġ }^{
ä¸Ń è¿Ľè¡Į
ä¸º æĪĳä»¬
se cond
26 6
Ġlat tices
ä»¿ ä½Ľ
èĳĹä½ľ æĿĥ
Ġ æľīæķĪ
Ġs ke
ĠT ran
è¿Ľ åİ»
Ġpro min
),\ \\
æ·Ģ ç²ī
Ġp ick
Ġd W
æĢ ¡
åĽ½éĻħ åĮĸ
Ġ çĽ´æİ¥
30 3
po ch
Ġag ents
ç¥ĸ åĽ½
ĠEn viron
Ġade quate
ä¸Ĭ æ¸¸
éĽ Ģ
åİŁ åŀĭ
23 7
Ġcri terion
äºĮæ°§åĮĸ ç¢³
) ),\)
éĿĻ æŃ¢
çļĦ ç¤¾ä¼ļ
äº§ä¸ļ åĮĸ
Ġinde ed
Ġ è§Ĥæµĭ
Ġd rop
æ½® æ±
éĢĨ è½¬
Ġna mes
G eV
}} }(
æĸ° æĿĲæĸĻ
æŁ Ħ
ä½Ĩ æĪĳ
24 6
åĲĦç§į åĲĦ
æĪĳä»¬åľ¨ è¿ĻéĩĮ
}_{- }\)
o T
Ġ ä¹Łæĺ¯
Ġg ro
da te
çĽĳ çĲĨ
Ġrema ining
èµ·éĩį æľº
f irst
å¹´ éĹ´
çłĶç©¶ åĳĺ
åħĪ éĶĭ
ph y
ces sive
3 45
)) ^{-
æ¯Ķå¦Ĥ è¯´
Ġgeneraliz e
å¾Īå¥½ åľ°
Ġ è¿Ļæł·
ir s
Ġinte nded
éŁ³ é¢ĳ
28 8
éĽĨä¸Ń åľ¨
Ġeigenval ues
Ġs na
Ġin ters
å¯ Ĥ
ff ee
Ġvec tors
5 80
æĸ¯ ç§ĳ
ç®¡çĲĨ åĬŀæ³ķ
Ġpre pa
48 5
ä¸ļåĬ¡ çļĦ
Ġ æ¬¡
ç¬¬ ä¹Ŀ
26 1
ĠCalifor nia
åĬ «
se mi
åĽ° å¢ĥ
å¢Ļ ä½ĵ
Ġabund ances
æľī åĪ©
Ġn ar
il t
å¤® è¡Į
Ġspi ral
Ġrestric ted
M ills
T x
åĬ¨ æ¼«
å®ļ æĹ¶
å®ŀè·µ ä¸Ń
é©¾é©¶ åĳĺ
åľ°éĿ¢ çĬ¶æĢģ
Ġinfra structure
. |
i tation
Ġ æľĢè¿ĳ
}_ +
ten ts
ĠAd S
an c
25 5
åĨ² æ´Ĺ
ä»į åľ¨
Ġreds hifts
Ġmanu facturing
Ġ æĺŁç³»
per turb
ä»İ ä¸Ģä¸ª
å¾Ī å¼ºçļĦ
èİ· æĤī
è¯Ĺ æŃĮ
Ġplay ing
æµģ åħ¥
Ġnon local
èĸĦ å¼±
g roups
ãĢ ķ
çĥ ĥ
åıį å¼¹
è´Ł åĢº
åħīè°± ä»ª
im its
è¯ ł
Ġbran ching
h ing
m k
to ff
ĠãĢĤ ãĢģ
å¯Į åĲ«
{{ {\
åĨ¬ å¥¥
cto ber
\ }=\
çļĦ ç¡®
å¹´ åĲİ
27 6
çĳ °
å¡Ķ å°Ķ
åħ¨éĿ¢ çļĦ
ãĢ Ķ
ra tory
min i
åģĩ æĹ¥
åį°ç¬¬ å®ī
N G
Ġ æĸĩ
åľ¨ æĪĳåĽ½
Ġsa nd
æĹ© æĹ¥
åĿļ å®ŀ
ä¸įæĸŃ åľ°
Ġlear ned
éģ Ĥ
Ġwe ar
éĹ¨ è¯Ĭ
æĵį çºµ
Ġlar ges
èµ· æĿ¥çļĦ
é¦ ı
Ġper haps
ç»ıèĲ¥ èĢħ
è´¢æĶ¿ éĥ¨
Ġattrac tive
ä»ħæ¬¡ äºİ
T O
Ġth or
Ġp l
Ġg lo
ç®Ĺæ³ķ çļĦ
æ··åĲĪ çī©
Ġ é¥°
Ġ çĦ¶èĢĮ
Ġan n
26 8
tab ly
éĩįåºĨ å¸Ĥ
éĽĨè£ħ ç®±
é«ĺ æ¸ħ
èī² åĪĹ
å¢ŀ å¤ļ
éĹ¨ æĪ·
ten ess
22 9
36 8
èģĬ å¤©
çļĦ åĵģçīĮ
æī ³
iv id
ĠJ esus
ep end
çľ¼ åīį
Ġinterac t
æ½® æ¹¿
ic ular
ĠB en
ä»İ æŃ¤
é¡¹çĽ® å»ºè®¾
äºĶ éĩĳ
ĠPro gram
ä½© æĪ´
)}&{{ }=
å¤ļ åĬŁèĥ½
æľĢ å°ıçļĦ
å¼º åº¦çļĦ
å¦Ĥæŀľ ä¸į
å¾® å°ı
)) }{
æľĢå¤§ éĻĲåº¦
æĢ¥ åī§
Ġequival ence
M u
åħ° å·ŀ
çĨ Ļ
çĶ· åŃ©
Ġcris is
g x
}+ (\
ç¥ Ī
å®½ å¸¦
3 49
}\ }\
äº§ åĢ¼
ĠM or
å¹¸ è¿Ĳ
F F
Ġco ast
E u
K K
åĲ µ
ä¸Ń å¯¹
äºĨ è¿ĻäºĽ
çľģ ä»½
con trol
å»ºçŃĳ å·¥ç¨ĭ
Ġlab oratory
çļĦ æ¦Ĥçİĩ
å¹¶ ä»¥
Ġsu dden
æŃ£ æ¯Ķ
ä½İ åİĭ
ç»Ĩ èĩ´
å£® å¤§
Ġbos ons
l le
Ġ ä¹ĭéĹ´çļĦ
éķ¿ å¤§
\; .
è½¬æį¢ æĪĲ
è¿Ħä»Ĭ ä¸ºæŃ¢
Ġ è®¸å¤ļ
Ġth reedimensional
è½¬ éĢŁ
Ġad minist
Ġar ises
30 6
æ²¹ çĥŁ
Ġmil d
Ġconstra ined
çİ¯ å½¢
s ystem
en c
us ted
ĠG iven
Ġsa ving
ä¸ĢçĽ´ æĺ¯
åı¯éĿł çļĦ
G ra
j oint
Ġ å¹³
}_{ {\
éģĹ æĨ¾
ĠInter net
Ġregi mes
2 10
è£ ¸
ĠäºĨ è§£
å®īå¾½ çľģ
Ġdedic ated
ç¹ģ æ®ĸ
åģľè½¦ åľº
è¢«è®¤ä¸º æĺ¯
d ouble
Ġ- -
35 2
çŃī å¤ļä¸ª
24 3
åı² ä¸Ĭ
Ġinf inity
çļĦ ç¾İ
Ġex cept
27 7
è½» è´¨
Ġcap abilities
s hi
ä¸į é«ĺ
ä¸į çĦ¶
å¤§ æ¥¼
å°± ä¸įä¼ļ
åĩł æ¬¡
40 5
cri tical
200 7
åĭĩ å£«
ricul um
) )\,
er r
ve re
var Phi
æīĭ çļĦ
Ġhi t
Ġasympto tically
ĠA cc
åĲĪ åĬĽ
ä»ĸ å¯¹
æ°´ æĢ§
æĮģ ä¹ħ
ĠRes ults
çļĦ åĲİ
åĩº èµĦ
è®¾ æĥ³
ĠG reat
24 5
åĮ»çĸĹ æľºæŀĦ
Ġconn ec
Ġfocus ing
åĢ¼å¾Ĺä¸ĢæıĲ çļĦæĺ¯
th ree
ç» İ
Ġe V
äºº æ°Ķ
Ġha z
éĥ½ è¢«
ĠE ast
æĢ» æķ°
å·´ å·´
èĪª çıŃ
èįī åİŁ
æĦıè¯Ĩ åĪ°
< |
e g
Ġb ow
ç¼ Ģ
èĮĥ çķ´
æľĭåıĭ ä»¬
Ġ å®Įåħ¨
ĠçļĦ æĺ¯
çĶŁäº§ åİĤå®¶
Ġunit ary
ĠQu antum
åı¯ä»¥ çĽ´æİ¥
Ġ6 2
äºĴ è¡¥
ma y
æĿ¥ çłĶç©¶
ç²¾ èĩ´
å¼Ĥ åľ°
24 8
åĲĮ ä½įç´ł
éĺŁ éķ¿
25 8
Ġthey re
reat ment
le ading
Ġg ender
å¤ļ å½©
è¿ĩ åĲİ
éĢī åıĸ
27 1
åĶ® ä»·
35 7
Ġanaly tically
ä¸īè§Ĵ å½¢
le an
åĵ Ģ
çł´ äº§
ĠEx peri
b os
ol f
ç¼ Ķ
å¯¼ æķ°
è¿ĳ è·Ŀç¦»
Ġob vious
å®ļä¹ī äºĨ
çĪµ å£«
ĠLear ning
6 55
Ġ è¾¾
Ġthe ta
åĪĨ åĮº
è¿Ľ åıĸ
æĵįä½ľ ç³»ç»Ł
æ¹ĸ äºº
Ġhy brid
sec ts
åĩĮ æĻ¨
x u
çļĦ èĢģ
Ġal le
æŀģ åħ¶
peri odic
Ġcar di
Ġcut ting
æĬĸ éŁ³
Ġrout ine
F rom
ä½ľ é£İ
ng er
åħ¬ å¼Ģåıĳ
åĻ¨ ä¸Ń
ĠæĪĳä»¬ è¯ģæĺİ
38 5
, ,
ä¸Ń åĮ»èį¯
qu as
Ġk ing
ree k
38 3
é²ľ æĺİ
\}. }\
Ġ rm
Ġ åıĳçĶŁ
Ġ çī¹åĪ«æĺ¯
)\ }
å¤ļ éĿ¢
}) <\
æĸĻ çļĦ
Ġ til
æ²¡ æĥ³åĪ°
æ±Ł åįĹ
å¾ģ æľį
å®ŀéªĮ æķ°æį®
çļĦä¸Ģ é¡¹
çĿ£ ä¿ĥ
æ²¿ æµ·
Ġidentify ing
è¾Ľ èĭ¦
Ġin duc
ä¸į çŃī
ä¸º ä¸»è¦ģ
æľ¬ ç½ĳ
Ġ+ (
ond on
Ġ çº¿æĢ§
Ġc up
å·¥ åľ°
èĢĥ åı¤
Ġacc ounts
èµ° åĬ¿
å¹¿å·ŀ å¸Ĥ
å¯Ĵ åĨ·
æĸĩçĮ® ä¸Ń
T R
ä»» èģĮ
Ġund e
åİŁåĪĻ ä¸Ĭ
6 90
de c
æĻ ķ
éĶ ¤
æŃ£ å½ĵ
äºĶ åįģ
æįŁ èĢĹ
Ġindic ating
ĠPe ople
ä¸Ĭ éĹ¨
å®ļ çĤ¹
èº ģ
çŃĶ å¤į
æ°§åĮĸ çī©
Ġspatial ly
Ġ æĸ¹
çļĦ æĿĲæĸĻ
^{ '
Ġm os
pla n
å¤© åľ°
47 0
æķ°åŃĹ æ¨¡æĭŁ
æĭĨ éĻ¤
ä¸įç®¡ æĺ¯
Ġensu res
| |\
math ring
åĳ½ ä¸Ń
200 6
is o
äºİ å¹´æľĪæĹ¥
äº§åĵģ åĴĮ
æĺ¥ åŃ£
å¢Ļ éĿ¢
Ġfa ith
ç²Ĺ ç³Ļ
h ard
æĺ¯ çĽ®åīį
ä¼ļ è®©
æ°´ åĩĨ
åıĸ æł·
åĩı æİĴ
è§Ħæ¨¡ çļĦ
å·¨ å¤´
å¢Ļ æĿ¿
æķĳ åĬ©
æĦıä¹ī çļĦ
Ġbuilding s
__ __
do ped
æ» ¥
Ġcr ystals
æį ŀ
é¢ĨåħĪ çļĦ
% ãĢģ
ç¥ŀ çļĦ
38 4
44 4
å°ĺ åŁĥ
Ġsuperconduc tors
asc ular
Ġme at
Ġyou ll
æİ¨ è®º
Ġprov en
Ġcustom ers
Ġbright ness
Ġsemic onduc
æĭ ĺ
25 9
æį¢ çĥŃ
æ¼Ĥ äº®
Ľ èµ·
er m
Ġsu cc
Ġob jective
po st
26 2
Ġbrea st
Ġtarge ts
Ġs ounds
åŁ Ķ
xi m
çľĭ äºĨ
åĬŁ å¤«
24 4
Le ft
Ġoffic e
Ġori entation
Ġd b
nc il
Ġapp reci
^{+ }
èĤĮ èĤ¤
lat tice
æ¹ĸåĮĹ çľģ
Ġfema le
se arch
è° ¦
Ġpa nde
Ġmod ule
Ġ6 1
30 2
24 9
Ġradi i
ollow ing
5 75
çļĦ å°±æĺ¯
math it
åľ¨ æīĢæľī
ä¿Ŀ å®ī
çĶŁäº§ ä¼ģä¸ļ
pa th
38 8
Ġ20 19
èĩªçĶ± åº¦
ç©¿ è¶Ĭ
Ġmis sing
v ille
çļĦ ä»·åĢ¼
Ġin formed
å¹´ åĨħ
æ°Ķ æģ¯
ä¸ĸçķĮ åĲĦåľ°
æĮĤ çīĮ
cur rent
Ġpric es
çļĦ åĩºçİ°
å®ŀ è®Ń
22 3
6 60
é«ĺ ç§ĳæĬĢ
åı¯ä»¥ å¸®åĬ©
row s
graph s
E A
çŃī åĽłç´ł
par tite
Ġcare fully
) }{|
ä»¥ åĨħ
ver si
ĠThe ore
çľĭ ä¼¼
è¿¹ è±¡
å®¿ èĪį
é¸¡ èĽĭ
æĪĳä»¬ å·²ç»ı
29 0
æĹ© åľ¨
ĠSo ci
5 77
ar ma
å¹´ ä»ĸ
çĤ¹ æĺ¯
åĪĹ è½¦
å¾ģ æ±Ĥ
æī©å¤§ åĪ°
, }
çļĦ çĶµåŃĲ
Ġs me
éķ¿ æĺ¥
ĠU N
çłĶç©¶ ä¸Ń
24 7
Ġæĺ¯ ä¸Ģä¸ª
å¯» å¸¸
æīĢåľ¨ åľ°
Ġparticip ants
o xide
èº º
çıŃ åŃĲ
Ġanaly zing
Ġ æĥ³
ä¸Ń æłĩ
ä¹Ł éľĢè¦ģ
ĠH D
æľĪ åĪĿ
åįģ è¶³
åĽ½å®¶ æłĩåĩĨ
con st
sta tic
èĤ¡ å¸Ĥ
çŁŃ ä¿¡
Ġrecom men
Ġdwarf s
Ġcy ber
åĵĪå°Ķ æ»¨
äºº éĢł
åıĳ æĶ¹
æķ° çłģ
ç»Ļ æĪĳä»¬
24 1
ä»ĭ è´¨çļĦ
åħ´ èµ·
çĭŃ çªĦ
èĵ¬ åĭĥ
éĻĮ çĶŁ
éķ į
çĥŃ åĬĽ
ĠæĪĳä»¬ çĶ¨
çıŃ ä¸»ä»»
åĨ° ç®±
Ġanalys es
us iness
27 4
æ¿Ģ æĥħ
æī¾ åĩº
èĭ¥ æĺ¯
Ġ åŁİå¸Ĥ
Ġ æ¸©åº¦
Ġ è®¡åĪĴ
çļĦ å¹´
Ġs outh
ro te
è´ ©
\| _\
åı¯èĥ½ å¯¼èĩ´
Ġste el
l t
çĶ¨ äºĨ
ves t
\!\! \!\
å½° æĺ¾
Ġorth ogonal
çļĦ é£Łçī©
Ġsu p
ç¦ı å·ŀ
Ġfound ation
p op
ãĢĤ ï¼Į
Ġs ight
åĲĮ ç±»
ome ter
ç¼ĸ è¯ĳ
æĭħ å¿§
åī¯ æĢ»ç»ıçĲĨ
Ġinitial ly
3 99
åĩº äºİ
ĠC ity
äº¤ éĶĻ
å¤į å·¥
è®¾å¤ĩ åĴĮ
å·® çļĦ
ä¼° åĢ¼
æľīæīĢ ä¸įåĲĮ
æĵħ éķ¿
) *
3 46
] ^{\
ä¸Ĭ ç½ĳ
åıĮ åĢį
ç¬Ķ è¯ķ
anu ary
ashing ton
L M
æľ¬ çĿĢ
) ,\,
ä¸Ĭ æĸ¹
åĿ ¤
éķ¿ å®ī
æĹĭè½¬ çļĦ
Ġcharac ters
- |\
Ġ æł¸
åĿ ł
ne ar
Ġrec ords
Ġpri ori
æĪĳä»¬ éĥ½
æ³ķ æ²»
æıı ç»ĺ
fac tor
Ġpromis ing
6 88
i res
t les
ä½ £
ĠW ay
ç©º çĻ½
æĶ¹ ä¸º
ĠæĪĳä»¬ æĺ¾ç¤º
39 8
Re g
ç»Łè®¡ æķ°æį®
Ġprop os
ä¸» äºº
æ£Ģ ç´¢
Ġ6 3
Ġ éĽĨåĽ¢
æĮĩ åĲĳ
25 2
Ġsing ularities
è·³ è·ĥ
ĠJapan ese
5 70
}{ [
ä½Ĩ çĶ±äºİ
Ġdis app
ä¼Ĭ æľĹ
Ġvegeta bles
è¯ł éĩĬ
ro ve
åŃ¦ä¹ł çļĦ
å¿ĥçĲĨ åŃ¦
or ption
åĲį ä¹ī
èĪ Ĩ
å¼ķ äºº
åħĭ åħ°
Ġph one
parame ter
4 99
Ġ äº¿åħĥ
åĽŀ å¤´
å»ºè®¾ å·¥ç¨ĭ
Ġblo cks
ä¸¢ å¤±
5 88
Ġ æĶ¯æĮģ
åľ¨ ä¸įåĲĮ
é«ĺ åĵģè´¨
op f
ç¼ĵ åĨ²
åįļè§Ī ä¼ļ
Ġciti zens
4 45
Ġ }.
Ġ æĬ¥åĳĬ
Ġc ities
Ġb log
Ġde eper
è´¨ çĸĳ
ĠE ff
å¤© å¤©
æ¡ Ĳ
)^{ |
Ġsur prising
ç»¼ èīº
Ġfac ts
resp on
ĠB al
åı¯ä»¥ çľĭåĪ°
æ°Ķ è´¨
åŃĺåľ¨ ä¸Ģä¸ª
çļĦ ä»»ä½ķ
æĿ¥ è§£éĩĬ
28 5
37 0
æĶ¹åıĺ äºĨ
Ġresi li
æĢ§ åľ°
æĸ° äº§åĵģ
Ġstar ts
ag ing
çģµ æĦŁ
Ġcompan ion
åħ¥ ä½ı
å¼Ĥ è®®
6 80
z o
Ġ éĥ¨
ti zed
ä¸Ģ éģĵ
ha nd
æĪĳä»¬ æľī
åĪ¶ æĪĲçļĦ
åĽł åħ¶
æ¨¡åŀĭ åĴĮ
çªģ åıĺ
Ġpers ons
tom orph
æĻĭ çº§
Ġemo tions
ä¸į åĲĥ
}} )^{
åħ¨ æģ¯
ä¸ī æ¬¡
éª Ħ
çķĮ çļĦ
åĬłå¼º å¯¹
åħ³æ³¨ çļĦ
å°¤ ä¸º
c ts
ä¼ļ ä½¿
Ġpro jec
éĹ´ éļĻ
å¾· å°Ķ
å¥³ çĶŁ
36 1
äºĨä¸Ģ ç³»åĪĹ
ris on
æ±ĩ æĢ»
Ġver tical
Ġcyc les
maliz ed
mu la
çº¿ ç´¢
è¯Ħ åĪĨ
23 9
36 9
åĿĲ åľ¨
å²© çŁ³
M od
or ge
æķ° çĻ¾
35 5
ĠHis tory
rela tivistic
æĪĳ è®¤ä¸º
åĬł å·ŀ
ä¸» å¸ħ
èĨ Ŀ
Ġcosm ology
\ :
d A
Ġg la
Ġpi eces
Ġperturb ative
bow tie
å¤įåį° ä»¶
m ia
ä½ľçĶ¨ çļĦ
Ġplan ar
Ġfamili ar
Ġ åıª
èµ Į
ĠA rm
ç£ģ åĬĽ
ĠJu ly
W i
ä¿ ©
ĠP ower
24 2
Ġgood s
Ġloc ations
Ġf igure
å¤ļ å¤ļ
å½ĵ ä½ľ
éĩıåŃĲ åĬĽåŃ¦
cul us
4 33
P u
Ġ ç»Ħç»ĩ
ä¸Ń è¢«
éĴ ¦
éĽĨ èģļ
å®Ī æĬ¤
Ġser ves
çĽ² çĽ®
2 15
6 40
H A
Ġwe ighted
ti fy
åľ¨ è¿Ļä¸Ģ
è¿ĩ é«ĺ
å°Ĩ ä¸º
å®¡ åĪ¤
85 7
åħŃ ä¸ª
ma tter
lo ok
çİ° éĺ¶æ®µ
ä¸» èĲ¥
åĪĨæŀĲ çļĦ
Ġjob s
æľī çĽĬ
ĠA D
å°ĳ å¥³
N E
Ġc as
ä¸į ç¡®å®ļ
èĭ Ľ
éĻĲ å®ļ
Ġ6 6
Ġhigh light
è¿Ŀ çº¦
è°· æŃĮ
å¤ļåħĥ åĮĸ
ä¿¡ è´·
Ġfi la
æĿ¥èĩª äºİ
itud inal
te mber
di mension
å¾® ä¼ģä¸ļ
}\, =\,
Ġsk ill
ä¸º ä¸Ģ
lo od
éĥ Ĭ
ä¸¤ æĿ¡
ç¥ ·
ç»ıæµİ æķĪçĽĬ
ä»»æĦı çļĦ
çķ ¸
æĺ¯ ä½¿çĶ¨
å°ı éķĩ
æ®µ çļĦ
Ġcol le
çŃ¾ è¯ģ
ific ations
}> \
ĠAug ust
5 49
C I
ĠB as
Ġsp end
æŀģ åľ°
æ´ŀ å¯Ł
Ġnor th
Ġdesign s
elec tro
Ġfore ign
Ġingredi ents
4 47
è¿Ľ äºĨ
çº¿ åĴĮ
48 6
39 0
æ»ĳ éĽª
Ġphys ic
Ġsto red
_{* }\)
cons istent
p x
åĴĮ ä½¿çĶ¨
å°Ĩ è¿ĳ
tric t
o is
}} &{\
åĩº æ°´
res on
Ġorder ing
æ»¡è¶³ äºĨ
Ġantifer romagnetic
F ermi
Ġ åŁºç¡Ģ
æĦı çļĦ
å®ī éĿĻ
ä¸ĩ è¾Ĩ
åī§ æľ¬
æľ¬åľ° åĮĸ
Ġ åĪĽæĸ°
ou p
åºĵ ä¼¦
id al
å¤Ħ åľ¨
æĺŁ äºĳ
Ġmod ulation
åİĭ æľº
èĢĥèĻĳ äºĨ
é¡¶ å±Ĥ
ä¸´çķĮ çĤ¹
çĥ «
39 1
Ġdirec ted
Ġ éĤ£
éĩįè¦ģ æĢ§
éĢģ åĪ°
ang u
Ġphoto metry
Ġdiv ided
Ġensemb le
åĪĨ å±Ĥ
Ġthere by
ç»ĵåĲĪ çļĦ
hy d
æĳĨ èĦ±
è¡Ķ æİ¥
k t
æĪĳä»¬ è°ĥæŁ¥äºĨ
Ġ1 98
Ġpre ven
ç¥ŀ è¯Ŀ
Ġhigh l
æ²¹ æ¼Ĩ
27 9
Ġobserv able
åī¯ æĢ»è£ģ
5 29
ter y
Ġpa ths
é¡¶ å°ĸ
çİ© æ³ķ
& (
4 75
åĲ ģ
åľ¨ æķ´ä¸ª
åį ĳ
å¼Ģ åĪĽ
æĶ¾ çĶµ
}\, {\
å¥ĩ æĢª
åĲ¬ åıĸ
éģĩ åĪ°çļĦ
5 33
M ark
par ts
Ġso le
æĮĩ å¼ķ
ç»ıæµİ åŃ¦
ĠCon sider
Ġpande mic
Y our
_{ <
lo op
å¹¶ åıĳ
å½ĵ æĹ¶çļĦ
et al
åįĩ éĻį
ä¹ĭåīį çļĦ
Ġprotocol s
ro ad
ä¸į å¦¨
è¿ĺ æ²¡
ĠE very
95 8
Ġconf ined
Ġempha sis
åľ¨ ä»»ä½ķ
æĺ¯ æ¯Ķè¾ĥ
é«ĺ æĢ§èĥ½
25 1
çī¹èī² çļĦ
Ġphi los
j et
ä¸ĭ åįĬå¹´
è° Ń
åıĤ ä¼ļ
æµ· æĭĶ
}^{+ }\
Ġimpro ves
Cu O
è ł
Ġo cean
es ides
å¹´ ä¸ŃåĽ½
æĦı æĦ¿
Ġlo se
èİ ĵ
Ġra in
ç³»åĪĹ äº§åĵģ
çī¹å¾ģ çļĦ
Ġsign atures
Ġpair ing
Ġs on
st on
æ¯Ķ åĪ©
Ġreg ula
å®¢æĪ· æıĲä¾Ľ
Ġste ady
f our
åĬł åī§
ĠL andau
è¥¿ åħ°
åıĮ æĽ²
æĮī æĳ©
Ġaff ine
Ġchar ges
Ġturbu lent
Ġsubse quent
æĮ £
çŃī æĸ¹éĿ¢çļĦ
åħ¥ å¢ĥ
Ġmo bility
ĠN i
Ġcur rents
æİĪ è¯¾
Ġcare er
èģĺ çĶ¨
Ġmach ines
Ġentangle d
èį Ĩ
åİ» ä¸ĸ
äºī è®º
æ¬¢ ä¹Ĳ
æĭĵ æīĳ
c tic
c ore
Ġ åħĭ
Ġ ç²ĴåŃĲ
28 7
Ġdu ality
Ġsyn chron
5 65
b ic
Ġ ä½į
ä¸ļ æĢģ
æĪĳä»¬ æł¹æį®
Ġde t
dy namics
çĩĥ æ²¹
åĲĪæ³ķ æĿĥçĽĬ
5 68
g on
åĽ½ éĺ²
res is
æİ¥ å¤´
34 1
sim il
ãĢģãĢģ ãĢģ
å¥½ åıĭ
bra ted
éļĶ éŁ³
æĦ¿ æĻ¯
Ġmolec ule
Ġextrac ted
ä½Ĩ è¿Ļ
}), }\
Ġdanger ous
3 66
åľ¨ åħ¶ä¸Ń
åĩł çĤ¹
Ġany one
è·Ł éļı
Ġado pted
ĠBay es
éķ¿ åŁİ
å°Ķ åħĭ
Ġlife time
èĲ¥ä¸ļ æĶ¶åħ¥
Ġrecord ed
M y
Ġb re
åºĶ èģĺ
Ġra ise
è®© åŃ¦çĶŁ
å¿ħ ä¸įåı¯
è¯¦ æĥħ
æ°¨ åŁº
Ġpass ed
conn ected
äºº äºº
å¸Ĥ çº§
å±± æ°´
å¥ĸ éĩĳ
av id
oid al
c tive
å° ¸
ä¸ĩ äº¿åħĥ
37 8
bra ne
Ġconflic t
Ġisot ropic
l ink
Ġ çĻ½
èµ· æŃ¥
åŁŁ çļĦ
Ġresp ons
Ġbal anced
Ġfas hion
Ġloop s
ga p
ĠS imil
30 9
28 9
å±ħ å®¶
37 2
æĺ¥ å¤©
ĠOr gan
Ġp ron
}} |\
èı© èĲ¨
Ġt ub
}+ -
éĽĨ çļĦ
ç«ĭ åľº
è®© èĩªå·±
çķĻ è¨Ģ
34 3
çıį æĥľ
Ġoffe red
v ents
å±ķ åĩº
ä»· çļĦ
Ġmic rowave
Ġcoordin ates
ma to
Ġen velop
ä½ł è¦ģ
è¡Įä¸ļ åįıä¼ļ
28 2
35 1
è®¸å¤ļ äºº
Ġ åįķä½į
åı£ çļĦ
46 2
åĢŁ éī´
3 20
5 40
M ic
æľį é¥°
Ġlarges cale
æľī æ¯Ĵ
å¸ ĸ
ĠT hi
åİŁ æľī
å¡ Į
æ³¨æĦı åĬĽ
å²ģ æľĪ
çĶµåĬ¨ è½¦
\ })
Ġ åŁºäºİ
Ġre pair
ho st
ĠI P
00 00
æ¼« çĶ»
Ġ è¡Įä¸º
èĢ ¦
Ġoffer ing
ä¸ľåįĹ äºļ
Ġ å¼Ģåıĳ
Ġth ro
ĠC ong
çī¹ çļĦ
46 8
æļĹ èĥ½éĩı
Ġnone quilibrium
Ġ <\
Ġ æĿ¥è¯´
å»º ç«Ļ
ck ing
æ³¢ æµª
Ġad ult
Ġgen us
ä»ĺ æ¬¾
Ġmic ron
Ġ çİ°åľ¨
}\ ,\,
ä½Ĩ ä¹Ł
è¿ĳ å¹´
æĢ» çĲĨ
Ġro tational
,\, -
äº§ä¸ļ åĽŃ
æ´»æĢ§ çĤŃ
ä¼ĺ ç¾İ
çĭ¬ ä¸Ģ
Ġtra pped
éĢĢ å½¹
æİĮ æİ§
å¯¹ è¿ĻäºĽ
æ°´ çĶµ
ut onom
Ġst rea
39 5
b as
åľ¨ è¿Ľè¡Į
da tions
çł į
æİĴæĶ¾ çļĦ
Ġmetric s
valu ed
D f
Ġ è¿ĻéĩĮ
me chan
åĲĪ è®¡
ĠM ac
Ġsp ea
ç»´ å°Ķ
Ġqu bit
æ¯ı ä½į
ç®¡çĲĨ éĥ¨éĹ¨
èģĮ åľº
çĭ¬ å®¶
ress ing
Ġir reducible
6 49
Ġre serv
æ² §
ci ence
åĪ« äººçļĦ
çĪ± åĽ½
é¾ Ł
Ġcrea tes
Ġco vers
åīį ä¸ī
ĠF ac
é¢ĺ çĽ®
ä¸ºä¸» çļĦ
Ġmat ching
æ¸¸æĪı ä¸Ń
}~{ }~{
åľ¨ ä¸Ģå®ļ
éĺŁ åıĭ
Ġro bo
æ´¾ éģ£
su ally
ĠA B
å®¶ ä¹¡
ĠC ho
å¾Ī é«ĺçļĦ
èı ĩ
Ġcluster ing
)= {
ĠB el
Ġra nging
Ġtra p
ĠT ime
éĢī æĭĶ
Ġ6 7
èĢģå¸Ī çļĦ
Ġtheore tically
d or
ä¸Ģ çĻ¾
ç¾İåĽ½ çļĦ
åĤ¬åĮĸ åīĤ
Ġ è§£
}} }}
åģļ å¾Ĺ
}\, .\)
è§Ĵ åĬ¨éĩı
ita ge
Ġcompe tition
in de
ä¸Ģ é¢Ĺ
rac ter
Ġho m
28 4
éĵģ çŁ¿
çļĦäºº æīį
direc t
ä¸į å®¹
åİ ¢
éķ¿ è¾¾
Ġ æľīåħ³
å¹¶ è´Ń
å¤© çº¿
ç§ĳ éĻ¢
è¯ķ ç®¡
48 8
éĶĤ çĶµæ±ł
åŃĲ éĩĮ
æºĲ èĩª
å¢ŀ æ·»
èĥĮ åĲİçļĦ
é¢ģ å¥ĸ
å¤ĸ èµĦ
äºĭ åħĪ
ä¹Ĳ åĻ¨
Ġentire ly
å¹¶ ä½¿çĶ¨
æĦŁ åĴĮ
and er
æ±½ æ²¹
åĬ³ åĬ¨åĬĽ
ä»Ĭå¤© çļĦ
Ġpartial ly
Ġvisco sity
çļĦ çī©çĲĨ
op er
Ġob jec
æħ Į
ĠSo cial
Ġexten sions
Ġminim ize
Ġbeauti ful
ä»¥ å¤ĸçļĦ
ä¸ĵä¸ļ åĮĸ
39 4
çĳŀ åħ¸
; -
g ical
Ġ æıĲé«ĺ
Ġa di
Ġb ird
æķ ŀ
ho m
ä¸ĭ éĻĲ
ä½ı éĻ¢
Ġvacc ine
Ġcub ic
a ult
æĬķ äº§
Ġho mo
35 9
èį£ èĢĢ
Ġsens or
ograph ic
çĮľ æĥ³
Ġextin ction
O p
Ġ èĢħ
Ġ ä»¥ä¸Ĭ
ro s
çģ ¿
)) _{
37 9
, ~~
çĶŁ æķĪ
æĦ ¤
èĦ± æ°´
æĢ¥ æĢ§
æĭį çħ§
æĪĲç«ĭ äºĨ
Ġdu ration
Ġ }=\
Ġ ä»£è¡¨
ĠI a
pro ton
èµ° è®¿
çīĽ èĤī
ä¸º ä¸Ģä½ĵçļĦ
çİ «
Ġg ri
46 3
78 4
A GN
ä¸ ĳ
qu is
å¼Ģ ä¸ļ
34 2
æķĪçİĩ é«ĺ
Ġaller g
3 10
E d
çļĦ æ¯Ķä¾ĭ
æµ ĳ
ä¸Ĭ çº§
Ġ\\ &=\
æĹ¥ çĶµ
åĩı å°ı
Ġover come
æ°§ æ°Ķ
æ±ī è¯Ń
æ±ĩ èģļ
Ġsingular ity
Ġin forma
ä¸į åĲĪæł¼
å°Ĩ åĨĽ
æĳ© æīĺ
inte gra
T H
st ract
æĭ Ń
Ġindust ries
ä»² è£ģ
] \]
åº ¸
é«ĺ åĪĨè¾¨çİĩ
nu mber
28 3
Ġtrans lation
ä¹Ļ æĸ¹
Ġmi tiga
Ġwo man
Ġ6 8
48 4
46 5
æĢİ æł·çļĦ
pu ts
éªĳ å£«
Ġcustom er
ab out
è¿ĺ ä¸į
æĶ¶ æķĽ
28 1
ä»į æľī
çĥ¦ æģ¼
Ġdestro y
d q
ĠD ue
éĺ¶æ®µ è¿ĩæ¸¡
Ġnor m
! (
5 90
Ġ æĸĩä»¶
Ġs ides
ĠH ouse
æĦı åĲĳ
Ġac ting
37 1
xx x
åį³ä½¿ åľ¨
Ġadap tive
æĪĳä»¬æıĲåĩº äºĨä¸Ģä¸ª
çĪ±å¥½ èĢħ
Ġunu sual
çļĦ åĬĽéĩı
Ġp s
vi ve
}\, ,\]
45 8
48 1
39 6
çļĦ ç»ıèĲ¥
æĪĳ ä¸į
ä½ĵ è´¨
Ġas ymmetric
å°± æ²¡æľī
éĢļè¿ĩ å°Ĩ
Ġres olved
struc tures
Ġfac ilities
i T
Ġ åĻ¨
Ġs ong
æĺ¯ å¤§
çģ ¶
æķ°æį® ä¸Ń
å¸Ī åĤħ
è¶Ĭ å¥½
åįļ ä¼ļ
h m
Ġe psilon
åħ¬ ç§¯éĩĳ
Ġte a
ç»´ åº¦çļĦ
é¦ĸ è¦ģ
47 7
39 7
æı´ åĬ©
åħ¬å¸ĥ çļĦ
e ps
Ġ æĪĸèĢħ
ĠT rans
Ġdi ed
48 9
Ġconduc tance
Ġmi les
bur g
ece mber
9 50
u sive
Ġ ~\
æ¨¡ èĮĥ
Ġra w
30 5
35 3
Ġoscil lation
2 12
D I
ĠS m
åĵģ ç±»
çĹ ĺ
ä¾ĭ å¤ĸ
åĸĦ äºİ
æĲ¬ è¿Ĳ
Ġsal t
Ġ èĩªçĦ¶
éĩı ä¸º
æį §
åħ³ çĪ±
Ġcomp licated
äº¤ æīĢ
éĺ¿ æ£®
äººä»¬ å¯¹
Ġ é¢ĨåŁŁ
Ġ æĿİ
Ġd n
Ġk ept
åİŁ æ²¹
æĭī ä¼¸
å¤ª å¤§
æħ ¨
æµĭéĩı ä»ª
35 8
37 6
è¿ĩ å¤§
å¹³ åĩ¡
æ°Ķ æµģ
45 7
çĸ¯ çĭĤ
è¥¿æł¼ çİĽ
Ġp ip
Ġto xic
è¶Ĭ å¤ļ
men ta
éĵº è®¾
æĹłäºº æľº
M V
X å°Ħçº¿
ho t
æĪĲ ä¸Ģä¸ª
Ġcou ple
æĴŃ åĩº
34 4
Ġtrans mit
Ġcirc le
å¼¥ è¡¥
Ġinnov ation
Ġrough ly
+ (-
C B
åľ¨ éĤ£éĩĮ
ĠW i
å¸¦ å¤´
èĲ¥ è¿Ĳ
^* }
å¼¹ ç°§
åįģåĽĽ äºĶ
Ġslo pe
çļĦ åĽ½å®¶
åľ¨ éĿŀ
ä¸Ĭ è¯¾
lo c
äºĮ ä¸ĸ
çģ« å±±
ä¸Ģèµ· æĿ¥
el ler
Ġst ro
æĻºèĥ½ å®¶å±ħ
ove mber
æ°¯ åĮĸ
çļĦ ä¸¤ä¸ª
çĶ ¸
æŀĦå»º äºĨ
4 66
çļĦ é¢ľèī²
åĴĮ æ°´
ĠL at
om s
èĴ¸ æ°Ķ
çĶµåĬ¨ æ±½è½¦
2 16
f riend
äºĨ æĪĳ
an aly
ĠD ep
å¯¼ çĥŃ
æĺŁ åĽ¢
ä¹¦ ä¸Ń
Ġopen ing
Ġrecogni ze
it t
å¹´ ç¾İåĽ½
ĠS olar
Ġha t
å½ĵ æĪĳä»¬
çĻ¾ ç§ĳ
Ġglu on
7 80
åħī çº¤
ten sion
in su
ĠA pril
Ġma le
è¯Ħ çº§
37 7
Ġ æīĵ
åħ¶ åľ¨
Ġha bits
å°Ħ éĹ¨
éĿŀå¸¸ çļĦ
Ġga ses
48 3
ç»¼åĲĪ ä½ĵ
rin k
Ġlocal ization
è¸ ©
Ġhierar chy
Ġthor ough
Ġla bor
Ġper man
ven ue
å¨ģ å»ī
åĲĮæ¯Ķ ä¸ĭéĻį
æĺ¨ æĹ¥
Ġrepla ced
6 33
ç»Ļ ä»ĸ
sp here
Ġval ida
Ġreflec t
ä¸Ń æľŁ
era py
æĹĹ èĪ°
çĵ· çłĸ
Ġchemical s
Ġtime dependent
å®ĮæĪĲ çļĦ
SS M
éĶģ å®ļ
f ol
Ġd oub
å¹´ éĻĲ
ĠF ound
ä½į ç§»
ç½® äºİ
Ġev olved
Ġshe et
Ġmil k
æģ¶ åĬ£
gal actic
Ġfru its
Ġdop ing
G W
æĿ ı
åı¯ çĪ±
Ġwe t
ä¸ĵ å±ŀ
åįĬ å²Ľ
è£Ĥ ç¼Ŀ
Ġbra ne
Ġrecogni tion
çļĦ åŁİå¸Ĥ
ta ted
ent ric
èĢĮ éĿŀ
çĶŁäº§ ç»ıèĲ¥
ç©¿ è¿ĩ
æ¾³ æ´²
Ġinvarian ce
3 16
h s
Ġ åįĹ
Ġ åħ¨åĽ½
in to
ge red
è¡¨ çļĦ
çī¹ æĸ¯æĭī
Ġbr igh
Ġdiagn os
isen berg
æ½®æ± Ĳ
H K
Z n
de p
å¢Ļ å£ģ
xi al
æ· ¬
æĶ¹ ç¼ĸ
35 6
åģı ç¦»
çĻ½çĻľé£İ åĮ»éĻ¢
éģĹ åĿĢ
Ġsuff er
æ¸´ æľĽ
Ġ çĶ¨æĪ·
re ns
è½¦ èº«
Ġro les
Ġdec ade
48 2
åĪĽéĢł äºĨ
Ġbegin s
ĠS en
æıĲ æ¡Ī
Ġpure ly
p ting
re ncy
æĸ½ åĬł
29 5
29 9
å®Ŀ çŁ³
ä¸įæĸŃ æıĲåįĩ
Ġprotec ted
Ġangle s
Ġbary on
Ġ æ¯ıä¸ª
è¿Ļ åº§
ĠB row
å·² åľ¨
Ġåľ¨ æľ¬æĸĩ
åıĺæĪĲ äºĨ
Ġ ç®Ĺ
Ġ æĿĲæĸĻ
or mal
ä¸Ģ ç±»
ĠM ag
çĽ´ è¾ĸ
æ£Ģ ä¿®
^{* }(\
35 4
Ġco py
æ²¹ å¢¨
45 3
æģĴ å¤§
çĶµåĬ¨ æľº
åı¯æĮģç»Ń åıĳå±ķ
5 12
è½¬ ä¼ļ
é¦ĸåħĪ è¦ģ
Ġcoordin ate
6 85
y pes
çļĦ è§£åĨ³æĸ¹æ¡Ī
å½ ¦
åĬ¨ åĳĺ
å¤ļ å±Ĥ
6 99
9 60
Ġ å¹³åı°
Ġ è®¨è®º
ti mal
ä¸Ĭ éĿ¢çļĦ
èĮ «
æıı åĨĻ
è°Ī åĪ°
7 67
k u
Ġ åģĩè®¾
ä¹Ł è®©
å½ĵ éĢī
olog ists
29 3
46 4
bru ary
D r
M ax
æĦŁ çļĦ
29 7
å¾Īå¤§ ç¨ĭåº¦ä¸Ĭ
Ġbin ding
åį ī
ä½ľ æĽ²
åĳ µ
}= |
45 2
çłĶè®¨ ä¼ļ
ĠAustra lia
itro gen
Ġ )=\
æıĲ èµ·
Ġreg ulations
Ġgra ss
37 3
Ġdep loy
5 99
v olu
åı¯ éĢļè¿ĩ
åŃĲ å®«
æ°´ å¤ĦçĲĨ
è£ ¤
Ġz er
row ing
29 6
95 2
åĿļæĮģ ä»¥
ç¡« éħ¸
Ġatm ospheric
Ġdifficul ty
ä¸į éĢĤ
æĢ§ ä¸İ
åĬĽ äºī
we ak
ä¸¥ å³»
ĠLa w
æĺĨ èĻ«
A O
M ac
Ġ }_{
Ġf ur
Ġy ellow
éĤ£ å°±
:= (
Ġcompu ters
igh th
Ġv illa
olog ist
Ġn ine
çĽ¸ çŃī
æĢ» ä¹ĭ
ä¸Ģç§į æĸ°çļĦ
çĽ¸åħ³ åħ³ç³»
Ġhelp ed
Ġnucle us
Ġnoncommu tative
7 90
Ġh our
Ġon set
Ġco verage
èĢĮ å¯¹äºİ
ĠO ff
å±Ĥ å±Ĥ
çĭ ł
39 2
Ġ è·¯
Ġ åħĪ
Ġ ç§ĳæĬĢ
çļĦ ç»Ħç»ĩ
åľ° åĿª
ä¸İ ä¹ĭ
è¡Įä¸ļ åıĳå±ķ
æĤ£ æľī
æĸĩåĮĸ åĴĮ
åĨ· åºĵ
Ġuni vers
å¯¹ç§° çļĦ
97 9
è½¬æį¢ ä¸º
Ġloss es
8 80
M W
d F
Ġ éĢļ
éĴ ĵ
çŁ³ æĿĲ
æģĴ æ¸©
36 2
overn ment
brac ket
ch er
Ġqu en
æĪĺ ç»©
}\, .\]
åĪĩ åīĬ
èĢĥèĻĳ çļĦ
åĳĬè¯ī è®°èĢħ
ä¸º æľŁ
å± ł
çłĶç©¶ äººåĳĺ
å¸Ī èµĦ
})} &{{
åıįæĺł äºĨ
M an
Ġex ceed
åı¦ æľī
nol imits
st one
Ġg ar
èī ĺ
åŁº è´¨
5 47
l k
å¾Ĺ çļĦ
æł¼ æŀĹ
Ġpar ton
Ġvari ance
åł ¤
38 2
'' +
Ġfeel ings
Ġvo ice
ä»¥ èī²åĪĹ
Ġfor mat
æĸ½ è¡Į
ph er
æĺ¾èĳĹ çļĦ
åľ¨æľ¬æĸĩä»¶ ä¸ŃæĪĳä»¬
re pres
æ± Ľ
ĠG i
æµ· åĨĽ
ç©ºéĹ´ åĴĮ
40 6
Ġquan tity
work s
æľºæ¢° è®¾å¤ĩ
Ġtu be
Ġdistingu ish
8 50
9 67
æµģ å¤±
è®º è¯ģ
æĺ¾ çİ°
Ġ6 9
é»Ħ æ²³
ĠChris tian
f ound
çļĦ åĲĪä½ľ
mp ed
æŃ£ éĿ¢
Ġfi les
èĪ¬ çļĦ
æ¾Ħ æ¸ħ
Left rightarrow
' _{\
: \,
ä¸Ģ æĿ¥
Ġto wn
åĴĮ çĥŃ
åĪĨ å·¥
Ġcomp o
æİ§åĪ¶ çļĦ
Ġgrow s
æľ¬èº« çļĦ
6 47
7 20
7 68
ra bility
mb le
åıĺ åİĭåĻ¨
\| <
äºĴ éĢļ
è§ģ éĿ¢
97 2
ç»ĺ åĽ¾
Ġ è¯·
ä¸Ń åħ±
Ġnew ly
Ġpe aks
Ġmul tic
æĹ¥å¸¸ çĶŁæ´»ä¸Ń
Ġ æĹħæ¸¸
åľ¨ äºĨ
op hy
å¸¸ è¯Ĩ
Ġ20 22
èģĮä¸ļ çĶŁæ¶¯
Ġpuls ar
ic ity
Ġre mn
è¦ģ çĤ¹
åľ° åĪ©
å»º æŀĦ
è¯Ń ä¹ī
Ġver sions
Ġflow ers
Ġgovern ments
ä¸Ń ä»¥
å®¶ å±ŀ
var sigma
çİ¯ çļĦ
ĠV e
æĮī è§Ħå®ļ
Ġhy d
å¤® è§Ĩ
r cl
x f
Ġ ä¾ĭå¦Ĥ
æĿ¥ ä¸´
Ġne ur
39 3
46 9
ĠTechn ology
B F
{ }_{
çļĦ éĢļçŁ¥
Ġth r
çĲ ī
æĪĲ å½¢
èĩª ä»İ
èĬ Ń
æĦı åĽ¾
æĮĩ çº¹
ä¸»è¦ģ åĮħæĭ¬
èµ° äºĨ
æ¼ı æ´ŀ
åłĨ ç§¯
ç¦ıå»º çľģ
3 15
})\ ,\
Ġinte rior
Ġphys ically
åĨħéĥ¨ çļĦ
å¡« æĬ¥
çŀ »
Ġinequ alities
Ġfir m
æĶ¾å°Ħ æĢ§
di amond
å¤ĸ åĩº
åĬ© æİ¨
44 3
Ġnucle on
Ġderiv ative
æĪĲå¹´ äºº
Ġ ç»ĵåĲĪ
çļĦ çĶ¨æĪ·
æĺ¯ æ²¡æľī
Ġco res
vi an
æĭī èĴĤ
38 6
å®¡ ç¾İ
Ġtur ned
èµĦ æ·±
ç»´ å¥ĩ
33 5
å¡« æĸĻ
n f
)\ }\)
ac tions
ĠO ctober
pre ad
ker n
Ġsurv ival
5 85
çļĦ ä¸ª
æīĢ æľª
ä¾Ľ æļĸ
ph en
å½¢æĪĲ ä¸Ģä¸ª
æī§ ä¸ļ
åĸľ åī§
çĤİ çĹĩ
ĠSe veral
æ²¥ éĿĴ
{\ |
Ġto uch
Ġ( ),
è¥¿ èĹı
38 9
36 3
ä¸Ģ æľŁ
æ°´ æ³µ
æĽ´ èĥ½
èģļ ä¹Ļçĥ¯
åĮĸåŃ¦ åĵģ
Ġopera te
å°ºåº¦ ä¸Ĭ
produc t
çĥŃæ°´ åĻ¨
5 66
çļĦ æ´»åĬ¨
math tt
åľ¨ åľ°
}} },
çłĶç©¶ åĴĮ
ç»Ī èº«
Ġdef ects
çĶŁçī© åŃ¦
tero l
ç´Ĭ ä¹±
] \,
Ġcon vec
åĪ¶ åĬ¨
bb ard
ĠP u
æĸĩ ä¸Ń
ĠD y
åİŁ æĿ¥çļĦ
ari a
48 7
Ġcar s
Ġguid ance
5 69
V I
åīį è¡Į
ĠV is
æ¹¿ åľ°
ä»£çĲĨ åķĨ
Ġcommunic ate
8 60
Ġ å®ŀ
ä¸Ģ ç»´
38 7
ä½Ļ é¢Ŀ
Ġreason able
Ġguid elines
bet ween
Ġannu al
Ġ ä»£
es is
çī¹ å°Ķ
ĠP rin
å½ĵ æĹ¥
è¯´ åĪ°
Ġpar ties
éĶĻ è¿ĩ
æľī å¿ħè¦ģ
æıĲ åıĬ
},\ \\
åĲĦ æľī
åįĥ å¹´
Ġcons istency
è¿Ĳè¡Į çļĦ
Ġfr ust
U N
v als
éĢł çº¸
Ġra ised
æ¢ Ń
çħ§ å°Ħ
æĿ¥è¯´ æĺİ
ä¼¸ ç¼©
Ġprep are
Ġth reat
æĺ¯ åħ¶
li e
æĬĢæľ¯ ä¸İ
Ġ20 18
istic s
åĵ¥ ä¼¦
äºĨ ä¸ª
å°Ĩ å¯¹
åģļ åĩºäºĨ
ç»Ĩ åĪĻ
_{+ }\
éģį å¸ĥ
ĠMa ke
Ġmedic ations
æĴ¤ éĶĢ
3 12
9 88
Ġ è¾¾åĪ°
ä¸Ģ ä¸Ģ
ä»¥ ç¡®ä¿Ŀ
Ġh ur
ĠS ky
ĠK o
æĵį æİ§
èĨ ³
å¯Ĩåº¦ åĴĮ
fici ency
n z
{ ]
Ġa ci
Ġf loor
çĶŁ äºİ
é¢ Ĥ
é«ĺ åħ´
æı ½
åħ¸ ç¤¼
}}= -\
æĹ¥ å¿Ĺ
ĠF ran
æĺ¾ç¤º çļĦ
Ġrela tivity
è¶£ åĳ³
K o
lo ss
nt ro
97 6
Ġele v
Ġcorrec tly
hal f
z ations
çļĦ éĻĲåĪ¶
Ġdis cip
æīĭ æ¸¸
Ġfi ll
29 8
æĬĹ ä½ĵ
78 9
æĪĲåĬŁ åľ°
}}, }\
oun ted
è¿Ļ æ®µ
åķĨ è´¸
åĽĽ ç§į
Ġapplic able
7 88
7 65
th le
èĩª å¾ĭ
95 6
çĶ² çĬ¶
Ġassoci ation
7 49
Ġo w
la ton
å®¶ åºĦ
æĪĺ æľ¯
Ġcou rt
Ġ\(|\ ,\
Ġintegral s
Ġintroduc ing
) )\\
t f
Ġco herence
åİ» åģļ
29 2
è¿Ļæł· ä¸Ģä¸ª
45 1
Ġlim itations
åĪ¶ä½ľ çļĦ
P b
Ġ è¿ĲåĬ¨
Ġlo oks
åĢ¼ åĴĮ
è¯Ń æ³ķ
åĲĪä½ľ çļĦ
é¦Ļ åĳ³
çŁ¥åĲį åº¦
æłĩå¿Ĺ çĿĢ
Ġcro ps
Ġ ç¾İ
}} }_{
è¥¿ æ´ĭ
äºļ é©¬
åıĮ å±Ĥ
Ġdiffere nti
37 4
ç¡¬ çĽĺ
Ġcent re
ä»įçĦ¶ æĺ¯
èŀº æłĵ
K S
ç® Ķ
åĪĨå¸ĥ åľ¨
åľ£ è¯ŀ
5 98
9 85
Ġte nds
è¿ĳ è¿ĳ
ĠJ anuary
Ġ7 1
å®ł çī©
n atural
Ġ æľª
Ġt ric
è¶ ģ
çĿ ¿
mo lec
fi er
40 2
44 1
æ£® åł¡
æľīæľº çī©
æĬĽ åħī
Ġten sion
cripts tyle
Ġtru th
Ġ è¡¨éĿ¢
ac he
å®¢ è¿Ĳ
ç¥ŀ å¥ĩ
çļĦä¸Ģ æ¬¡
èĽĭ ç³ķ
éĶĻè¯¯ çļĦ
Ġpor tion
æĥ© ç½ļ
) }^{(
L F
åľ¨ æĪĳä»¬çļĦ
Ġ7 3
45 9
ç§ĭ åŃ£
ĠEng land
bel ian
illi am
w al
Ġ ray
ç®¡çĲĨ åĪ¶åº¦
å°¤ æĸĩ
æ¶īåıĬ åĪ°
Ġshi fts
ta ng
ĠC y
55 6
Ġcontain ed
7 69
ä¸Ń å±±
æł¸ ç®Ĺ
38 1
scripts criptstyle
æķ´ è½¦
C hi
u ps
éħ ®
Ġus age
Ġfi ts
è®° ä¸º
str ong
( ,
7 70
R ob
Ġ å·¥ä¸ļ
Ġ é¢Ħæµĭ
ĠC MB
å°± è¯»
ĠB ud
æµ· ä¸Ĭ
æī£ éĻ¤
8 90
ï¼Į ãĢĤ
è¦ģ æĬĬ
Ġma x
æµģ çķħ
éĢļè¿ĩ åľ¨
åŃĹ èĬĤ
çľģ å§Ķ
man y
è½» æĺĵ
éĢłæĪĲ äºĨ
97 3
åĩºçīĪ ç¤¾
ĠMe thod
Ġwire less
M s
ä¸Ģ çŃīå¥ĸ
å¹³ å¸¸
æĽ´ åħ·
æĹł æľº
ck ed
Ġsa f
å¼Ĥ çļĦ
xy z
Ġcomb ining
eli ke
Ġpriv acy
tribut ing
= (-
r l
w ords
Ġ æ²»çĸĹ
Ġ æķ°éĩı
å®¶ ä¼ģä¸ļ
ç©º æł¼
ç§° ä½ľ
éľĢè¦ģ æ³¨æĦı
å¦Ĥæŀľ æĪĳä»¬
col one
ç½ĳç»ľ ä¸Ń
å´ Ľèµ·
Ġsens ors
7 60
åı¯ä»¥ éĢīæĭ©
ç¤¾ä¼ļ è´£ä»»
}] _{
æĦıä¹ī ä¸Ĭ
åĢĴ æķ°
åĿĲæłĩ ç³»
Ġdrin king
Ġg ran
æķĻ çłĶ
å¯Ĩ çļĦ
å¿ħ å®ļ
40 7
ä¼łç»Ł æĸĩåĮĸ
8 67
; (
Ġ )^
Ġ éĥ½æĺ¯
çļĦ æ¯ĶèµĽ
ul f
ms elf
å¼Ģ è¾Ł
ĠJ oseph
çªģ åĩºçļĦ
çº¸ ç®±
å¢ŀåĢ¼ ç¨İ
7 75
T s
a da
nd ing
èĩª åĬ©
ni um
æĬ¥ éħ¬
Ġli e
33 9
åħ¬åħ± åį«çĶŁ
ä¸¹ éº¦
æģĭ çĪ±
Ġmeet ing
Ġleg is
I mp
d ue
l brack
Ġ å®ĩå®Ļ
çļĦ è·Ŀç¦»
ĠC r
ç½ĳ çļĦ
æº ī
é¦ĸ éĢī
Ġmar ked
algebra s
x ing
| |_{
ĠS tre
}+ {
33 4
ace book
å®ĮæĪĲ åĲİ
çī¹çĤ¹ æĺ¯
ĠCon trol
p mb
} *
çļĦ èĩªçĦ¶
Ġs tem
ĠSD SS
å¥ İ
li ps
å¤ļ ä¹Ī
æ°´ æºĲ
ä½ł æĺ¯
Ġsus p
éĿ¢ éĥ¨
29 1
ä»ĺ è´¹
å¼ĢæĶ¾ çļĦ
Ġemerg ency
wave length
Ġsupers ymmetry
= |\
H P
Ġ åħ¬
çº¿ åľĪ
id el
for tunately
Ġch rom
è®² ç©¶
di ffere
æ°ĳ èŃ¦
Ġ è§£åĨ³
æľī ä¸Ģå®ļ
qu ar
ĠM g
ĠM u
äº¤ å¾Ģ
æĬ¥ çº¸
Ġmod ification
Ġ\, =\,
è¯Ń åı¥
å»ºè®¾ åĴĮ
Ġcomple ted
Ġhad ron
ä¸¾åĬŀ çļĦ
Ġfil led
Ġclean ing
çĶµçº¿ çĶµç¼Ĩ
7 85
Ġ çº¢
de termin
ä¹Ł åı¯èĥ½
æ°Ķ åĳ³
éĻĪ è¿°
æĬĺ å°Ħ
å´ Ķ
8 49
ä¸Ģ æĹ¥
Ġb low
æĺ¯ æł¹æį®
æĹ¶ åºĶ
ĠM i
ĠB r
id ents
å®īè£ħ åľ¨
H is
Ġ å¸¦
le pton
Ġb is
ä¸İ æĪĳä»¬
æĥ³ èµ·
åºķ å±Ĥ
å¿ħé¡» åľ¨
Ġclo ser
cons tant
2 13
3 21
C V
çļĦ åıĤæķ°
}, ...,
Ġme th
è¾¹ å½¢
åºĹ çļĦ
èµŀ åĬ©
Ġsatisf ies
Ġbund le
ĠAssoci ation
8 68
S ta
Ġ çī¹åĪ«
Ġs end
å¤§ éĿ¢ç§¯
ĠR us
åıª ä¼ļ
è®¤è¯Ĩ åĪ°
c us
at al
èĩª æĦ¿
å¹¶ æıĲä¾Ľ
33 8
å¾® ç±³
95 1
ç§¯æŀģ åıĤä¸İ
2 14
z u
Ġ çº§
Ġ ç®Ĺæ³ķ
at z
åı¯ ä¾Ľ
æ¯Ķ çļĦ
æ°´ åĴĮ
æĢ» ä¼ļ
Ġrela te
éĩĩçĶ¨ çļĦ
ens es
å±ı èĶ½
}} }}\
æĺŁ åº§
åī¯ éĻ¢éķ¿
æĻļ æľŁ
C or
ga thered
ä¸ī éĩį
Ġper ce
çı Ĭ
95 7
unc tions
Ġdissip ation
he y
ĠD igital
å®ī éĺ²
å¼º åĬ¿
ä¸Ģç§į æĺ¯
é£Ł åłĤ
Ġvari ational
æĶ¿åºľ çļĦ
æīĺ ç®¡
44 2
ä¼´ éļı
æģĲ æĥ§
åľ¨ æľªæĿ¥
ä¿Ŀ ç½Ĺ
ĠO ut
}}{ {\
éĢĤ éĩı
Ġno ted
Ġcla ims
å¤ļå°ĳ éĴ±
Ġinstitu tions
7 47
æĪĳ åĴĮ
è´µ æĹı
æĹ¶æľŁ çļĦ
Ġeffec tiveness
O nce
ä¼ º
çĥŃ çº¿
æ³¢ çº¹
çº¯ åº¦
pr int
u lated
an k
æĹ¶ ä¼ļ
æ¸ Ĭ
åĪ¶ è®¢
è®© åŃ©åŃĲ
ä¸ľ é£İ
Ġpre fere
46 1
Ġcrea tive
çłĤ æµĨ
åŃµ åĮĸ
7 66
8 99
ï¼ ĳ
æŀ «
ĠM al
å°Ĩ è¢«
Ġpar ty
èĭı èģĶ
T ra
Ġ èĢģ
å®ļ å±ħ
è° £
os c
èµĦæľ¬ å¸Ĥåľº
æ»ļ åĬ¨
æł¸éħ¸ æ£Ģæµĭ
Ġde gra
å¯¼ å¯¼
è¶ħè¿ĩ äºĨ
R G
Ġ è¡¨
Ġ æľĢå¤§
ä¸į å¿ĺ
ex peri
Ġtw ice
æ¶ī å«Į
Ġ ä»İèĢĮ
ä¸Ń ç§ĭ
ä½ĵ ä¸Ń
èĭ± å¯¸
æ´½ è°Ī
Ġ å¾·
çļĦ æ¸¸æĪı
ne g
ç»Ħ éķ¿
om for
Ġdis t
Ġconcern ed
4 20
O F
p n
Ġ }}\
åĩº èī²çļĦ
æīĭ æĮĩ
åĮĹ æŀģ
è®¢ è´Ń
åľ£ ç»ı
éĩİ çĶŁ
qu est
è¿Ľè¡Į åĪĨæŀĲ
Ġen zy
éĢŁåº¦ åĴĮ
æ© ĺ
D uring
æĺ Ń
èĥ½ çļĦ
å®ļ åºı
ĠC os
ĠE gy
Ġse tup
åĿĩ æľī
ç»Ī çĤ¹
tin y
def ined
P L
ä¸Ń åľº
å¤§ ç±³
ĠW estern
sp aces
çħ İ
ç¬¬ä¸ī ä¸ª
ma tes
ne gative
æ¸© åĴĮ
æİĴ æ±¡
åĪĹ ä¸º
ä»ħ ä¸º
40 4
åºķ çº¿
éĢŁåº¦ å¿«
val ue
ä¿¡åı· çļĦ
çİ°å®ŀ çļĦ
Ġ å½¢
ic ate
ĠW ashington
æıĲ åĢ¡
ĠM ulti
ow ski
çŁ³ çģ°
50 1
Ġbo ost
åħļ åı²
ĠAn other
Ġtransp ortation
g m
ĠĠ ĠčĊ
åŀ Ħ
ĠE uclidean
å¹¿ ä¹ī
åĭ ī
40 1
Ġ20 17
colone qq
A meric
åĬł æ·±
åīį åĪĹ
è¾¾ æłĩ
æŁ¥ éĺħ
æ¸¸ è§Ī
Ġsupp ressed
_{+ }(
V i
Ġ ä½ķ
åı¯ æİ§
ĠA rt
éĿ¢ åĮħ
é¡ ·
quir ing
8 66
ä» Ĺ
Ġb ag
åı¯ å®ŀçİ°
å±ķ æľĽ
ç¼ ħ
æķ°æį® åĪĨæŀĲ
ion al
C al
b mod
Ġ è¿Ľ
Ġn ations
åĳĺ çļĦ
Ġvari es
æ¿Ģ åĬ¨
Ġ ç±³
ä¼ ŀ
)^{ *
q p
è¿ ¦
åľ¨ èģĮ
Ġli te
åĩı ç¼ĵ
éĿĴ æµ·
Ġsee king
Ġexpec tations
ä¸Ń çº§
çĲ Ĳ
li ve
åĩº è¡Ģ
vel ocity
åĽĽ åŃ£
Ġgra in
pend icular
Ġworld wide
Ġcl ari
2 17
é«ĺ èģĮ
åľº é¦Ĩ
Ġar Xiv
æ¼Ķ ç»İ
è¿Ļæł· åģļ
æļĹ ç¤º
æĪĺçķ¥ åĲĪä½ľ
h ns
ä½ĵ åĴĮ
res ts
æĮī æĹ¶
ä¼ļè®® å®¤
Ġcombin atorial
7 98
9 70
ĠA U
å¼Ģå§ĭ äºĨ
Ġthough ts
Ġdiag onal
Y M
e ir
æĬķ å°Ħ
æł¸ åĩĨ
åªĴ ä»ĭ
Ġremo te
Ġinterpre t
Ġlens ing
8 65
_{ >
Ġis land
çĶŁ æ®ĸ
åŃĲ ç©ºéĹ´
ç»ĵ çĤ¹
33 7
åħĭ æĭī
Ġ8 5
è´£ ä»¤
ä¹° å®¶
}/ (
æĭ¿ ä¸ĭ
çĿ£ å¯¼
æł·æľ¬ ä¸Ń
é«ĺæĸ°æĬĢæľ¯ ä¼ģä¸ļ
çļĦ åįĬ
ti mate
ou ts
ä¸İ ä¸ŃåĽ½
Ġcon temp
çŃī åĬŁèĥ½
ĠC e
éĥ¨ èĲ½
mon y
ç¦ı å¾·
ä¿Ŀè¯ģ äºĨ
Ġemerg ing
yth on
E F
åķ ¥
77 8
Ġ\; ,
æ²Ļ æ¼ł
ĠRo man
Ġsymp lectic
åľ¨ æ²¡æľī
ä¸į æ¸ħ
å¸Ĥ çļĦ
Ġar range
})= -
å½ķ åĪ¶
åģı å¿ĥ
å¤ļé¡¹ å¼ı
éĩĩè®¿ æĹ¶
Ġw rote
å¤§ å¥ĸ
Ġm ountain
ä¸Ĭ æĺł
ĠM at
åīį éĶĭ
çĽ® åħī
åĲĳ ä¸ĭ
æĶ¯ çĲĥéĺŁ
Ġdrin k
Ġplat forms
p osed
} }{|
Ġ åĨħå®¹
åıĳ åĬĽ
æĪĳä»¬ èİ·å¾ĹäºĨ
å¯¼ åħ¥
57 1
ä¸įä»ħä»ħ æĺ¯
moment um
9 80
Ġ æĸ¹ç¨ĭå¼ı
æľī ä¸Ģç§į
ä¸Ĭ è¿Ľè¡Į
æĪĳä»¬ ç¡®å®ļ
rea te
çı Ģ
45 4
Ġdef inite
Ġmove ments
æķ° ä¸º
åľ° åĿĹ
éķ ĳ
å¾Ī åı¯èĥ½
çģ« çĦ°
å¸ĮæľĽ èĥ½
èĢĲ é«ĺæ¸©
å¼ķåĬĽ æ³¢
åĩ¸ æĺ¾
æıŃç¤º äºĨ
Ġ ä»£æķ°
åĴĮ å¹´
åĨ Ģ
=\ |
ĠG alaxy
èģĶ åĤ¨
é£İ åĳ³
ĠV ol
æĬ¥ è¡¨
æķĻèĤ² å±Ģ
å¼ł éĩı
Ġover view
Ġrep ul
çłģ å¤´
Ġlea ving
ĠHu bble
| ^\
(\ |
éķ¿ ä¹ħ
æĢ» åĨ³èµĽ
ĠJ ournal
ä»į æĺ¯
äºĭå®ŀ è¯ģæĺİ
Ġ æİ¥
åı¯ä»¥ å¯¹
Ġti dal
åĬ¿ å¤´
40 8
ç»Ŀ å¤§å¤ļæķ°
äººæ°ĳ ç¾¤ä¼Ĺ
åħ·ä½ĵ åľ°è¯´
è¯´æĺİ äºĨ
Ġri ver
Ġperform ing
èģª æĺİ
ol ars
ä¸Ĭ çľĭ
åħ¥ é©»
Ġdi electric
33 6
èĬ± åįī
å¢ŀéķ¿ çļĦ
_+ ^
Ġge odes
2 18
p tions
ol ic
æ¯ ¯
é«ĺ æ¡£
éĥ½ åħ·æľī
Ġmo is
row eak
æİ¨ çĲĨ
Ġ7 6
æģ¶ æĢ§
Ġfocus es
Ġbur sts
Ġ å¾Īå¤ļ
Ġ å½¢å¼ı
åĴĮ åĪĨæŀĲ
dis tance
å®ī å¾·
æĿ¡ çº¦
40 9
å¤§å¹ħ åº¦
lescop es
8 55
a ma
æĪĳä»¬ æıĲåĩºäºĨ
æŀģ åħ·
é¥ ¶
è®¡ç®Ĺ çļĦ
Ġar ticles
è¾£ æ¤Ĵ
p ul
çŃī æĥħåĨµ
å¢ŀéķ¿ çİĩ
èĦ± èĲ½
è§ĦèĮĥ åĮĸ
Ġinj uries
f il
ol tz
qu bit
}) }.
Ġmo tivated
çĿĢ éĩį
\, =\,\
å¹² é¢Ħ
åįĥ åħĨ
ç«ł ç¨ĭ
Ġag grega
ç³»æķ° çļĦ
æ¦ľ åįķ
3 25
b oth
Ġmo tions
ç»Ļ åĩºçļĦ
è¿ŀ ç»ĵ
Ġsto ck
èĶĵ å»¶
Ġsp orts
äºĨè§£ ä¸Ģä¸ĭ
Ġhad ronic
Ġmet als
he ir
èĥ °
éľĢè¦ģ åľ¨
åĬ¿ åĬĽ
çĦ¶åĲİ åĨį
96 1
Ġ ^\
è® ½
äºº åĿĩ
åŀĭ ä¼ģä¸ļ
ĠThe ory
Ġfluctu ation
Ġconside ration
s yn
éĩı éĩı
^{\ ,
å¼Ģ éĩĩ
ç»ĵæŀľ æĺ¯
ä¹ĭåĲİ çļĦ
é¥® çĶ¨
Ġ éģĵ
çļĦ æģĴæĺŁ
on do
åĴĮ ä¸ŃåĽ½
æľº åĴĮ
å» ĵ
ĠB et
dots c
é£İ æīĩ
åģļ ä¸Ģä¸ª
å·²ç»ı åľ¨
Ġ\; =\;
ç¡¬ åĮĸ
ç»ıå¸¸ åĩºçİ°
çļĦ å®ļä¹ī
re y
å¤§ ä¸ĵ
æĹ¶ è¦ģ
å¦ ĸ
ĠP res
æıĲä¾Ľ ä¸Ģä¸ª
å®¢ åİħ
çŁ¿ ä¸ļ
k p
me an
çŃī æķĪ
å°±æĺ¯ ä¸Ģä¸ª
æľīæķĪ æĢ§
äºĨè§£ æĽ´å¤ļ
95 9
æĭ¨ æīĵ
vio let
ä»£ ä»·
æ³¢ åĬ¨çļĦ
ä»ħ ä¾Ľ
Ġdec ide
64 2
åıĤä¸İ èĢħ
ä¸½ çļĦ
åĳ¼ åĲģ
Ġrespons es
u mber
str ing
Ġdec o
ç§ĳåŃ¦ çłĶç©¶
åĬ¨æĢģ çļĦ
èı² å¾ĭ
Ġhund reds
T F
ta il
æµģ ä¼ł
æİ¨ å±ķ
97 4
200 5
_{+ }^{
çģĮ æºī
Ġ ä¸Ķ
ç» £
åĴĮ ä¼ģä¸ļ
åĩº ä¸Ģ
å¹¶ äºİ
40 3
)| \)
å±Ĭ ä¸ŃåĽ½
åĮĸåŃ¦ åıįåºĶ
åĭĩ æ°Ķ
çļĦæľĢ å°ı
Ġansw ers
ĠDes pite
Ġsex ual
çļ ±
Ġs now
åĪ ĥ
Ġto w
erv ing
ç¢ Ł
sta nces
Ġund ers
éĩİ å¤ĸ
çģ¾ éļ¾
Ġmess ages
Ġco ffee
æ¬¡ çļĦ
lim inary
è®® ä¼ļ
Ġ7 8
æµ¸ æ³¡
A g
Ġ éĽĨ
ĠE l
çĻ½ å¤©
æĭī çī¹
ç»Ĩ èħ»
78 3
Ġag g
åĩłä½ķ åŃ¦
Ġaddress ed
Ġpul ses
è¿Ľåħ¥ äºĨ
96 3
éº¦ åħĭ
Ġ å¹³åĿĩ
Ġto le
ä¹Ł éĿŀå¸¸
op tical
Ġli ver
Ġ9 5
}{ -
æķ° çĽ®
åĮħ è£¹
Ġour s
Ġinclu sive
å¤« å¦ĩ
åºŀ å¤§çļĦ
m v
p ort
Ġ ä»Ģä¹Ī
ä¸Ń å¾®
ĠC lass
ĠF rance
Ġga ther
åīĤ çļĦ
æī¹ éĩı
èĩªçĶ± éĢīæĭ©
Ġ èĢĮä¸Ķ
Ġt rou
ĠN on
Ġpa id
é©¬ æĸ¯
95 3
95 4
æ¹¾ åĮº
mor dial
Ġsuscepti bility
7 99
Ġ åįİ
åŃ¦ è´¹
ä½ĵ çİ°åľ¨
Ġex cep
è¢« è¿«
è½» è½»
ĠUni on
å°ģéĹŃ çļĦ
Ġban k
U L
Ġt ro
æĦŁ åĨĴ
_{- }\
èŃ¦ æĸ¹
comple x
T hat
f ast
æ³ķ åĪĻ
å¤ĸ å¢Ļ
æĹ¥ æĻļ
è°ĥ åĬ¨
æĪĲä¸º ä¸Ģä¸ª
78 1
éļĨ éĩį
Ġindepend ence
Ġu ns
ä½ł åľ¨
æĭī ä¸ģ
Ġ7 4
Ġreg ression
Ġinten se
Ġinnov ative
9 75
D B
R R
Ġ åħ³
çŃī åĲĦç§į
ĠG au
Ġli brary
éĺ³ æĢ§
ä»ĭç»į ä¸Ģä¸ĭ
çĲĨäºĭ ä¼ļ
L et
Ġ ä¸įèĥ½
å¯¹ è¯¥
çŁ ¶
æµ· æĬ¥
é¥ ª
åĨĽ äºº
Ġinclu sion
æĩ Ĵ
ĠRec ent
c sc
les terol
æĳ Ķ
çŁ³ å¤´
Ġdec line
åī¯ ä¼ļéķ¿
å½ĵåľ° çļĦ
Ġta ng
fi ll
_{- }(
çī º
æŃ£ å¥½
å¼Ĥ è´¨
^- _
graph y
igen ous
Ġconsum ers
Ġinters tellar
äºļé©¬ éĢĬ
G RB
åĮ Ī
éĢļ èĥĢ
å·¥ç¨ĭ å»ºè®¾
Ġlong itudinal
Ġanalog ous
PV C
Ġ å¿ħé¡»
ĠW hy
å¼Ģ çļĦ
èĲ ĥ
æĿ¡ è§Ħå®ļ
55 1
64 1
8 70
{ }^
Ġ è¿Ľä¸ĢæŃ¥
Ġ éĢļå¸¸
Ġ è§£åĨ³æĸ¹æ¡Ī
ä¸ª å·¥ä½ľ
Ġse quen
è¶ħ é«ĺ
åĽĽ å¹´
æ´Ľ ä¼¦
Ġ æľŁ
Ġ\ {(
ä¸į æķ¢
ä¼ļ éĢłæĪĲ
æĥ Ł
Ġcen ters
Ġastro physical
9 66
ä¸į çĽ¸åĲĮ
Ġte ams
fra me
çł´ è£Ĥ
å¹¿æ³Ľ çĶ¨äºİ
Ġtor us
h r
çļĦ äººåĳĺ
ä¸į æĩĪ
å¾Ĺ å¾Ī
ĠR u
æĬ¥ è®°èĢħ
å¹³åı° ä¸Ĭ
Ġess ay
åĪ¶å®ļ äºĨ
Ġunc on
4 25
Ġ åŁº
er ts
ä¸į æŃ¢
å¼Ģ èĬ±
éħ ļ
cri ption
90 9
èĹ ī
åĪļ å¼Ģå§ĭ
çĵ¶ é¢Ī
Ġsw itch
] )\
d n
Ġan ten
éĩĳ éĴ±
åħ± çĶŁ
æ²¹ èĦĤ
çĶµåŃĲ éĤ®ä»¶
çĶ» åĨĮ
69 7
å·¨ æĺŁ
éĽ¨ æ°´
åĪĨç¦» çļĦ
I nc
ĠM is
åİŁ ä»¶
è¡Įä¸ļ ä¸Ń
æ½ľ åľ¨çļĦ
Ġneu ral
å¸ĪèĮĥ å¤§åŃ¦
T ho
æĹ¶ äºĭ
åĮĸ ä¸º
èĲ İ
æŃ¥ åħ¥
Ġexp ensive
ç²ĺ ç»ĵ
æŁı æŀĹ
brea k
Ġgenerator s
Ġswit ching
B ra
i q
Ġ è¶ħè¿ĩ
97 1
å¯ĨåĪĩ çĽ¸åħ³
åľ¨è¿Ļç§į æĥħåĨµä¸ĭ
éĻķè¥¿ çľģ
chro tron
çĽ´è¾ĸ å¸Ĥ
Ġ ä¸¤ç§į
ĠW ilson
ĠM ex
å½ĵ åĪĿ
)) +\
é¦ĸ åºľ
å¥ĸ åŃ¦éĩĳ
æľĢåĲİ çļĦ
äºĮç»´ çłģ
Ġwavelength s
S Q
re asing
Ġw ors
åı¯ä»¥ å®ŀçİ°
æį® è¯´
ä»» åĳ½
47 2
åı³ ä¾§
Ġbea uty
9 68
x rightarrow
Ġcul tures
çĲĨäºĭ éķ¿
Ġembed ding
Ġflexi ble
A c
Ġ ç¨³å®ļ
åĮ ¿
Ġsp ent
ĠV al
Ġgenera tions
æłı çĽ®
ĠGerman y
Ġfarm ers
ä¼Ĭæĸ¯ åħ°
T L
g lu
æĭ ±
ĠC en
ĠC ap
ä¸» çļĦ
ä¸»è¦ģ çĶ±
å·® ä¸įå¤ļ
é¢Ŀ å®ļ
57 6
Ġhi mself
æĮĩå¯¼ ä¸ĭ
çŃī åĪ°
é¢Ħ è®¢
Ġdes truc
Ġprob abilities
T B
Ġ çĽ¸å¯¹
éķ¿ è¿ľ
åĶ ĩ
åı· çº¿
æ²»çĸĹ çļĦ
] ^{-
Ġ æıĲåĩº
Ġ åĮĹäº¬
ft ing
Ġcomp ris
æīĭ åĨĮ
Ġimp ly
Ġspec i
Ġcomb ine
Ġquanti zation
3 11
H M
S ince
ãĢĤ [
çĽ¸ å¤Ħ
å¤ĸ è¡¨
è¿Ĳ ç»´
æ³¢ æĸ¯
ç¢³ éħ¸
ç´§åĩĳ çļĦ
çİ« çĳ°
S f
] =-
Ġ å¤§å®¶
Ġ èĮĥåĽ´
Ġw ont
éĤ£ æĹ¶
Ġes cape
çŁŃ çŁŃ
Ġass ist
æģ¶ æĦı
Ġflux es
åİķ æīĢ
ä½į å±ħ
åıĪ èĥ½
Ġmon ot
ä¸ļåĨħ äººå£«
Ġleaders hip
Ġ æıĲä¾ĽäºĨ
åĩº æľī
å¤© ä½¿
é¥ ¿
77 6
çĦļ çĥ§
Ġ å¸Ĥ
æĪĲ æŃ£æ¯Ķ
sq cap
å½±åĵį äºĨ
Ġcent uries
Ġdetermin istic
Ġtru ly
c z
Ġ äº§ä¸ļ
åĲĮ çŃī
åĪ¶ åº¦çļĦ
ç½ĳ åĿĢ
88 8
Ġmes ons
Ġscreen ing
2 19
C ç½Ĺ
H IC
Ġin stant
ĠW hite
åĨħ ç½®
Ġga ps
47 6
R A
s m
Ġ )}
ar di
æ³ķ å®ĺ
åĽ¾ çº¸
æīĵ è´¥
è¿Ļæĺ¯ åĽłä¸º
è®¡åĪĴ çļĦ
d it
åĲ ĵ
åħĭ çļĦ
Ġsub jects
èĸ ĩ
Ġexplo red
çĬ¯ è§Ħ
z on
Ġ æľīéĻĲåħ¬åı¸
Ġa er
å¹´ ä»¥ä¸Ĭ
åº¦ è¿ĩ
33 2
è®® é¢ĺ
æĸ¹æ³ķ æĺ¯
ä¹Ķ æ²»
Z e
ç¬¬ä¸Ģ æī¹
åĽº éĨĩ
åħħåĪĨ çļĦ
ĠMan agement
ä¸ºæĤ¨ æıĲä¾Ľ
j ust
Ġ ç¦»
åĴĮ ä¸ªäºº
ä¸º ä¸Ģä¸ª
å¹´ æĪĲä¸º
ä½Ĩ åį´
3 23
9 49
ĠM id
os ter
è®® åĳĺ
ç¢ Į
Ġcal ib
47 8
èīºæľ¯ åĵģ
å¼ķèµ· äºĨ
Ġo c
Ġf an
Ġg ut
èº ²
æĴ ¼
å½ķ éŁ³
ç§¯æŀģ æĢ§
}< |
Ġdecre asing
ä¸Ń æ¯Ĵ
æĪĳä»¬ æııè¿°
Ġsta nds
ä½İ è´¨éĩı
å£° èªī
åĪĨåŃĲ çļĦ
ç²ĺ åĲĪ
æľīäºĽ äºº
è´¯ ç©¿
Ġtransi ent
Ġmerg er
3 27
Ġp ot
mb ling
Ġde posi
å¸ĥ å°Ķ
è¿Ļæł· æīįèĥ½
S w
T g
Ġ ä»¶
è¡¨ æĥħ
éĩĮ éĿ¢çļĦ
åįģ åĩł
Ġfi lling
ä¸įä»ħ åı¯ä»¥
,\,\ ,\,
ç«ŀäºī å¯¹æīĭ
è±Ĩ èħĲ
ĠSep tember
æĭ ¦
æĮ ļ
æ¯Ķ èµ·
ĠD ise
è¿ŀ è´¯
tis tic
Ġevol ve
Ġdifficul ties
çīº çī²
ä¸Ń ä¹Ł
ä¸ª å°ıæĹ¶
åĪ° æľŁ
æ¨¡ éĩı
å¢ŀ å¹ħ
åı· åı¬
ä¼´ ä¾£
Ġview s
æīŃ çŁ©
éĺ¿æ£® çº³
Ġ å»ºçŃĳ
Ġ çī¹å¾ģ
å¸ §
}^ -
æĢ» æĬķèµĦ
Ġqu bits
å© ·
chan nel
æ³¨åĨĮ èµĦæľ¬
Ġmana ging
Ġada pt
ĠIs ra
ä¾Ľ çĥŃ
åįĹ éĿŀ
éĢŁåº¦ çļĦ
éĽ· è¾¾
Ġless ons
æİĴè¡Į æ¦ľ
Ġ æºĲ
ä¸ĵä¸ļ æĬĢæľ¯
47 9
èıľ åįķ
åĵĪ åĭĥ
åĢ¾ è§Ĵ
çļĦ ç»ĦåĲĪ
Ġthe res
Ġan s
çĽ¸ äº¤
å±ķ åİħ
47 3
Ġconduc t
Ġion ization
Ġclassi fied
ĠJa mes
Ġ æĬĹ
Ġs el
Ġc rop
ĠT es
è¡Į åĪĹ
ĠV ari
éĢļè¿ĩ äºĨ
Ġä¸Ģ èĩ´
69 8
78 7
çķħ éĢļ
ecu li
n b
å¾Ĺ çĽĬ
ä»ĸ ä¹Ł
Ġmo tiv
æķĪ èĥ½
çŁ³ èĭ±
50 4
Ġgra de
Ġcross over
Ġ æł¼
å®ŀ æķ°
ç¨ĭ å¼ı
Ġte le
åĨľ åľº
96 2
æ·±åĪ» çļĦ
Ġmemb rane
m erg
åľ¨ å¤ļ
åįķ åĲĳ
çĿĢ çļĦ
è·¯ çĶ±
æľįåĬ¡ åķĨ
ç¯ ·
åĸ· éĽ¾
Ġindepend ently
) {
æĥħ æĢĢ
æĢ» çļĦ
ĠK u
çŁ¥è¯Ĩ åĴĮ
çļĦæĸ° åŀĭ
hi bit
ä½ĵ æ¸©
è¡ĮæĶ¿ éĥ¨éĹ¨
ï¼ ı
Ġfor ced
vari ate
Ġfour th
æ°¨ éħ¸
çĥ¹ é¥ª
Ġ åĽŀ
æ°´ åºĵ
æİ¨ ä»ĭ
Ġab elian
å®¢ æĪ¿
Ġcol lege
ä»£è¡¨ çĿĢ
77 4
åģı å¥½
å¹¿æ³Ľ åºĶçĶ¨
Ġcount ing
åľ¨ éĢīæĭ©
ä¸į ä½İäºİ
å¤ĸ è´¸
éĩĮ äºļ
our se
Ġ çī©çĲĨ
æĸ° å¹´
ĠD ecember
æµģ è¡ĮçļĦ
un ch
åĨĻ æĪĲ
}^{* }=\
Ġcare ful
èı²å¾ĭ å®¾
o ta
Ġ åħ³éĶ®
Ġin va
ĠS ing
éĥ½ å°Ĩ
åıĹ æįŁ
è¿ĻäºĽ æ¨¡åŀĭ
èĥ½åĬĽ å¼º
Ġreal ization
Ġoccur red
æĭ¼ æĲı
R L
W S
tr ically
ä¸¤ åĽ½
çİĩ é«ĺ
æĮĩ çļĦæĺ¯
å¦Ĥä½ķ åľ¨
è¡Ĺ å¤´
top y
é«ĺçŃī æķĻèĤ²
Ġcomma nd
Ġanoma ly
v ic
le xi
Ġd il
Ġin sects
çĶŁåĳ½ çļĦ
p ass
Ġthe i
Ġacc om
çļĦä¸Ģ ç»Ħ
å¤º åĨł
Ġcu toff
9 65
Ġ çĲĥ
æľī ä¸¤
Ġco ex
å°± è¯Ĭ
Ġ. )
åķĨ çĶ¨
åĨĻ çļĦ
Ġsuper fluid
åħįçĸ« åĬĽ
e al
Ġ æ·±
\, -\,\
33 1
}\\ &=\
åŃĶ å¾Ħ
çŀ ©
çŁ¢ éĩıçļĦ
ä¿Ħ åĽ½
å°ıç»Ħ èµĽ
5 20
N F
Ġ éļıæľº
Ġf light
Ġde moc
Ġra nges
æİĴ éĺŁ
åĽĽ ç»´
åĮ»çĸĹ åĻ¨æ¢°
åĽºå®ļ çĤ¹
ĠRec ently
Ġenga ging
3 22
Ġ æĭ¥æľī
æĺ Ķ
ff er
)\, .\)
æĤ£ ä¸Ĭ
other wise
Ġread ers
Ġnutri tion
åľ¨ å°ı
pla net
ĠN ovember
è½¬ åŃĲ
å®īåħ¨ éļĲæĤ£
åį¡ éĢļ
47 4
bound ed
^{ |
88 9
mer ge
Ġview ed
O H
^ +\
j e
å°± å·²ç»ı
éĩĳ å±±
69 2
å·¥ ä¿¡
éĹ´ æĸŃ
ĠM ach
depend ence
Ġoscil lator
Ġprom oting
O f
la st
as soci
ä¹Ł éĥ½
æĹ¥ åĪ¶
åıĳå±ķ æĪĺçķ¥
æľįåĬ¡ äºİ
64 3
3 13
c ell
çļĦ æĬĹ
Ġde generate
ĠG lobal
åįķ ç»´
tri ang
æĶ¹ èī¯
é¦ĸ åıĳ
}] ,
onom ic
Ġexpand ing
å¤ļ ä¸º
éĿ¢ æĸĻ
ä¸ĩ çī©
çŁ³ å®¶åºĦ
55 8
Ġexpec tation
ä¸Ń æĸ°
åĴĮ è´¨éĩı
åĩ °
æ² ¾
åı¯èĥ½ ä¸İ
Ġsub group
Ġun less
quen ess
CD M
éŀ į
Ġbr ush
å¤ļæł· æĢ§
Ġep is
Ġw ish
ad van
èİ· èĥľ
Ġdiff use
69 4
æķĪåºĶ çļĦ
Ġstrength s
Res earch
åĮ Ĩ
åĿ ¯
åıĹ ä¼Ĺ
èĭı æł¼åħ°
ä¿ĿéĻ© åħ¬åı¸
æľºåĬ¨ è½¦
_{ }
me t
æī¿ æİ¥
Ġcor po
Ġuni fied
Ġmon o
æļ´ åĬĽ
Ġvio lence
ç¨į å¾®
d T
éķ¿ åº¦çļĦ
Ġout come
è¡¨æĺİ åľ¨
å®ŀæĸ½ æĸ¹æ¡Ī
Ġprevent ing
6 18
6 26
L y
ck now
pro per
æīĢæľī äºº
4 17
æĺ¯ æĢİä¹Ī
åĵ º
to s
é£İ éĽ¨
ä¹Ĳ åĽ¢
è¿ĩåİ» çļĦ
çİ»çĴĥ éĴ¢
6 30
Ġen rich
Ġcha otic
åħļ ç»Ħç»ĩ
Ġtra ined
yc ho
3 17
D T
Ġ å°Ħ
åĲĪ èµĦ
ä¸Ģä¸ª æĺ¯
å¹¶ æĺ¾ç¤º
è¯Ħ å®ļ
49 8
åĩŃ è¯ģ
è¿Ļé¡¹ å·¥ä½ľ
çĶ²çĬ¶ èħº
G DP
æľ¬ åĳ¨
å¹³ åİŁ
å¤© çĮ«
ä¸¤ å¤©
Ġfu sion
ä¹¦ çĶ»
åĩı åħį
å£° ç§°
ä¸Ń åįĪ
æ°ĳ æĶ¿
Ġdo mes
çŃ¾ åŃĹ
æ»ĳ åĬ¨
Ġser ver
èĥİ åĦ¿
ĠLi fe
Ġsyn thesis
ç¬¬äºĮæ¬¡ ä¸ĸçķĮå¤§æĪĺ
Ġple ase
äº¨ åĪ©
5 10
H ar
åħī æĺİ
ion ization
Ġinsu rance
éĽ Į
æ°Ķ åĬ¨
é£İ åı£
Ġmod ular
é¢Ĩ åĨĽ
Ġdiff e
ä¸¥æł¼ æĮīçħ§
èĤł éģĵ
Ġ\(+ \)
domin ated
8 98
ul ty
æĢ» è®¡
Ġsearch es
æ²ĥ å°Ķ
æħ° éĹ®
4 30
H F
L ear
S m
Ġt iny
}} )\)
æľĪ ä¸Ń
æ¯ı ç§į
å·¥ç¨ĭ é¡¹çĽ®
In ter
sim ir
ĠCh urch
éĺ¿éĩĮ å·´å·´
èĢ¦ åĲĪ
4 32
Ġ è®¡
å· ħ
äºº æ¬¡
çķ Ķ
Ġcomp ac
äº¤ ç»Ļ
ç³»ç»Ł åľ¨
Ġpo ta
tter y
æľĢå¤§ åĮĸ
| +\
Ġe poch
æłĩ æĿĨ
è¿Ĳ æ²³
è®© å¤§å®¶
æķ°æį® ä¸Ńå¿ĥ
æµĭéĩı ç»ĵæŀľ
Ġcal cium
47 1
ä¸° çĶ°
åİ»å¹´ åĲĮæľŁ
Ġrecogni zed
å§¿ æĢģ
Ġevol ving
4 10
Ġ æ°´å¹³
Ġ åĪ°çļĦ
Ġe cc
æŃ¤ å¤Ħ
æŃ£ æŃ£
ä¸¤ éĺŁ
æľįåĬ¡ åĴĮ
èĬĤ çĤ¹çļĦ
çľŁ çĲĨ
88 3
69 1
Ġorigin ally
phys ics
D L
åįķ è¯į
èĩ´ ä½¿
ign er
Ġ7 7
è½» å¾®
ak es
æŁĶ æĢ§
æĺ¯ æĪĳåĽ½
ä»¥ å¤ª
çĲĨ åŃ¦
åĩº åĽ½
å¤± è¯¯
3 26
t uring
Ġ æ®µ
æŃ ī
Ġor ig
Ġinc o
Ġsur vive
å±Ĭ æĹ¶
86 3
åıĳæĶ¹ å§Ķ
Ġp ig
æ¸ į
å®ŀ ä¸ļ
å°ı æľĭåıĭ
ĠK a
æī©å±ķ çļĦ
Ġdra wn
Ġhal os
ä¸¾è¡Į çļĦ
Ġ åį´
Ġ ä»Ĭå¹´
[\ ![
ĠL ong
Ġmo ved
ç»´ æĸ¯
æ¼Ķ ç»ĥ
66 5
å¼Ģåıĳ èĢħ
59 2
æĪª æĸŃ
Ġrepe ated
N P
Ġb or
me tic
Ġi te
æ°ĳ åĬŀ
70 7
ä»£è¡¨ äºĨ
ç»ĵè®º æĺ¯
3 19
Ġ åĥı
en tic
Ġ8 2
éļĲ å½¢
Ġcour ses
æ°ĳèĲ¥ ä¼ģä¸ļ
Ġ æĿ¥èĩª
Ġcon juga
æľº ä½ĵ
æ°´ æĻ¶
Ġexplo ration
ç¡®è¯Ĭ çĹħä¾ĭ
å¤§ ä½¿
Ġho mology
çŁ¥è¯Ĩ çļĦ
å¤º å¾Ĺ
Ġulti mately
_ +\
å¯¹ èĩªå·±
çºª å§Ķ
85 2
åı¶ åŃĲ
Ġ æķĻ
Ġ æ±½è½¦
Ġ æł¸å¿ĥ
Ġas sets
ĠL ondon
èĲ¥ åķĨ
ä»¥åıĬ åħ¶ä»ĸ
}| <\
50 8
æ´Ĺ æīĭ
å·¦ ä¾§
}\| _{\
Ġconta min
Ġsatisf ying
ä¼ĹæīĢåĳ¨çŁ¥ çļĦ
Ġ ä¹ĭåĲİ
çļ Ĥ
Ġa part
èĥ½ ä¸º
op ho
æĥħ æĬ¥
çĿĢ åĲįçļĦ
åĪĨæŀĲ å¸Ī
Ġval idity
éĩįçĤ¹ æĺ¯
çĶµ ç£ģåľº
èĩª æĹĭ
ĠM n
Ġsu peri
å®ī å¿ĥ
æĪ· ç±į
50 5
æµĭéĩı äºĨ
88 4
Ġmass less
åı¯ä»¥ çĶ¨æĿ¥
pro duced
å®¤ æ¸©
88 1
Ġpredic ts
ath y
Ġsumma ri
P ar
æľī æĹł
è¦ģ æĺ¯
å¤ļ åªĴä½ĵ
Ġwe ights
å¤į ä¹ł
å¨ ĩ
å¥¥ åľ°åĪ©
Ġ\; .
Ġdid nt
Ġ\([\ ![
åĬŀäºĭ å¤Ħ
åĨłçĬ¶ çĹħæ¯Ĵ
Ġw anted
åĴĮ å·¥ä½ľ
åĽ½ åľŁ
ral ly
æĮĩ å®ļçļĦ
æıĲä¾Ľ åķĨ
ves tiga
Ġexp loring
åĮħæĭ¬ äºĨ
è´Ń ç½®
æĿĳ åºĦ
56 3
é¢Ĩå¯¼ å°ıç»Ħ
æĸĹ äºī
Ġ æĶ¾
æ¢ Ĺ
æķħ æĦı
åĮºåŁŁ åĨħ
F M
F irst
ä¸Ń ä½į
æİ Ģ
ĠA mong
60 6
åī§ ä¸Ń
å©ļ ç¤¼
å¥¶ å¥¶
åĢ¾åĲĳ äºİ
4 34
Ġ åĳ¨
Ġ ç®Ģåįķ
ä¸Ģ çļĦ
ä¹ĭ æĹ¶
åģļ ä¸º
çĭ¬ çī¹æĢ§
Ġreal ize
è¡ĮæĶ¿ å¤Ħç½ļ
Ġ çİ¯
åĲ ¾
çĽ¸ æĴŀ
row th
Ġ| ^
å´ ĸ
ma de
ä¸Ĭ åĳ¨
Ġne arest
Ġqu i
67 5
ä½ı åľ¨
55 3
ç»ĦæĪĲ åĳĺ
æĹħæ¸¸ ä¸ļ
ĠCh ern
)! }\
åĭĩ äºİ
å®¾ é¦Ĩ
åŃķ å¦ĩ
munic ation
4 15
Ġpro jection
67 0
åĩ» ä¸Ń
49 5
éĿĻ èĦī
79 2
Ġ\({ }_{
è¯Ī éªĹ
4 14
| .\)
åı· çļĦ
55 9
åĲĥ çļĦ
è°· çī©
æģ¶ åĮĸ
Ġmedic ation
mea sure
4 36
S ub
T X
p redic
Ġ è¿ĺæĺ¯
Ġ ä¸ļåĬ¡
ĠA C
ä¸¤ è¾¹
Ġle ts
50 2
è´Ń æĪ¿
88 7
èĭı å®ģ
çĻ» åľº
æľ« ç«¯
ĠMic ro
u ms
Ġ åĿĩ
çļĦ æĢģåº¦
æľº çŃī
ĠW ri
èµĽ éģĵ
åĪĽæĸ° åĪĽä¸ļ
90 5
å«Į çĸĳ
V S
a res
Ġ è·Ŀç¦»
åį ¦
å¹´ èĩ³
å®¶ åĽŃ
å¼º è¿«
äºĮ æŀģ
åįİ çĽĽ
50 6
èĽ ®
que e
pr ise
4 22
t v
Ġ ä¸įåĲĮçļĦ
å¤ ·
is tan
Ġto t
Ġde vo
ç©º åİĭæľº
æµ· æ°´
ĠK eep
60 9
88 5
æ±ĩ çİĩ
Ġfew er
è¾¨ åĪ«
Ġbr ings
S he
en ha
Ġc rac
os cop
å¤ĩ ä»½
80 2
68 9
\; ,
åħ¬å¸ĥ äºĨ
ĠWith in
3 18
ä¸į ä¸Ģæł·çļĦ
çĶµ å®¹
æĽ´ å¼º
ĠY u
Ġsub strate
Ġnu ll
80 8
55 5
Ġ å»ºç«ĭ
Ġb ridge
åľ¨ ä¸Ĭæµ·
æĺ¯ ä¸įåı¯
çĶ¨ éĩı
å¯¹ æĪĳä»¬
æŀĦ çŃĳ
éĽĨåĽ¢ çļĦ
éĤ» å±ħ
Ġphenomen ological
çĢ ĳ
Ġhosp ital
Ġ ç½ĳ
de tec
ver sion
æīĢ äº§çĶŁçļĦ
Ġme re
åĳ½ é¢ĺ
çĽ®æłĩ çļĦ
æ¨ª è·¨
æľīä¸Ģ å¤©
Ġderiv ation
Ġshor ter
Ġmir ror
Ġadi abatic
E ven
Ġra d
é¢Ħ åĳĬ
çĶŁäº§ å·¥èīº
æ»¡ æ»¡
produc tion
Ġexerc ises
Ġpromin ent
Ġ è§£éĩĬ
ma ry
æĢ§ åĪ«
Ġpa ges
69 6
æ²ī æµ¸
ĠEng ine
è°ĭ åĪĴ
æĬķæłĩ äºº
b d
éĢ Ľ
}} }.
hi bi
ĠW al
æł¸ åŃĲ
å±ħ çĦ¶
çĳ ľ
éĢ¾ æľŁ
9 77
åľ¨ å®ŀéĻħ
åħ¬ åħ³
ul ing
å¯¼ çº¿
çĹħ åıĺ
sp an
78 2
Ġmar kets
Ġpossi bilities
4 12
Ġ å¼Ĥ
Ġ race
çļĦ çĤ¹
an al
Ġre lies
left arrow
è¯ķ çĶ¨
åĿļ ä¿¡
å·¥ä¸ļ åĴĮ
æĪĲæľ¬ ä½İ
æĦ¿ æľĽ
Ġextend ing
Ġdif fraction
u late
Ġ æıĲåįĩ
çĥŃ èĥ½
ä¸ĩ ä¸ª
Ġbrea thing
Ġdoc uments
Ġune xp
, +\
, ...
çļĦ æĹ¶ä»£
åľ¨ è®¸å¤ļ
æ² ¼
ĠP ac
ign o
æĭī å¼Ģ
Ġph onon
å¸® å¿Ļ
æĳĦ åħ¥
Ġfer tiliz
æĬĳ éĥģ
åīĬ åĩı
Ġneighbor hood
A f
u red
Ġc ere
å¯ ¡
ĠS er
å®¶ åĴĮ
et ting
è¾ĥ å¼º
ä¸ŃåĽ½ äºº
50 7
Ġremo val
IN G
Ġannihi lation
O C
Ġ :\
è¿Ļ å°Ĩ
ä¸İ éĿŀ
å¼Ģ åŃ¦
èģĶ è½´
èĩ´ è¾ŀ
67 8
60 4
78 6
åħīåº¦ æµĭéĩı
ĠBayes ian
) '
O M
Ġ ç«ĭ
Ġs es
åĽ½ èµĦ
ç³» çļĦ
20 23
å®Į ç»ĵ
ç®Ģ ä¾¿
60 3
è®¨ åİĮ
Ġdevelop ments
Ġsupp ression
59 3
èĦ¸ ä¸Ĭ
é©¬åħĭ æĢĿ
5 25
d H
Ġd ys
ro ll
çĽ¸ è¾ĥ
ĠJ acob
Ġ7 9
70 4
ä½Ļ åĲį
p or
Ġ æĥħåĨµä¸ĭ
ĠN umer
è± ¹
tain able
)\, =\,
Ġä¸Ģ å®ļ
çļĦå¤§ è§Ħæ¨¡
çº¸ å¼ł
åĭĩ æķ¢
ä¸Ńå°ı åŃ¦
Ġbelie f
è¯ģå®ŀ äºĨ
çļĦ ç»ıæµİ
æĿ¥ è¯ģæĺİ
åħ¨ è¿ĩç¨ĭ
èĢĮ æĪĲçļĦ
åĪ¶ å¤ĩ
å¹¶ æľī
åĽĽ æĺ¯
66 3
ĠPro ject
Ġmean field
å®Įæķ´ æĢ§
Ġpu zz
Ġ ç»ĦåĲĪ
Ġp eculi
si o
,\ ;\;
æģ Ń
è¿ĳ åĩłå¹´
è¯¥ å¦Ĥä½ķ
Ġgen es
po ints
49 2
90 1
æııè¿° çļĦ
56 2
çĮª èĤī
Ġbar riers
Ġthrea ts
5 11
Ġ è¿ŀç»Ń
çļĦ ç»ĵåĲĪ
çĽ ¯
åı¯ çŁ¥
çĶµ éĩı
èĢĮ è¢«
Ġli ved
Ġconver sion
8 77
Ġf ly
éĻ ¡
ĠW ell
è¿Ļä¸ª æĹ¶åĢĻ
90 6
åı¥ åŃĲ
ĠLi ke
èĲ¥ä¸ļ æī§çħ§
è¾ĸ åĮº
Ġco o
od ed
åĲį è¯į
Ġcomp osite
ĠO pen
æ¸¸ ä¹Ĳ
ä½ĵç³» çļĦ
]+ [
A U
{ }{
Ġa qu
ä¸Ń äº§çĶŁ
éĿ ĸ
ce eds
æµĭ ç®Ĺ
èµ· è¯ī
å±± çļĦ
å¾· æĸ¯
é¦ĸ å±Ĭ
67 2
Ġapproxima tions
G E
i di
}} )=
ä¾Ľ éľĢ
é¢Ħ åħĪ
Ġac oustic
æ²»çĸĹ çĻ½çĻľé£İ
70 8
6 15
Ġ åĩıå°ĳ
çļĦ æĬķèµĦ
å¤ļ åĲĥ
æľĢ å¤ļçļĦ
èĲ ¤
oth ing
Q Q
Ġ å»ºè®®
=\ {\
Ġor g
éª Ĥ
æĮĩ éĴĪ
åĲ¸ çĥŁ
85 4
200 3
åĢ¼å¾Ĺ æ³¨æĦıçļĦæĺ¯
Ġinflu enced
Ġhapp y
) :\
is k
}) )\)
åĪĩ æĸŃ
åį¡ è·¯
ĠäºĨ ä¸Ģä¸ª
ĠRe ad
Ġfre quent
åŃ¤ ç«ĭ
4 16
5 15
çĶ Ħ
è¯´ äºĨ
)) -\
å¥³ è¶³
ä»Ģä¹Ī æĹ¶åĢĻ
49 4
70 5
å®Ŀ è´µ
é¥® åĵģ
Ġexc iting
Ġrou te
Ġattribu ted
Ġhydrody namic
æĳĦåĥı å¤´
adi ly
Ġpregn ancy
Ġ éĽ¶
Ġ æĪĳåĽ½
çļĦ å®ŀéªĮ
ch ical
ĠP lan
ĠK now
å¢ĥ çķĮ
æīį æľī
67 7
60 5
66 6
å¼Ģåıĳ åķĨ
æĹģ è¾¹
å§Ĳ å§Ĳ
Ġrepresent ing
ä¸Ģ ç«Ļå¼ı
åıĳ æ³¡
ä½ľ çļĦ
æĪĳä»¬ åĪĨæŀĲ
åĮĸ è§£
for mance
æķ´ é½Ĳ
æ¯Ķè¾ĥ å¥½
49 3
68 3
Ġcho osing
Ġru ns
åį³ä½¿ æĺ¯
æ»¡æĦı åº¦
çļĦåīįæıĲ ä¸ĭ
en tations
æĥħ çļĦ
49 7
èªī ä¸º
çļĦ ç®Ĺæ³ķ
ra bly
çĿĢ æīĭ
Ġsh ed
Ġ~ =~
Ġwin ds
K u
\ },\)
c f
éĥ½ ä¸İ
60 8
Ġinter ven
åıī è½¦
4 26
7 14
Ġ8 1
88 2
58 3
åģ¶ åĥı
Ġillust rated
Ġenab ling
F u
c luster
{ }_
do x
ĠA sia
ĠI sing
èī² è°ĥ
èī² è°±
Ġcar rier
Ġpri mordial
86 2
Ġmani pu
E B
æ°´ ç®¡
Ġrespon sibility
Ġoccur ring
çľŁå®ŀ æĢ§
éŁ§ æĢ§
Ġ ä¿ĿæĬ¤
Ġg um
Ġinc ident
çīĪ çļĦ
49 0
68 4
Ġinteres ts
ti ll
ç§ ¤
ĠS ou
æľº èĥ½
Ġpres entation
Ġcur riculum
è¯» åıĸ
åĺ ±
79 4
Ġexper t
Ġw ha
çŃī ä¼ĺçĤ¹
Ġex cessive
Ġmo ves
Ġhe aling
Ġimp ossible
çľģ æĶ¿åºľ
57 4
éĢĶ ä¸Ń
Ġbrea ks
Ġserv ed
èĩªä¸» çłĶåıĳ
åĿĲèĲ½ äºİ
4 13
4 24
p ic
çĶŁ åĮĸ
è´¨ çĤ¹
ä½Ĩ æĪĳä»¬
è¾ĥ å°ıçļĦ
åģļ ä»Ģä¹Ī
é¢Ħ æĬ¥
çģ« èĬ±
58 1
57 3
59 1
Ġbud get
Ġ èĬ±
éĩį è¿Ķ
Ġyou th
Ġne ga
åĩł çĻ¾
85 9
79 3
æ¶Ĥ è£ħ
ĠSch r
ĠBrow nian
4 23
4 21
a po
Ġ åľ°åĮº
el ding
ç¥ Ĥ
è¥¿ çĶ²
66 9
90 7
åİŁåŃĲ çļĦ
Ġtri al
Ġauth entic
Ġlength s
black square
Ġju mp
ĠRie mann
]\! ]\)
ĠSoci ety
, {
ä¸į ä½³
ĠI ma
åıį è½¬
tain s
65 2
Ġachie ving
çŃ¹ å¤ĩ
ĠFe bruary
Ġlogarith mic
7 37
Ġ åĵģçīĮ
ä¸Ń å¤ĸ
å¸Ĥ åĢ¼
åŀĭ æĿĲ
ĠP rac
åĨį åĪ°
éĻ¤ åİ»
89 3
Ġtheore ms
åĬŀåħ¬ åİħ
é»ĺ é»ĺ
å¤±åİ» äºĨ
Ġspiri tual
9 11
Ġ å°Ķ
se y
äºĮ çŃīå¥ĸ
æ±Ĥ èģĮ
Ġper mu
æĳ §
50 3
Ġgra nd
å°º åº¦çļĦ
ĠDe velopment
äººç±» çļĦ
å¤©ä½ĵ çī©çĲĨ
Ġsil icon
ĠMil ky
Ġelect roweak
åŀĦ æĸŃ
3 14
r ts
ä½Ĩ å¦Ĥæŀľ
è£ Ļ
)) )
Ġpre vention
æĻºèĥ½ åĪ¶éĢł
85 6
Ġrespon si
éĽĦ åİļ
æµģä½ĵ åĬ¨åĬĽ
æ¯ģ çģŃ
å¦Ĥ åĽ¾
æŁ¥ çĲĨ
æīĵ è¿Ľ
99 6
èĩªåĬ¨ é©¾é©¶
~{ }
6 23
æĸ° åĵģ
ä»» æķĻ
çİĩ é¢Ĩ
å¢ŀ éĩı
çĬ¶ çļĦ
éĺ² æ½®
Ġcha pter
67 9
75 1
Ġfund ing
' ).
5 36
o tes
Ġ ç¾¤
Ġ å®ĮæĪĲ
Ġ ç»ıèĲ¥
ä¸Ń è½¬
ĠA P
Ġh olog
60 2
éĶ¦ æłĩ
5 44
Ġ è¿ŀæİ¥
tic ed
Ġne bula
æĢ» æī¿åĮħ
58 7
ä¸ĸçºª çļĦ
? ?
k h
èĥ½ è®©
çĶ± ä¸ŃåĽ½
ph one
åĩ¤ åĩ°
éĴ¥ åĮĻ
æĿ¥ è§£åĨ³
ĠM use
ot al
æ¶Ī çģŃ
å¯¹äºİ ä¸Ģä¸ª
æĭĨ åį¸
A e
F P
ra tional
ĠS M
æ³¢ å½¢
èµ° åĪ°
66 1
Ġres pi
69 3
)] ^{
Ġless on
è½¨éģĵ äº¤éĢļ
éĹª åħī
Ġmig ration
èĥļ èĥİ
S im
å°± åı¯
om ial
è¯¥ ç³»ç»Ł
Ġsa ying
am ine
åľŁ å·¥
66 2
90 3
65 1
Ġcontrol s
Ġexhi bi
ç¼ ļ
è·¯ çļĦ
Ġcom ment
æİ¢ ç©¶
ĠHu man
åĽ½ ä¼ģ
ĠD en
é£İ çļĦ
ç»Ļ å®ļçļĦ
å®¡ çĲĨ
87 9
ĠSp anish
è¾ĥä½İ çļĦ
4 31
b lock
ç§į æĹı
60 7
Ġline arly
é¥® æ°´
Ġ æ··åĲĪ
ä¸į æĩĤ
at ron
ne e
ç§ĳ åĪĽ
ci en
Ġpa int
å¾® è§Ĥ
çľŁ çļĦæĺ¯
Ġdisc rep
Ġtra uma
49 6
57 9
éĽ· æĸ¯
èĴ¸ é¦ı
Ġintegra ble
tech n
4 37
O ther
éķ¿ çº¦
ĠP an
èµĽ åĲİ
å¾® ç¬ĳ
åĨ· èĹı
55 7
èĥ¶ çīĩ
200 4
æĵįä½ľåĳĺ çļĦ
çļĦ ç½ĳç»ľ
Ġo xi
é«ĺ è¡Ģåİĭ
op s
ä½ķ æĹ¶
å¾· çĶ²
åħĭ éĩĮ
è¡Ģ ç³ĸ
Ġau tomorph
,\\ &\
æł Ĺ
ä¸Ĭ æ¼Ķ
ä½¿ ä¹ĭ
å¤© æĸĩåŃ¦
ĠU p
æĶ¾ åĪ°
ç¤¾ åĽ¢
çŁ³ èĨı
56 1
brea king
Ġinho mogeneous
i B
n ano
Ġf inger
å¤§ èĥĨ
åĬ¡ å®ŀ
æĸ¯ æīĺ
åĮ» åŃ¦éĻ¢
è§Ĩ åĬĽ
Ġpar ity
è¶³ åįı
çĸĹ æķĪ
çĶļèĩ³ æĺ¯
Ġsuperconduc tor
åħ¬å®ī å±Ģ
ä¸Ģ çľĭ
å¹´ å¹´
ĠA rab
æľº æ²¹
Ġal ignment
Ġdi m
Ġstr ings
75 5
mod els
é»ĳæ´ŀ çļĦ
æľī ä¸¤ç§į
çĶ¨ ä¸Ģä¸ª
åĩº åİĤ
Ġimp urity
Ġab use
Ġper cen
æİ¢æµĭ åĪ°
arc tan
oltz mann
å¸¸ éĩı
çĿĢ åĲį
åĲĦ æĸ¹éĿ¢
ç»ĵæŀĦ ä¸Ń
ç¼ĸ åī§
90 4
resp aces
76 3
ç¿» è½¬
Ġmargin al
igno respaces
5 38
i h
l led
Ġp ra
Ġu tility
é«ĺ æĸ°åĮº
lim ited
åİŁ çĶŁ
Ġsta ted
Ġdes tin
90 8
å®ª æ³ķ
Ġspon taneous
4 46
ra ndom
ou nce
åĬł åĽº
å°± å¼Ģå§ĭ
ç² ¥
Ġhe ard
ç»Ļ èĩªå·±
åĮ» æĬ¤
ä¹ĺ æ³ķ
å°¤åħ¶ æĺ¯åľ¨
ä¼ĺèī¯ çļĦ
æĸ°åįİ ç¤¾
6 11
Ġ æĤ¨
Ġn g
åıĳ æİĺ
ĠG ood
æ°ĳ çĶ¨
éļı ä¾¿
ĠæĪĳä»¬ çłĶç©¶
æķĻèĤ² æķĻåŃ¦
50 9
55 4
Ġend s
de ca
ĠW il
æĪĸ ä¸į
Ġk n
æĶ¿ åįı
ç²¾ éĢī
çĶŁæ´» æĸ¹å¼ı
58 6
å½Ĵ å±ŀäºİ
çī¹å¾ģ æĺ¯
æĿĢ æŃ»
Ġass ign
5 23
ti ble
è¾ Ĭ
é«ĺ æ°´å¹³
Ġpro gen
åĩł çİĩ
rea ted
ä¹¦ çļĦ
åī¯ æł¡éķ¿
Ġag ent
Ġa ds
^{- }\
æĵįä½ľ åĻ¨
Ġlow energy
æ²»çĸĹ æĸ¹æ³ķ
87 1
ĠCha ndra
åĨ» ç»ĵ
åĭŁ éĽĨ
Ġdevi ation
Ġimplement ing
5 46
d E
Ġn s
éĿ ¶
ĠT ri
Ġcon e
ĠS L
Ġdis tant
æµ· é²ľ
ä¸ĢèĪ¬ åľ¨
70 1
è½½ èį·
}^{+ }(
68 1
58 9
åĲĦé¡¹ å·¥ä½ľ
éĽĩ ä¸»
Ġsou thern
V ol
Ġs ort
çİ° è¡Į
}\, ,\
mple te
ç¢± æĢ§
Ġdemonstra tes
ç«ĭæĸ¹ ç±³
ĠAnal ysis
Ġaci ds
Ġmois ture
5 26
V C
Ġ åĩĨ
Ġh oney
od ium
åıį ä¹ĭ
å°±æĺ¯ è¦ģ
65 3
7 22
p ow
re sting
ä¸Ń ç»§
åŃ¦ å£«
æ°ĳ ä¿Ĺ
Ġ8 4
Ġgra v
65 9
Ġdri ft
5 27
ä»¥ æĿ¥çļĦ
ĠT ex
Ġ( |
åľ° å¤Ħ
Ġcomp ression
ĠJ ust
80 9
æĭĴç»Ŀ æİ¥åıĹ
åŁİä¹¡ å»ºè®¾
Ġ ä¹ĭä¸Ģ
Ġa ro
ä¸Ģ å°ı
å·¥ä½ľ ç»ıéªĮ
é£İ åħī
vi er
æīį èĥ½å¤Ł
å½Ĵ å±ŀ
æľĭåıĭ åľĪ
6 36
ma xi
åľ Ń
Ġf ric
ĠT er
Ġy e
ä½Ĩ åħ¶
äºĮ èĢħ
çĥŃ çĶµ
Ġinter play
Ġfa ther
Ġreach ing
Sp in
Ġmac roscopic
åĩº éĹ¨
éĩį éĩĳå±ŀ
æķ´ æ´ģ
å¸Ĥåľº åĮĸ
æĤ£ çĹħ
åªĴ ä½ĵçļĦ
Ġsw im
ä»¿ çľŁ
Ġresi dents
åĩºçĶŁ äºİ
abil istic
Ġwi l
80 1
;\;\ ;\;
å¼ºåº¦ åĴĮ
spec ific
5 18
6 20
S B
ä¸į åĪ°çļĦ
ĠS al
èĤ ĭ
ĠF er
çĥŃ å¤ĦçĲĨ
67 4
'' _
59 4
Ġstand ing
éĽĨæĪĲ çĶµè·¯
Ġ åģ¥åº·
çļĦ åİĭåĬĽ
ĠD M
70 9
å²ģ æĹ¶
Ġsyn thetic
æĪĲçĨŁ çļĦ
å½¼ å¾Ĺ
Ġwit ness
æĦī å¿«
Ġgradu ally
' ),
5 16
le ns
Ġo ve
çĦ ķ
åħĥ å®ĩå®Ļ
èģĶ éĢļ
éļ¾ çĤ¹
all ing
æīĵéĢł åĩº
Ġdetermin es
æ¯« ä¸į
yl ind
5 45
6 17
8 45
}\ |^{
ç» ¸
Ġe colog
å¯¹ ä½ł
åı¯ æĥľ
å®ŀ æľ¨
ĠW a
Ġat tend
lec tron
Ġwor se
æıĲä¾ĽäºĨ ä¸Ģç§į
äºĳåįĹ çľģ
æĿ¥ å®ŀçİ°
å¤ļ ä½į
åħ¨ åĮº
æīĢ èĥ½
æĪĸ ç¼º
èº« é«ĺ
æĬ¤ å£«
67 3
99 7
Ġflu ids
Ġprof essor
Ġatta ched
ĠCol lege
Ġderiv atives
Ġrelig ion
Ġ ç©¶
Ġ ä¹ī
Ġ æĸ¹åĲĳ
Ġin sp
)= &
ĠçļĦ ç»ĵæŀľ
éĻį èĩ³
æİ¢ éĻ©
70 2
85 1
æĤ£èĢħ åľ¨
68 6
ä¸»å¯¼ åľ°ä½į
5 19
8 64
Ġ äººåĳĺ
Ġ çĽ®æłĩ
è¶ Ł
æĹ¥ åĲİ
èĲ į
åĲĦ å¼ı
å®Į å·¥
85 3
85 8
57 2
æĳĨ æĶ¾
! }{
5 37
{ }\
å¤ ¯
å°± è¢«
åĲį åĪĹ
å¸ĥ æĭī
åģļ äºĭ
æĥ³ åĥı
Ġtw isted
ä½ı äºĨ
Ġch urch
Ġref ere
æ¸ħæĻ° çļĦ
çĻ¾åĪĨ ä¹ĭ
çº³ç¨İ äºº
5 95
Ġ åıªæľī
ä¸Ģ ç¾¤
è¿Ļ æĹ¶åĢĻ
Ġper pendicular
åįł åĪ°
70 6
65 4
ä¸įä¼ļ æľī
è®¯ æģ¯
5 17
Ġ }^{\
åľ¨ ä»Ĭå¹´
}| |
èĭ± éķĳ
åį° å°¼
åİĨåı² çļĦ
Ġlead er
å½Ĵ çº³
7 27
9 20
Ġ ç»¼åĲĪ
Ġ äººä»¬
^{ {
Ġin take
}) },
}) |\
od inger
åħ¨ åİ¿
é©¬ ä¸ģ
80 5
åĪĽä¸ļ èĢħ
** *
Ġa f
Ġpro jected
æĻ ĥ
å¥³ æİĴ
70 3
Ġmethod ology
éĩĳèŀį æľįåĬ¡
ä½Ľ ç½Ĺ
å±ķè§Ī ä¼ļ
Ġ å¾ĹåĪ°
çļĦ èĬ±
éĩ ľ
ä½Ĩ å®ĥ
éĢł å°±
éĺ² éĶĪ
Ġ20 16
åįĸ å®¶
}&{{ }
èĢĢ æĸĳ
ĠEu ler
ä¸Ń åŀĭ
èĢ į
é«ĺ ç²¾åº¦
çĲĥ å½¢
åĪ©çĶ¨ çİĩ
49 1
Ġdeli very
å¥´ éļ¶
4 19
4 39
A H
,\ {
ĠT V
ĠS us
ĠC are
æīĢ åľ¨çļĦ
æľį ä»İ
ä»· éĴ±
Ġmin ing
èĮħ åı°
Ġinspi red
Ġhund red
Ġprepa ration
6 32
Ġf igu
ä¸ĭ éĿ¢çļĦ
Ġme ant
Ġdis place
Ġcomp ens
Ġte lescopes
99 5
äºĭä»¶ çļĦ
Ġuniform ly
5 28
B G
Ġ è¿Ľè¡ĮäºĨ
çļĦ è®¾å¤ĩ
åľ¨ åĽ½éĻħ
åĪĨ ä¹ĭä¸Ģ
æĸ° åŁİ
Ġsp o
Ġar tists
67 1
^- _{
Ġbat teries
e ach
åĴĮ åĴĮ
)\ |^
åĪĨ éĩı
çĤ¹ è¯Ħ
éĥ½ æ²¡
ble ms
äº¤ ç»ĩ
éĢī å®ļ
æīį åı¯ä»¥
Ġset tle
ĠAn y
4 11
y i
on ents
Ġ\(\ ,
åľ¨ åĲİ
ä¸į ç¨³å®ļæĢ§
å½ ¬
è§Ħ ç¨ĭ
75 7
èĮĥåĽ´ çļĦ
5 30
j math
Ġ è¿ĺæľī
æµģ æµģ
è¿ŀ èĥľ
Ġ9 9
çī¹åĪ« çļĦ
æĺŁç³» ä¸Ń
ĠRie mannian
è½¿ è½¦
H er
äºº æĺ¯
åĬĽ æ±Ĥ
åħ¥ æīĭ
æĶ¹ æŃ£
è¾¹ éĻħ
èı ±
åĬ³ å·¥
éĿ© æĸ°
87 4
ç©¿ éĢı
æ¶Īéĺ² å®īåħ¨
ani ed
[ (\
ĠS ee
Ġv ap
ä»£ åħ¥
Ġ8 3
èĦļ æŃ¥
, (\
Ġw atch
äºº èº«
çľĭ å¥½
})\ ;
Ġ8 8
åĨ· æ°´
ä¸Ģå¸¦ ä¸Ģè·¯
Ġcircums tances
5 35
V er
th y
ic y
æ´» æ³¼
Ġhe al
éļ¾ åħį
èĶ ļ
ä»¥åīį çļĦ
Ġtan k
O ver
Ġc lick
Ġin herent
åľ¨ æľī
æī Ķ
}) {\
å¹¶ å°Ĩåħ¶
å¥½ å¥ĩ
åĽŀ åįĩ
æĸ¹æ³ķ åĴĮ
é¢Ħ æ¡Ī
å¯Į è£ķ
æº¶ æĢ§
éĵ¸ éĵģ
I L
Ġa head
å¯¹ ä¼ģä¸ļ
ĠP in
æ¸ħ æĸ°
ç¼º åı£
åīĸ æŀĲ
Ġ éĻ¤äºĨ
Ġa ri
ç¦ı éŁ³
Ġrequire ment
Ġsy ndrome
è¤Ĳ èī²
5 13
6 10
6 31
L andau
Ġs n
}\ |^
åĴ Ĵ
åĪĨ æµģ
Ġare nt
ä¸ĵ çº¿
è¯ī æ±Ĥ
Ġimprove ments
Ġmode led
çĮľ æµĭ
Ġpan els
5 34
8 46
B bb
F urther
k ins
Ġ åĪĹ
çļĦ çº¢
ä¸Ń åĩºçİ°
ri age
ĠM ath
åı¤ åŁİ
\!\! \!\!
æĪªèĩ³ çĽ®åīį
5 96
åħ¨ åľº
ess ary
æ¦ Ħ
è¿ĺæĺ¯ è¦ģ
65 6
65 7
åº§ æ¤ħ
Ġprovid er
ä¸ĢçĽ´ ä»¥æĿ¥
89 1
æĻºæħ§ åŁİå¸Ĥ
æĪĲéĥ½ å¸Ĥ
ä¼ļè®¡ å¸Ī
Ġarm s
6 38
Ġ éĻĲ
ul tra
ĠH ol
Ġal ign
67 6
ä¸ĢèĪ¬ æĥħåĨµä¸ĭ
66 8
90 2
55 2
åħ³èģĶ æĢ§
æĲ¬ è¿ģ
Ġjo in
Ġmorph ology
5 31
ra d
ä¸į å¯¹
å¤§ éĹ¨
äº§ åľ°
èİ ¹
åĸ ĺ
Ġsc at
75 8
æĹĭ å¾ĭ
åįļ å®¢
æľ¨ è´¨
ene fits
çģµ æ´»æĢ§
Ġaudi ence
4 28
7 11
Ġ è§Ħå®ļ
ä¸į ç¦ģ
çĶ¨ åĪ°
å¤§ äºĭ
ĠA da
åħ± åĪĽ
Ġcertain ly
å¿ĹæĦ¿ æľįåĬ¡
æ·ĭ å·´
5 14
5 21
c over
s olar
Ġ æ°Ķ
Ġ æĮģç»Ń
ir ds
tial ly
Ġsp ots
æīĵ ç£¨
Ġ8 6
ĠæĪĳä»¬ ä½¿çĶ¨
75 2
å·¥ä¸ļ äºĴèģĶç½ĳ
å®ģ éĿĻ
ä¸īä¸ª æľĪ
åģ¶ å°Ķ
ĠStu dents
5 22
5 42
Ġ ä¸ľ
Ġ éħĴåºĹ
çļĦ ä¸»é¢ĺ
ta t
ĠS tr
åĮº åĴĮ
éĹ®é¢ĺ æĺ¯
sp her
Ġ&= &
èŀº çº¹
9 13
Ġ åĪ«
ma gn
ĠT f
å°±æĺ¯ åľ¨
60 1
Ġver ify
Ġå¤§ åŀĭ
åĲī ç¥¥
çĸĳ æĥĳ
æ¯ĶåĪ© æĹ¶
Ġ éĩĳå±ŀ
)\ !
åĵģ å°Ŀ
å¼Ģ è½¦
è¾ĥ éķ¿
æķ´ ä½ĵçļĦ
çľŁ èıĮ
åĳ¨ å²ģ
éĿŀå¸¸ éĩįè¦ģçļĦ
åĲ¸ å°ĺ
75 9
æİī äºĨ
7 25
G i
H iggs
r x
Ġo v
åĽł äºİ
æİĴ æ³Ħ
ä¿® è¡Į
}-\ {
Ġlumino sities
ä¸ĩäºº æ¬¡
Ġpeop les
5 48
\ }^{
æĺ¯ åŁºäºİ
Ġ- {
è´ ŀ
de velop
æķ° ä½į
åĮĸ çŁ³
ĠC ul
æĹ¥ åĨķ
å¹³ ç±³
ĠHe isenberg
76 2
Ġtrac king
genera tion
Ġtor sion
Ġstrugg le
ĠServ ice
7 18
ĠC la
Ġen do
çŁ¥ çļĦ
ç§ĳåŃ¦ ä¸İ
68 7
åĵª æĢķ
ĠSp itzer
Ġappe ared
c ut
Ġ èµĦæºĲ
ĠS ea
è´¨ è´¨
og n
è¿ĻäºĽ æķ°æį®
75 6
80 4
89 2
Ġhard ware
scal ar
6 13
me thod
å®¶ åħ¬åı¸
æĹł æĦı
87 2
Ġmilli ons
7 10
Ġ åĽ½åĨħ
ä» ķ
}\ ;\;
å¤§ èĩªçĦ¶
ĠT w
ĠS itter
ir ich
åħī æ³½
çĶŁäº§ èĥ½åĬĽ
æķ°åŃĹ ç»ıæµİ
68 2
Ġmu tual
èģĮä¸ļ æĬĢæľ¯
89 4
éģ¿åħį äºĨ
Ġlet ters
Di rac
Mn O
simil ar
8 42
H igh
n q
w or
æĺ¯ ä¸İ
æıĲ éĹ®
id en
tor ial
Ġdo ts
åī¯ ä½ľçĶ¨
Ġoffic ial
èĦ±è´« æĶ»åĿļ
6 28
8 14
Ġ æŃ£åľ¨
ĠP i
æī¿ ç§Ł
åı¶ è½®
58 2
I ON
S ec
å¤§ æ¡¥
Ġsee ing
Ġdra in
ste llar
æ°® æ°Ķ
small matrix
Ġvanish ing
Ġvess els
4 18
5 97
7 42
b il
t A
es ted
ha us
æķ° åĴĮ
äº§ åĩº
åħ¨ å±Ģ
om er
åŃĹ ä½ĵ
éĩĩ æļĸ
èīº äºº
88 6
87 6
86 1
ĠCent ral
Ġopin ion
friend ly
n as
w all
å¸ ·
ç¾İ èģĶåĤ¨
æĢ§èĥ½ å¥½
200 2
Ġcell ular
ĠCo mb
èĸª éħ¬
Ġpurcha se
Ġpolym er
6 37
8 24
L ie
å±ķ ä½į
Ġmo on
Ġlo ttery
Ġta ste
å·¥ç¨ĭ æĸ½å·¥
Ġnormal ly
ka wa
Ġhorizon tal
Ġ #
æľī å¾Īå¤§çļĦ
äºĨ è¿Ļä¸ª
Ġn t
ä¼ļ åıĳçĶŁ
Ġde aling
åĽĽ åįģ
çŁ© å½¢
5 43
åĴĮ çĽ¸åħ³
Ġre tri
pi ed
am i
Ġpre val
è¿ŀç»Ń æĢ§
éķ¿æľŁ çļĦ
åĨľä¸ļ åĨľæĿĳ
eff ective
éĻª åĲĮ
5 64
åį¡ è½¦
mi le
é¥® çĶ¨æ°´
æī° åĬ¨çļĦ
åħ¬åħ± æľįåĬ¡
çī©ä¸ļ ç®¡çĲĨ
Ġflexi bility
8 37
Ġ åĪ©
åı¯ä»¥ ä¸İ
tr ino
ĠF ish
ĠG re
çľĭ ä½ľ
Ġ\, .\)
ä»ĭ äºİ
Ġcal ls
æłĳ çļĦ
Ġ20 15
æŃ¤å¤ĸ æĪĳä»¬
æ²Ļ åıĳ
åħħæ»¡ äºĨ
7 38
}\ |=
ĠA ng
+\ !
èĩª æĿ¥
è½¦ éģĵ
æĹ© é¤Ĳ
è¿Ļæĺ¯ ä¸Ģç§į
ç³»åĪĹ çļĦ
æĪĲç«ĭ ä»¥æĿ¥
çº¹ çĲĨ
Ġdra wing
åºıåĪĹ çļĦ
ĠOn ly
Ġfal se
4 27
7 24
f ine
Ġ ç±»åŀĭ
åĴĮ è¶ħ
ä¸º å¯¼åĲĳ
ĠP art
åŃ¦ä¹ł åĴĮ
Ġtra dition
èĵ ī
åĨ·åį´ å¡Ķ
Ġ æĹłæ³ķ
éĶ °
åĽŀ åĲĪ
å·® åĪĨ
Ġsec tors
æĬĹ çĸ«
Ġä¸Ģ èµ·
æĺ¯ä¸Ģ é¡¹
æ³Ħ éľ²
5 41
6 19
_ -\
d el
y al
çļĦ å»ºè®¾
ig er
éĽ ģ
ĠH ence
79 1
æĭĵ å®½
åŃĹæ®µ çļĦ
Ġcame ra
ĠCount y
' ll
çļĦ åĲĮ
æĹ¶ åĪĨ
Ġ5 00
ç¬¬ä¸Ģ ä½į
çĶ¨æĪ· ä½ĵéªĮ
é¡º çķħ
Ġtreat ing
çıł æµ·
ç¢°æĴŀ ä¸Ń
Ġconside rable
éĶ¥ ä½ĵ
Ġgir ls
f eld
Ġ åĮĹ
çļĦ çĽ®çļĦæĺ¯
Ġd S
äº§ äºİ
éħ °
ä¼ģä¸ļ åıĳå±ķ
lec t
å½±åĵį åĬĽçļĦ
Ġro of
6 46
7 19
çļĦ æĢ§è´¨
or b
åĪ° çİ°åľ¨
xi d
dis k
æĿĥ éĩį
çĽĳ äºĭ
75 3
75 4
66 4
Ġauto matically
ĠPre sident
9 41
æķ° é¢Ŀ
é«ĺ åº¦çļĦ
ç®¡ æĿĲ
Ġen erge
Ġne ither
æ±Ĥ è§£
çİ¯å¢ĥ åĴĮ
comp act
Ġspecial ized
åľ°å¹³ çº¿
4 48
Ġ è§Ĵ
Ġ ä¸įæĸŃ
åľ¨ åĵªéĩĮ
æľī è¿ĩ
ri t
éĹ ½
å¼Ģ æĿ¥
ĠH i
Ġapp lies
æĶ¯ æŁ±
èĲ½ æĪ·
åĨĻ åĩº
Ġinf ected
77 1
58 4
èĦĨ å¼±
Ġwal king
Ġdiscri min
6 12
Ġ è®°èĢħ
in formation
äºĨ ä¸¤
çĤ «
åı¯ä»¥ çľĭåĩº
è¯´æĺİ ä¹¦
ĠLo cal
) [\
çļĦ å½¢æĪĲ
en g
Ġin tric
äºĨ åĲĹ
ĠC R
çĽ¸ éģĩ
99 8
Ġocc asion
lin ation
Ġconsu me
ĠDes ign
æĺ¯ åĽ½åĨħ
å¼ ĵ
éĩı å¤§
éĩı èº«
çĪ ª
åį« è§Ĩ
æ¯ķä¸ļ äºİ
Ġdoc tors
Ġbund les
O b
U sing
Ġ é¦ĸåħĪ
Ġin ches
cal l
ä¼ļ åĦ¿
Ġop ens
99 2
åķĨä¸ļ æ¨¡å¼ı
ä¸ĭéĿ¢ å°±
æ·¬ çģ«
b ec
ä¸Ĭ ä¸İ
}) }(
åħ¬ é¡·
ĠM ass
ĠIn formation
èĢģ çĻ¾å§ĵ
Ġfas cin
Ġsched ule
ĠYang Mills
O L
O s
f ish
Ġ æľªæĿ¥
æľº æĪ¿
over ty
ä½İ èĥ½
77 7
åľ°æĸ¹ æĶ¿åºľ
éĺ´ æĢ§
Ġbur st
èµ·æºĲ äºİ
Ġstric tly
Ġspea king
Ġ å®ī
Ġg er
åĪĨ éĶĢ
åºĶ æľī
åħī éĢŁ
æĺ¾ç¤º åĻ¨
Ġthan ks
ov ascular
98 7
Ġdef ining
Ġtri p
éĶ¦æłĩ èµĽ
O D
Ġ å·´
Ġo t
ä¸į æĹ¶
ä¸į å¹¸
ä¸ļ èĢħ
ĠI r
æĸ° åªĴä½ĵ
æµ· å³¡
Ġinstruc tions
C G
Ġ ç©º
Ġ rid
çļĦ å¹³åĿĩ
Ġn itrogen
)\ }.
li ties
Ġpo inted
åŃ£ åĲİ
Ġch ick
è¯ģæį® è¡¨æĺİ
Ġyoung er
èľĤ çªĿ
+ [
6 39
i tive
åıĳ æī¬
ĠçļĦ å½±åĵį
ĠR en
ä¸¤ ç«¯
Ġca ta
erv ation
un k
ĠTheore m
| }\)
Ġ æµĭè¯ķ
Ġs hip
si t
æĿ¥ è¡¨ç¤º
çĤ¹ çĤ¹
åĽŀ èĲ½
é¦ĸ é¡µ
Ġ9 1
Ġincre di
å¡ŀ ç½Ĺ
æ¾ ľ
éŀ Ń
Ġauto ma
çĹķ è¿¹
Ġspiri t
åĨħ æľī
Ġde ma
ĠH alpha
åħ¥ äºĨ
ä¸ĸ ä»£
æ²¡æľī ä»Ģä¹Ī
Ġgen er
tur bed
èī° èĭ¦
Ġsemic lassical
Ġsupernov ae
Ġtal king
å§ĳ å¨ĺ
v ide
}. ..
è¿ĳ è§Ĩ
è®© æĤ¨
æĮ¯ åĬ¨çļĦ
99 0
65 8
åģľ çķĻ
Ġfinite ly
Ġpur su
Ġlu minous
çıį çıł
Ex p
7 26
8 40
e an
åĴĮ åı¯
å¤§ å®Ĺ
å¹¶ èİ·å¾Ĺ
è¢« äºº
æ²¡æľī äºº
Ġ9 6
åĨľ æĪ·
åį¡ å¡Ķå°Ķ
æī¹ æ¬¡
å¹¶ä¸Ķ åľ¨
Ġemerg ence
ä¸įçĽ¸ å®¹
Ġ è¿Ľåħ¥
Ġ å®ŀæĸ½
Ġb ones
åĴĮ ä¸İ
}}{ {
76 1
Ġequi pped
Ġciv il
6 16
\ #
b rate
Ġ å»º
Ġ æĮī
Ġ æ¸¸æĪı
çīĩ åĮº
éĢļå¸¸ æĺ¯
èŃ¦ ç¤º
çģ° èī²
5 24
r ys
s cript
Ġa cknow
æĿ¥ çĶµ
åľ° è²Į
ç¬ Ľ
æĹ¥ åħī
è¾¾ å°Ķ
æł¡ ä¼ģ
æ³¢ æ³¢
å°½ æĹ©
æ´ŀ ç©´
æİĴæĶ¾ çº¿
pec tives
5 32
E nd
h dots
ä¹ ĵ
ä¸º å¹¿å¤§
ĠM yr
Ġmar k
Ġris ing
åłĨ åıł
lik ely
æľĢå¤§éĻĲåº¦ åľ°
6 35
8 21
ä»¬ åľ¨
çĲ ª
å¤Ħ åĪĨ
sp ort
çĦ¶åĲİ æĪĳä»¬
æĪĳä»¬åľ¨ æŃ¤
Ġgeome trical
éĤ» è¿ĳ
Ġsuff ering
angu age
7 40
7 31
ĠS hi
åľº çĲĨè®º
tr ons
çĿĢ ä½ľ
é¢Ħ å¤ĩ
87 3
è¾© è®º
6 44
ä¸į å®ļ
æİ¥ çº³
Ġevery day
Ġbrea th
flu x
M i
ç®Ģ åİĨ
çĸ«æĥħ å½±åĵį
Ġnor thern
åĽºå®ļ èµĦäº§
Ġsho cks
èħĲèļĢ æĢ§
æĸ°åĨł çĹħæ¯Ĵ
èĩŃ æ°§
Ġdomes tic
5 39
7 30
ĠP hoto
ac ity
Ġæĺ¯ åĲ¦
mil li
8 41
e mission
g f
çĶ¨ åľ¨
æ³ķ åºŃ
Ġab ilities
å¸Ĥåľº çĽĳç®¡
çģ¯ åħ·
Ġhabita t
8 25
ä¸Ģ æĬĬ
ĠE ar
ĠK en
çĻ½ äºĳ
å¤´ èĦĳ
æĭ¬ åı·
åĬŁèĥ½ åĴĮ
ak ed
98 3
æ¬² æľĽ
Ġregard less
N H
Ġ æį¢
Ġc us
åĽĽ åĳ¨
åĲ¦ è®¤
77 9
åĩĿ èĥ¶
Ġ bf
äºº éĹ´
}) >
å°Ĩ ä¸İ
ĠL ord
ä½¿çĶ¨ æĹ¶
æ³¨ å¡ĳ
Ġti ming
éĿŀå¸¸ å¥½
Ġpe ts
80 3
80 6
Ġnec k
6 95
8 20
p tive
u a
çļĦ ç»ıéªĮ
ä¸Ģ æľ¬
ä¸Ģ åŃ£åº¦
èĢĮ è¿Ļ
ne igh
oc he
å¡ĳ æĢ§
æļ´ åıĳ
ĠCou ncil
6 27
T w
åľ¨ æ°´
åľ¨ è®¾è®¡
å°ı éº¦
éķ¿ è·Ŀç¦»
ç½ĳ çº¢
iz able
Ġ8 7
çĽ®åīį ä¸ºæŃ¢
uri ties
ev atron
æ¶¡ æµģ
æ¸Ķ ä¸ļ
7 13
Ġt rop
åĴ ª
Ġu nable
è½¬ åıĳ
ï¼ī ï¼ļ
å®¹ çº³
gra de
åħļ ç»Ħ
çĶŁåĳ½ åĳ¨æľŁ
es tiv
ä¸į åĪ©äºİ
ä¸º è¿Ľä¸ĢæŃ¥
æĸĩ çļĦ
ä¸¤ çĤ¹
åĲį é¢Ŀ
æĬ¥ éĢģ
è§Ĩ çº¿
Ġprovid ers
Ġemp h
å·¦åı³ çļĦ
A èĤ¡
D a
Ġp red
äºĨ ä¸ŃåĽ½
Ġ1 20
çŃī åĨħå®¹
å¹¶ è¿Ľè¡Į
Ġse g
é¦ĸ ä½į
ä»ĭ åħ¥
Ġinter section
åĵ¥ åĵ¥
Ġrema ined
Ġclassi fy
æĶ¿åºľä¿¡æģ¯ åħ¬å¼Ģ
Ġ å±Ĥ
Ġc row
ä¸Ń æµ·
è¡ «
è¾ ±
Ġal tern
è·¯ åı£
Ġpres erve
æĻ® é¡¿
ful ness
çĭ¬ç«ĭ äºİ
çĺ ¾
åī© ä¸ĭ
ah ler
åº§è°Ī ä¼ļ
æĿ¥ ç¡®å®ļ
Ġ\(| [
ä¸ĢèĪ¬ æĺ¯
80 7
å®£ è®²
éħ¸ æĢ§
Ġcho lesterol
ç©ºæ°Ķ ä¸Ń
éª¨ æŀ¶
å±ķå¼Ģ äºĨ
Ġconside rations
çļĦ è¿ĲåĬ¨
äºº ç¤¾
Ġle c
èĦ ĵ
Ġwa ters
åĽłæŃ¤ æĪĳä»¬
cha e
98 4
ç¤¼ ä»ª
æ³° å±±
èŀº æĿĨ
Ġagricul tural
6 22
6 34
F E
F s
çļĦ æĪĲç»©
éĩį åŀĭ
ä½¿ äºº
ĠL ow
å¸Ĥåľº ç«ŀäºī
åĭ ĭ
è¿Ļä¸Ģ ç»ĵæŀľ
Ġsol di
äºĨä¸Ģ åľº
trac tion
ä¾µ å®³
oy al
f ront
i as
p ur
z x
ä¸į å®ī
å¹´ ä¸Ń
ä¸» æķĻç»ĥ
éĤ ±
ä¼ģä¸ļ æĸĩåĮĸ
low er
è¿ŀ éĢļ
ces sion
éĺ³ åı°
Ġconstruc ting
è¿Ŀæ³ķ è¡Įä¸º
åħ¬å®ī æľºåħ³
har monic
Ġsimultane ous
Ġspar se
åĪ¹ è½¦
7 21
ĠA x
Ġbe ams
èĤ Ĩ
åīį æīĢæľª
lu de
77 3
Ġcons cious
Ġfeed ing
åºŀ å¤§
Ġresol ve
8 19
8 23
8 95
] }{
Ġ åıĳå¸ĥ
Ġ åĪĨåŃĲ
\, (\
é¢Ħ åĪ¶
åİ¿ å§Ķ
æľĢåĲİ æĪĳä»¬
ç»Ĩèĥŀ çļĦ
Ti O
Ġfermion ic
7 36
9 10
t g
åĽ½ è¶³
çŃī ä¿¡æģ¯
åĨħ åĪĨæ³Į
ĠB ack
ĠF ore
ä½ł å°±
æĿ¿ ä¸Ĭ
pa ti
77 2
ĠAr chi
ä¼º æľį
r z
s cu
ä»¥ éĺ²
äºº å®¶
ce q
ĠA lex
op timal
ĠF o
irc raft
Ġsc ri
98 2
å¸®åĬ© ä¸ĭ
ä»İä¸ļ äººåĳĺ
7 23
7 35
A re
Ġa utonom
Ġin duce
Ġwi des
ul us
æŁ ¿
é£İ çĶµ
ç»Ĩ åĮĸ
ä¿® çĲĨ
å¤± æķĪ
æŃ£è§Ħ çļĦ
ĠPla nck
Ph one
Ġ æĶ¿åºľ
è° İ
ä¸Ģä¸ª å°ı
åħ¥ åĽ´
æİ¥ ä¸ĭæĿ¥çļĦ
çľĭ å¾ħ
Ġ[ -
éĺ» å¡ŀ
Ġself consistent
Ġadap ted
5 78
9 33
w est
Ġa imed
Ġ& +
}} }\]
ä¸Ĭ èµĽåŃ£
ck et
Ġop tically
èĦ± é¢ĸ
éĿ¢ä¸´ çļĦ
æľĢå°ı åĮĸ
}_{+ }\)
6 21
7 12
8 28
u tation
Ġ äº¤
æĸ° é«ĺ
ĠE conom
çĸ ®
å¾· æĭī
)) ,\
)}\ }\)
åī§ çĥĪ
Ġconf inement
ä¿®æĶ¹ çļĦ
éĶ¥ å½¢
Ġphy si
Ġ æĹ¶åĢĻ
åľ¨ çĶŁäº§
äºº çĶŁçļĦ
åŃ¦ åŃĲ
çİ° å°Ĩ
ĠG reek
æİ¥ çº¿
äºĮ äºº
èº« çļĦ
åįİ äºº
æ¬¾ å¼ı
Ġcomple ment
ugh ter
8 18
ä¸Ĭ æĿ¥
ĠI N
å®ŀ äºĭ
çĽ¸ å·®
Ġgenera tes
ay lor
Ġcounter parts
åĪ° å¤Ħ
ç»ĵ å±Ģ
æ·± èĢķ
Ġ8 9
åįı å®ļ
Ġnon perturb
åĮħåĲ« äºĨ
Ġestima tor
ç£· éħ¸
M ulti
çļĦ èīºæľ¯
}} =-
Ġre co
é«ĺ å°Ķå¤«
ĠP T
ä¿¡ å°ģ
åİŁ åĳĬ
å¾® å¼±çļĦ
åıĳçĶŁ åĻ¨
ĠTo day
Ġ ,\\
ä¸Ģ æµģçļĦ
at o
éķ¿ ä¸īè§Ĵ
è£ħ æľī
éĵ¶ è¡Įä¸ļ
sc he
ag o
if ying
å¼ºåº¦ é«ĺ
åı¯ä»¥è¯´ æĺ¯
Ġ leq
å·¥ ä¼¤
éĩĮ åħĭ
Ġobserv ing
è§£éĩĬ äºĨ
åĩłä¸ª æľĪ
ç¡ħ èĥ¶
çļĦå¤ļ åħĥ
æķĮ äºº
8 10
k d
åľ¨ ä¸ĢäºĽ
åıĸ åĩº
æ·± æ·±
è½® å»ĵ
æľŁéĹ´ çļĦ
bo rate
Ġcompe titive
) _+
6 29
R ie
Ġ èĩªå·±çļĦ
se quently
æĪĲ å¥Ĺ
ä¸ĭ å±ŀ
çĶŁäº§ åŁºåľ°
åľĨ çĽĺ
åķĨæłĩ æ³¨åĨĮ
å¥ł å®ļäºĨ
8 39
a q
Ġm ent
ĠS r
et te
æ´» å¡ŀ
èº« å½±
äºļ å¤ª
ç¡®å®ļ ä¸º
æĳĦ æ°ı
Ġver sus
Ġargu ed
åı¯è§Ĩ åĮĸ
$ }
Ġ è½¦
ç¼ĸ ç»ĩ
åĲ¯ çĶ¨
å¤ľ æĻļ
Ġresi dual
Ġtau ght
7 17
Ġ ç§ĳ
Ġ ä»ħ
çļĦ åĮºåŁŁ
Ġa ma
ti tions
re ased
åĴĮ åĽ½å®¶
Ġre verse
èĩª èĢĥ
è¢« åĽ°
Ġob sta
å¼ł åĬĽ
éģĩ è§ģ
Ġ\(\|\ !\
Ġdoc um
v ation
Ġ âĢĿ
ä¸Ń åİŁ
end ed
ĠçļĦ äºº
éĩĳ çīĮ
ç´ł æĿĲ
çº¸ è´¨
Ġfil ters
å¹´è½» çļĦ
å®ĺæĸ¹ ç½ĳç«Ļ
å¥ĳ çº¦
magne to
comple te
7 32
Ġ æĿ¡
æĻ ĸ
ĠN ature
åĲĦ è¡Į
æĸĻ çĲĨ
ç®Ģ æĺĵ
æļĸ æ°Ķ
nor m
çī¢ è®°
Ġexponential ly
S pec
p lus
Ġ çŁ©éĺµ
çļĦ åĪĨå¸ĥ
ä¸Ģ éĿ¢
æľī å¾Īå¤§
Ġyou ve
æ¢ µ
ä¹Ĳ éĺŁ
})= -\
åĲĪä½ľ ç¤¾
æķ°éĩı çº§
ä¾§ éĿ¢
å°ıæĹ¶ åĨħ
åıĻ è¿°
Ġcomfor table
7 44
8 35
å¤ļ ä¹ħ
Ġex cha
Ġwh ic
Ġdis turb
æ£ ±
co de
98 9
å®ģ å¤ı
è¯¦ è§ģ
åıĳçĶµ æľºç»Ħ
Ġaddress ing
ç¤ºèĮĥ åĮº
Ġbat tle
Ġmine rals
V D
W h
Ġ æīĭ
ä¸ī ä½į
Ġad ver
rec ted
99 4
ç¬¬äºĮ å¤©
èĩªçĶ± çļĦ
é£İæł¼ çļĦ
( [\
9 45
L in
Ġ åŃĹ
ĠP ublic
ç¤¾ä¼ļ åĲĦçķĮ
Ġequ ally
åį¡ æĭī
Ġsupp or
éº Ł
Bigg r
theore tic
7 16
8 16
åľ¨ ç½ĳä¸Ĭ
æĺ¯ ä»ĸ
Ġfac ility
Ġcri tic
æī©å±ķ èĩ³
é¡ºåºı çļĦ
è¶ħå¯¼ æĢ§
æĤł ä¹ħ
6 24
; \\
] .}\
u g
Ġa thle
ra p
Ġmod elling
åĭĴ æĸ¯
cor relation
åŃ¤ çĭ¬
Ġheavi ly
8 78
å¹´ ä¼ļ
åĵ ©
åĩº è®©
Ġ\\ -
ĠI d
ĠH en
å¹³ éĿĻ
éĢļå¸¸ çļĦ
Ġspin orbit
Ġbelie fs
Ġrenew able
L G
ma ke
Ġd B
åĴĮ åħī
æĪĳ å¯¹
li der
çİ° ä»Ĭ
æľ¬ æ³ķ
å¤ĸ è¯Ń
Ġ{ -
æĬ¥åĳĬ çļĦ
Ġincorpo rate
8 15
8 29
æ¯Ķ åĸ»
åİ» çļĦ
ä¿¡æģ¯ ç³»ç»Ł
çĽ¸åħ³ è´Łè´£äºº
çŁŃ è·¯
æĬ½ åıĸ
ä¾µ èļĢ
Ġsubs tance
å¹½ é»ĺ
7 45
te ver
ä¸į è®¡
}} }^{
ĠI V
ä¼ģä¸ļ ç®¡çĲĨ
rea ds
Ġexperi encing
åģ¶ çĦ¶
6 14
6 48
Ġd educ
è¡Į è½¦
ç²¾ ç¾İ
çĬ¶æĢģ åĴĮ
Ġremo ving
åĹ ½
Ġcommit ment
7 29
7 64
8 48
9 12
9 64
çļĦ å®ŀéĻħ
or o
å· «
äºĨ èĩªå·±çļĦ
Ġbe e
ir ing
åĲĳ å¤ĸ
åįģ æĿ¡
Ġst one
èĬ± çĶŁ
åī§ åľº
åģı ç§»
åĢį æķ°
æĪĲç«ĭ çļĦ
Ġauthor ity
Ġaccele rated
Ġmerg ers
idel ity
P G
S K
Ġ æľºåĪ¶
is tered
åľ¨ å·¥ä½ľ
Ġme l
ç¦ ¾
æĭī åĬĽ
åŁ¹è®Ń æľºæŀĦ
ä¹Ĵ ä¹ĵ
8 32
9 44
Ġ å¤§åŃ¦
si pa
ä¸į æ»¡
ä¹Ł æ¯Ķè¾ĥ
äºĭ åĲİ
èī² æ³½
å¤´ çĹĽ
ç®Ģ çº¦
éĢģ è¾¾
åıĬæĹ¶ çļĦ
Ġreach es
Ġqualita tive
6 45
7 96
_{ [\
èĩª çĽ¸
è° ħ
ĠM ea
ç²¾ åįİ
åĽŀ è·¯
èĤ² äºº
Ġrestric tions
ĠSpec ial
Ġc ylind
äºĨ ä¸İ
éĶ ļ
å¾Ī éķ¿
ç²¾ åŃĲ
Ġpre liminary
å¥ĩ è¿¹
ĠRe la
çĿ£ æŁ¥
ä»Ĭå¹´ ä»¥æĿ¥
èĪªç©º åħ¬åı¸
è£ħéħį å¼ı
9 15
Ġ ä¸ªäºº
Ġ ä½įäºİ
æĸĩåĮĸ éģĹäº§
98 6
ä¹Į åħĭåħ°
å°ĸ éĶĲ
æ®ĸæ°ĳ åľ°
resul ts
V M
{ )}\
si mal
Ġwi der
ä¸ŃåĽ½ éĺŁ
äºĳ ç«¯
å»ºçŃĳ çļĦ
å·¥ä¸ļ åĮĸ
ç»ıéªĮ çļĦ
æĺİç¡® æıĲåĩº
lig ible
8 12
9 19
æĪĳ è¯´
è¿Ļ é¦ĸ
å¹´ çºª
æĬ¤ èĤ¤
Ġä¸Ģ æ¬¡
æĮ¥ åıĳ
ĠUn like
Ġours elves
7 46
7 95
ä¸į åħģè®¸
it ten
ä»ĸ è¡¨ç¤º
è¡° éĢĢ
èľ Ģ
å·§ å¦Ļ
New ton
7 33
Ġ å±±
Ġ çĪ±
Ġ ä»ĭç»į
çļĦ åı¯èĥ½
çļĦ ä¼łç»Ł
çĶ¨ æīĭ
tr u
ç®¡ ç½ĳ
ä»İ åĪ°
æĹł æīĢ
ä¸ī çĤ¹
å°ģ è£ħ
):= (
acc o
ä¸įåĬ¨ äº§
' |
8 11
9 18
9 21
Ġe merge
åı¯ è§Ĥ
be am
çĶµ åİĤ
Ġme al
å¤© èĬ±
åŃĺ çļĦ
Ġorgan ized
ä»£çĲĨ äºº
æįķ èİ·
* }\
9 38
ç µ
Ġ ç¬¦åĲĪ
åľ° å¸¦
çľĭ ä¸Ĭåİ»
èº« æĿĲ
ç®Ģ çĽ´
ç¤¾ä¼ļ ä¿Ŀéļľ
Ġ[ (
æŃ» åĲİ
ä¸ĸçºª æĹ¶
æĪĳä»¬åıĳçİ° åľ¨
Po isson
çģµæķı åº¦
ä¸Ń æĺ¯
å¯¹ æĴŀ
ĠI T
ä¸Ģä¸ª ç®ĢåįķçļĦ
éĹ¨ å°Ĩ
ä¸ŃåĽ½ äººæ°ĳ
çĨ ı
èĩªçĦ¶ èµĦæºĲ
}^{* }(\
æĸĩä»¶ çļĦ
å¹³è¡¡ çļĦ
æ© Ħ
äººä¸º æľ¬
Ġfos sil
Ġperman ent
æĪĳ å¾Ī
mu s
ä¼ļ åĲĮ
Ġcomp rom
ç¦ Ħ
æŃĮ åī§
)] .
Ġtechn ological
æ¯ķä¸ļ åĲİ
7 39
t ar
å¤§ æ£ļ
ä»ĸ è®¤ä¸º
ab ul
åŁº æķ°
ç¬¬ åĪĨéĴŁ
Ġass istance
æįĲ æ¬¾
Ġextrac tion
class ical
æĵħ èĩª
Ġdevi ations
7 34
9 25
B P
Ġ é»Ħ
Ġ æķĪåºĶ
ä¸Ģ æĹ¶
Ġwe ap
), }\\
å¸¦ çĶµ
Ġ9 2
Ġcollec t
v s
æĬ Ĵ
åģļ æĪĲ
æ¸© æŁĶ
è§£åĨ³ çļĦ
æīĢæľī è¿ĻäºĽ
åĩıå°ĳ çļĦ
èĢĲ çĥŃ
ä¸įåı¯ éģ¿åħį
box times
uni form
Ġvor tices
åĵģ åĳ³
ĠR ich
ä¼ĺ åĮĸçļĦ
Ġda mping
åįĹ æĺĮ
ä¾¿ æĲº
Ġsome what
^{* }_{
^+ ,
éª¨ éª
ĠMa in
åħ¼ é¡¾
åĪĢ åħ·
Ph ys
stu dy
7 28
7 43
8 30
Ġ æķĪæŀľ
Ġ éĩįçĤ¹
çļĦ åĽ½éĻħ
ä¸į æĦ¿
Ġu m
åħ¬ çĶ¨
åĲİ ä»£
ĠW hether
å°Ĩ è¿ĻäºĽ
Ġ\(( |
åħ± æĢ§
æ¸¸ çİ©
çľŁ çĽ¸
åįİ åįĹ
Ġsub stances
Ġuni queness
Ġ20 23
å¥ĩ å¼Ĥ
war zs
) }=-
b ranes
}\ }.
ĠL ine
æ²¡ ä»Ģä¹Ī
å®¹ ç§¯
ç½® æį¢
ord ination
æĬĺ æī£
çīĪæľ¬ çļĦ
mino sity
æĿľ ç»Ŀ
å·¡ åĽŀ
7 15
8 36
a ves
ĠB ro
æķ°æį® åĴĮ
åĽŀ äºĭ
åįĩ æ¸©
æĻº åĬĽ
åŃ¦çĶŁ ä»¬
ä¸įæĸŃ åıĳå±ķ
ç¥¨ æĪ¿
å§Ĳ å¦¹
Ġquas ars
Ġb lu
el la
ä¸Ń åľ¨
var kappa
åĪĻ åľ¨
Ġad mits
Ġdec ided
èĩªçĦ¶ ç§ĳåŃ¦
Ġpart ner
Ġelimin ate
Ġaccom mo
+ }\
7 41
= }\
} ~~
Ġs ick
å¤§ æĸ¹
ç¨ ½
å»º äºİ
æĽ´ éĩįè¦ģçļĦæĺ¯
ä¸ī çĽ¸
éª ļ
çĽ´ è§ī
15 00
Ġcontinu ously
Ġparticip ate
Ġpen et
Ġpreserv ing
åŃ£åĲİ èµĽ
9 22
] -\
is ations
ol den
è¿Ĳ éĢģ
å®ĥ åħ·æľī
å®Į äºĨ
}}{ (\
æ²³ éģĵ
99 1
èĤ¥ æĸĻ
Ġnec es
wh el
åįļå£« åŃ¦ä½į
Ġexpon ents
8 26
8 38
9 32
ĠT ake
ĠW illiam
å¤© åłĤ
æ£ ĺ
æĸ¯ å¡Ķ
\| <\
æ¯ı ä¸Ģæ¬¡
æīĵ éĢļ
ij kl
Ġ\| _
hy th
Ġeigenval ue
Ġsubstantial ly
9 23
j unction
w ere
Ġd ir
æľī çĶ¨çļĦ
åĴĮ æĹ¶éĹ´
æĹ¶ éĴŁ
di fferent
å¸Ĥåľº ä»½é¢Ŀ
Ġdo or
å¾ģ éĽĨ
åĸĦ èī¯
ãĢģãĢģ ãĢģãĢģ
å¾®ä¿¡ åħ¬ä¼Ĺåı·
çīĽçļ®çĻ£ çļĦ
é¥± æ»¡
æ¦Ĥæĭ¬ äºĨ
ĠJew ish
9 14
b id
| }{\
Ġ å¯¼
çļĦ åĢ¼
çļĦ çĲĨå¿µ
ĠS ol
åı¯ä»¥ ä½¿
å¤ĸ åĮħ
éĥ½ åı¯
Ġdec la
éĺ¶ çº§
æĭ¿ çĿĢ
åŁ¹è®Ń çıŃ
appro xi
Ġglob ally
åı¯è¡Į æĢ§
ĠA cade
Ġv ac
ĠIn f
Ġad ds
Ġinter vention
åħīè°± åĪĨæŀĲ
ä¸Ńåįİ æ°ĳæĹı
ĠComp ton
Ġbran ches
Go ogle
9 69
I X
i ence
Ġ éľĢæ±Ĥ
çļĦ æķ´ä½ĵ
text tt
pla s
æĹł äºĮ
å¸¸æĢģ åĮĸ
8 13
t to
Ġ å®¢æĪ·
ä¸į è¡Į
å¤© ä¸»æķĻ
Ġqu e
çĽ®åīį å·²
}] .
Ġupda ted
hold ers
comb ination
secu rity
Ġvulne rable
8 22
B ecause
s r
æĸ Ĳ
æĦ §
Ġ9 4
çļĦäºº ä»¬
ici ous
æĿ¾ åĬ¨
æĲľ éĽĨ
æĹ©æľŁ çļĦ
æĸľ åĿ¡
Ġ èĩ´
Ġ æķĻåŃ¦
åľ¨ æĹł
æĺ¯ ä½ł
æĽ´ ä½³
å¤Ħ æĸ¹
æ³¢ å°Ķ
pe u
ä¸ºäºĨ è®©
å»ºç«ĭ ä¸Ģä¸ª
äº¦ ä½ľ
Ġplay er
Ġprof ound
åĵ¥ä¼¦ æ¯Ķäºļ
9 31
Ġ éĺ¿
Ġ èĥ½æºĲ
èĩª æľī
æłĩ æ³¨
Ġfu ng
éĢĤ åº¦
ymme tries
Ġobtain ing
è¿İ æĿ¥äºĨ
coup ling
8 44
å ¬
Ġ çĽ¸æ¯Ķ
åĴĮ ä½İ
ä¸İ åıĳå±ķ
æł· å¼ı
&= (
cy c
å´ Ń
Ġformu lated
Ġbig gest
x F
åı¯ å°Ĩ
ä¹ĭ å®¶
peri od
Ġcross ing
lent y
èĤĿ èĦı
çº¬ åº¦
æ®ĭçĸ¾ äºº
çĲī çĴĥ
Ġ å¤ª
Ġc ru
Ġe mit
æĸ° ä¸Ģè½®
Ġv ar
è®¡ çĶ»
Ġte tra
æ¥ ł
Ġdef ect
ä¸»ä¹ī çļĦ
ç¾½ æ¯Ľ
Ġaccep ted
Ġinstal led
Ġp y
åĪĨ å½¢
_{\ {\
è¿ĩ å¾Ģ
èĬĤ çļĦ
åĪĹ åĩº
åĬ¿ èĥ½
å®ŀéªĮ ç»ĵæŀľ
8 96
9 35
åĲĪ ä¸Ģ
å¼Ģ æºĲ
Ġmo od
Ġse mig
Ġti p
çĦ¶åĲİ åľ¨
_* \
: (
d in
y er
ĠD avid
ĠWe yl
è¢« è¯ģæĺİ
99 3
sh ell
å½Ĵ åĽłäºİ
åħ±åĲĮ çļĦ
è·¨ åĽ½
Ġcyc lic
irich let
8 47
d ge
Ġ æĮĩ
Ġ æĵįä½ľ
mb al
ĠC D
æ°Ķ ç®¡
Ġj unction
ard ed
})= {\
å¸Į å°Ķ
è¶ĭ äºİ
æĹ¢ æĺ¯
Ġproof s
t ty
be en
ĠR os
èĩ³ ä¸Ĭ
lic e
èĪª çº¿
Ġcondi tional
åı³ æīĭ
éķ¿æľŁ ä»¥æĿ¥
æ¾ ¡
è¾Ĳ çħ§
æĳ© å°Ķ
Ġbur ning
Ġreli ability
sha ped
] },
i mple
r ical
Ġ æ£Ģæµĭ
çļĦ å¤ĦçĲĨ
ä¸į æĺİ
}} }=\
sp lit
å¾· çļĦ
ç©ºéĹ´ ä¸Ĭ
In te
æ°´å¹³ åĴĮ
æĻ®éģį æĢ§
Ġpas sing
9 78
a king
Ġs olu
ir us
ç»ĵ æł¸
çİ¯ çĬ¶
åįĥ ç±³
çĨŁæĤī çļĦ
Ġine lastic
8 17
9 36
Ġe mitted
)= \)
çĿ ¹
éĤ µ
ä¸ĵ è®¿
Ġcha nces
æİ§åĪ¶ åľ¨
å¸Į æł¼æĸ¯
liz ation
çļĦçĥŃ æĥħ
åĢ¡ è®®
8 43
Ġ ç»Łè®¡
Ġin jection
å°Ĩ è¦ģ
æµģ åĬ¨çļĦ
å¾Ī ç®Ģåįķ
éĽĨ æĿŁ
æ£Ģ çĸ«
ç§ĳæĬĢ æĪĲæŀľ
çĨ µ
è¿ĺæľī ä¸Ģä¸ª
;\;\ ;\
åĺ Ľ
Ġconsistent ly
Ġsyn chrotron
U nderstanding
åĪĨ éļĶ
è¡Į ä½¿
ç½ĳ æ°ĳ
å§ ¨
æķĻ å¯¼
å¥¹ åľ¨
æ´Ľ éĺ³
Ġrelev ance
Ġmor ning
Ġassemb ly
\ ;\;
a ment
la tory
Ġb rac
li ers
ä¸İ äºº
Ġqu oti
é¢Ŀ åº¦
çļĦçĶµ å½±
Ġglob ular
Ġbackground s
8 69
i versity
æĺ Ĭ
ed uce
ä¸Ń åº¦
å¤§ çĲĨ
æĪĳä»¬ è®¡ç®ĹäºĨ
op y
éĥ½ éĿŀå¸¸
åģ¥åº· åıĳå±ķ
ä¸įå°ĳ äºİ
éľĩ æĴ¼
Ġresis tivity
èĨ³ é£Ł
7 97
è¦ģ æ¯Ķ
æĪĳä»¬ ä»¥
åĬ¨ çī©çļĦ
åħ¨ æĹ¥åĪ¶
ä½¿ ä»ĸ
co th
åĿļ å¼º
æ°¸ æģĴ
Ġocc u
ĠTho mas
éª¨éª ¼
9 26
C y
å¦ ĥ
è®¡ æĹ¶
ĠN ever
èµ· ä¼ı
åıĳå±ķ è§ĦåĪĴ
èĢĥ çłĶ
åħĭ åĬĽ
)+ (\
åħ° çī¹
åĨĻ åŃĹ
8 27
k ip
çļĦ æĪĲåĬŁ
ä¸Ģ ç¯ĩ
Ġb row
el led
é«ĺ æĸ°
çŃī åĢ¼
åħ¥ éĹ¨
Ġaccu mu
åįµ å·¢
diff usion
9 27
9 55
Ġ ell
Ġp ed
ä¸Ń èĢĥ
æŀ ķ
èĥ½ ä¸įèĥ½
Ġv an
ĠF ree
è¥ Ħ
ä½ľçĶ¨ ä¸ĭ
æ²Ļ é¾Ļ
æ²¿ çº¿
Ġfrac tions
å®¿ ä¸»
Ġsal es
Ġdeb ris
ĠChi ld
Ġtrajec tories
8 97
j x
}) )=
ff e
éĥ½ çŁ¥éģĵ
ry ing
æĶ¯æĮģ çļĦ
é¦Ļ æ°Ķ
è´Ŀ å£³
éĿ¢ä¸´ çĿĢ
Bigg l
ĠChi ldren
æ¸ħåįİ å¤§åŃ¦
åĲĦç§įåĲĦ æł·çļĦ
9 47
Ġp ray
Ġp ix
è¿Ľ åĩº
æŃ£ å¤Ħäºİ
çĲĥ çĬ¶
Ġfu nds
å¼Ĥ å½¢
å¢ŀåĬł èĢĮ
äºĨè§£ äºĨ
ä¸īè§Ĵ æ´²
äº¤åıī çĤ¹
9 43
çī ¡
æĪĳ å¸ĮæľĽ
æĸ° åŀĭçļĦ
ä½ł çŁ¥éģĵ
é¥ ¥
å¿ħ å¤ĩ
åĨľ æľº
çļ® æįŁ
åĨ· éĿĻ
åĸľ æĤ¦
æ´Ľ æĿī
9 40
Q C
W al
Ġ æľºæŀĦ
Ġc uri
Ġsta ke
è¿ĻäºĽ éĥ½æĺ¯
è§Ĵ èĲ½
æĶ¿åºľ éĩĩè´Ń
æķĪæŀľ å¥½
Re ad
Ġche mistry
ii i
ĠIsla nd
åĴ³ åĹ½
åį¡è·¯ éĩĮ
l r
Ġ è§Ħæ¨¡
çļĦ èĮĥåĽ´
åĴĮ æķ°æį®
åĽ½ åºĨ
æĪĳä»¬ ç»ĻåĩºäºĨ
Ġpro sp
çİ¯å¢ĥ æ±¡æŁĵ
force ment
Ġfair ly
åįİçĽĽ é¡¿
9 29
åľ¨ æĹ¶éĹ´
)\ |_
å¹´ ä»»
ĠA m
åĲİ åı°
ĠC ur
èĢĮ å®ļ
ä¸» è½´
éħ ª
æł¼ æłħ
åħĭ ç½Ĺ
æ¥¼ æ¢¯
Ġsyste matically
Ġmeaning ful
å¦¥ åĸĦ
é¾Ļå¤´ ä¼ģä¸ļ
B er
çļĦ åİŁ
ra nd
Ġ1 50
ĠI ll
ä¹ĭ ç¾İ
è°ĥ çĲĨ
æ¯ı äºº
çº¦ æľī
èĨľ çļĦ
å¿«éĢŁ çļĦ
è£Ĥ çº¹
7 48
çļĦ åŃ©åŃĲ
æĸ° æµª
åĬł çıŃ
æĬĢ èīº
è¿Ļä¸Ģ éĹ®é¢ĺ
æĿ¥è¯´ æĺ¯
å¡« è¡¥
çļĦåľ° ä½į
Ġou ts
T D
çļĦ éĺ¶æ®µ
æĪĳä»¬ å¿ħé¡»
æĢ§ è´¨çļĦ
çĥŃ éĹ¹
éŁ³ åĵį
çģ« çĪĨ
åı¦ è¡Į
èµ¤ éģĵ
9 46
çĲ ¦
od al
ç»Ł ç§°
ä½į åĪĹ
ç»´ ç»´
ç±³ å°Ķ
ors es
ucle ar
å¹³éĿ¢ ä¸Ĭ
ç¨Ģ åľŁ
æķ°åŃĹåĮĸ è½¬åŀĭ
é¢ģ å¸ĥ
Ġfacili tate
Ġprescri bed
N on
è ĺ
Ġ ä»·æł¼
Ġs li
Ġs igni
ä¹ ¾
åĲį äºº
åħ± åıĺ
çĹħ çĹĩ
åıĮ æīĭ
98 1
Ġdetec ting
æļ´ éĽ¨
Ġcontribu tes
Ġir ri
æŃ§ è§Ĩ
Ġdistor tion
æ°¨åŁº éħ¸
Ġcalib ration
8 31
9 37
la ble
å° ¬
è¿Ļ ä»¶äºĭ
Ġg luc
ä¸» æĴŃ
æŀľ å®ŀ
æ¯Ķ ä¸Ĭå¹´
æľĪ ç»ı
ä½Ĩ å¯¹äºİ
çĪ· çĪ·
Ġdeco herence
W A
Ġm ort
æµ Ĭ
æĪĳä»¬ å¼ķåħ¥
çŃī ä»·
éĿ¢ è²Į
ĠP ot
Ġhel ium
Ġencou n
Ġwild life
å®ŀ æĥł
op la
åĮ» çĶŁçļĦ
æĥħåĨµ çļĦ
åĲĮæĹ¶ ä¹Łæĺ¯
co in
Ġter min
åī¯ æľ¬
æ¨¡åĿĹ åĮĸ
mas sive
Ġjus tice
Ġguaran tee
Ġf alls
ĠH ome
åı¯ä»¥ è¾¾åĪ°
å·¥ä½ľ åĴĮ
{( }(-\
çļ® å¸¦
ç«¯ åı£
Ġsec ret
æ¯Ĵ ç´ł
Ġemp ty
éľĩ åĬ¨
çĽ¸å¯¹åºĶ çļĦ
= +
Ġ ç³»åĪĹ
ä¸º èĩªå·±
è¶ħ å¼º
å»¶ æľŁ
Ġprefer red
w orth
Ġ åİŁåŃĲ
é£İ è²Į
æī© å»º
ä¿ĥè¿Ľ äºĨ
æľĿ éĺ³
Ġreview ed
æ©Ħ æ¦Ħ
9 48
} ''
çļĦ æĵįä½ľ
ä¸ļ ä½Ļ
è¿ĩ åī©
åı¯ä»¥ æĬĬ
Ġme als
}}\ |
åħ¬åı¸ æĭ¥æľī
åĲĳ ç¤¾ä¼ļ
Ġev apo
ç¥ŀ åľ£
èģļ ä¼ļ
Ġconstant ly
ĠNew s
Ġavoid ing
Ġsuperi or
Ġunexp ected
9 34
k v
ï¼ Ĳ
Ġf elt
åĴĮ ä¸ª
å¯¹ ä»ĸ
æĹł åı¯
èĢĥ è¯ģ
ding er
Ġaff ecting
Ġinfer red
Ġagricul ture
in ten
çļĦ çī¹
å® µ
ä»¥ åĲİçļĦ
^{- }(
ä¸ī å¤©
åĽŀ åİ»
ä¿ĿæĬ¤ åĮº
Ġfac ed
Ġbos onic
Ġadj ac
çµ ®
Ġ å¸ĮæľĽ
å¹ Ĥ
å¼Ĥ åĳ³
æĸĩä»¶ å¤¹
èµ¶ ç´§
åĽ½æľī ä¼ģä¸ļ
æ£Ģå¯Ł éĻ¢
teen th
N R
Ġ äº¿
me ters
æĺ¯ ä¼ģä¸ļ
ri tis
ä»¥ æ»¡è¶³
æĭ Ĳ
ç²¾ æ¹Ľ
åħħ å®ŀ
æ¯Ķäºļ è¿ª
ç» ŀ
}{ -\
åĽ½ ä¼ļ
çĽ¸ æ¯Ķè¾ĥ
Ġde ple
æĺİ äºĨ
è£ħ æľº
Ġ3 00
Ġmod ifications
rea k
è®¾è®¡ ä¸İ
è¯º è´Ŀå°Ķ
ä½įç½® çļĦ
è¯ļ å®ŀ
åıĺå¾Ĺ æĽ´åĬł
æĭ¼ æİ¥
Ġ ç»ıè¿ĩ
Ġ ç»§ç»Ń
ga cy
è¿Ļ åľ¨
åĬ¨ åĬ¨
äºļ åİĨ
Ġinter po
æ¡Ĥ æŀĹ
è¾Ī åŃĲ
æ¶Į çİ°
9 39
Ġ ä¸Ĭæµ·
ä¸Ń æıĲåıĸ
Ġ\(- \)
Ġv oc
ĠM S
Ġk ill
å·¥ä½ľ æķĪçİĩ
å¤ĩ çĶ¨
æĸ¯ é¡¿
Ġca st
çĲĨè®º ä¸İ
è¯į æ±ĩ
Ġlea f
Ġdra g
Ġsustain ability
Ġ æĤ£èĢħ
ä¸Ń åħ·æľī
ä¸º ä¸Ģä½ĵ
ĠS igma
æŁ ł
æ°´ æµģ
çĽ´ è§Ĵ
ĠTh ree
è¿Ļç§į æĸ¹å¼ı
çº¢ åĪ©
åİ¿ åŁİ
æĭ¿ åĩº
åĢį çļĦ
ä¸² èģĶ
Ġpara dig
multi ple
9 17
C EO
Ġ åħŃ
Ġb onds
ä¸Ń åĲ«æľī
ä¸Ĭ å±Ĥ
é«ĺ éĽĦ
ĠS P
å¹¶ è¯ģæĺİ
Ġde vel
åı° éĺ¶
Ġ9 3
åĽłä¸º åľ¨
å®Ŀ é©¬
åĪ¶éĢł çļĦ
Ġgrea test
å¤ļæł· åĮĸ
Ġhierar chical
Ġconsum er
ä¸į ä¸Ģ
åŃ¦ ä¸ļ
us er
å°Ĩ æľī
æİ¨ è¿Ł
åħ¶ä¸Ń ä¸Ģä¸ª
æ¹ĸ æ³Ĭ
Ġgreen house
Ġcarry ing
Ġ }(\
Ġ æĮĩæķ°
çļĦ å£°éŁ³
ä¸Ģ åħ±
ä¸Ń è¥¿
ä¸Ń å¾Ĺåĩº
çĶ¨ å·¥
åŃĲ ä¸Ĭ
ĠR ussian
ĠN atural
Ġsimple st
ĠSp ect
çŁ¥åĲį åĵģçīĮ
Ġsatelli tes
èģĶè½´ åĻ¨
o ma
Ġd f
äºĨ åĩł
to pe
çŃī ä¸Ģç³»åĪĹ
æĸĩ æ¡Ī
åįĩ èĩ³
è¯Ŀ è¯´
åĤ »
éĶ® çĽĺ
éĻĦ çĿĢ
æĪĳåĽ½ çļĦ
éļĲ åĲ«
Ġtru nc
Ġattemp ts
åĩıéĢŁ æľº
çĭ® åŃĲ
Ġ æŀĦ
çļĦ ä¾ĭåŃĲ
åıĤ ä¿Ŀ
åıĳçĶŁ åıĺåĮĸ
Ġparame tri
æĲº ç¨ĭ
åºŁå¼ĥ çī©
N ot
Ġ æŁĲäºĽ
ä¸į ä¸Ģèĩ´
è¦ģ çĶ¨
æ¶ ©
Ġlo ts
éĤ£ æĺ¯
Ġph ra
æī¾ ä¸įåĪ°
Ġlow mass
Ġset t
æĥĬ äººçļĦ
ä¸¾åĬŀ äºĨ
Ġaccomp anied
8 34
9 30
mb ing
çĽ¸ èģĶ
çĽ¸ ä¸Ģèĩ´
ĠB ell
èģĶ æĥ³
Ġab stract
Ġfe a
ç½ĳç«Ļ ä¸Ĭ
èĦīåĨ² æĺŁ
Ġsemiconduc tor
ä¸Ģ è¾Ĩ
çİ° ä»»
ĠM as
ç± ½
é£ Ļ
åŁº å»º
è¯¥ äº§åĵģ
Ġac tively
æĬķèµĦ äºº
æĿŁ ç¼ļ
Ġprob abilistic
ç©Ĩ æĸ¯
Ġciv ili
Ġben ch
å·ħ å³°
Ġdema nds
] }{\
Ġ æĸ¹æ¡Ī
Ġ ä¿ĿæĮģ
Ġd w
cal es
åľ° å°Ĩ
Ġmo ral
å·¥ç¨ĭ çļĦ
äº² åĪĩ
Ġmu on
Ġaccount ing
ĠRep ublic
æ´ĽæĿī çŁ¶
l tra
Ġ å·®å¼Ĥ
é«ĺ åĩº
çľŁ äºº
åįİ å¤ı
Ġinterac tive
åĴ¨è¯¢ æľįåĬ¡
Ġcli ents
èĬĤèĥ½ çİ¯ä¿Ŀ
Ġdeep ly
Ġanalog ue
Ġconsul t
Ġpropos al
] {\
çļĦ æĸĩåĮĸ
Ġo d
an cing
Ġn erv
æķ° åįĥ
åĿ ŀ
åı¯ä»¥ ä½ľä¸º
æĽ´ æŃ£
éĿŀå¸¸ éĢĤåĲĪ
Ġcal culus
cri bed
pa per
çķħ éĶĢ
Ġfric tion
9 24
a fter
Ġ éĶĢåĶ®
Ġ æĿ¥æºĲ
äºĨ æĪĳä»¬
ä¸į éļ¾
åī Ķ
ĠN ext
}=\ |
è¿Ĳ åĬ¿
æĢ» åħ±
\{ -\
åĵª ç§į
Ġå¹´ æľĪ
ç§ī æĮģ
ĠMuse um
c n
Ġ æľŁéĹ´
åĩº æĪĺ
æĺİ äº®
èĬĤ æ°´
ä¸ĸ çļĦ
éĺ² ä¼ª
Ġsuper gravity
è¿Ľä¸ĢæŃ¥ æıĲé«ĺ
ä½ľåĵģ çļĦ
Ġmar ine
è·ĳ éģĵ
Ġve ter
Ġpsych ological
ç³Ł ç³ķ
Ġ ç¨ĭåºı
çļĦ åŃĲ
Ġo be
éĻį éĽ¨
åĲ¬ è¯´
Ġtur ning
ĠCa simir
Ġpass age
v y
Ġs ad
åľ¨ ä¸ĭ
ä¸Ĭ åįĬ
res sible
å¥½ è½¬
ä¿Ŀ ç®¡
è¶ħ å¤§
å¯¹äºİ ä»»ä½ķ
Ġga ined
Ġwho m
æ´Ĺ åĩĢ
vers ely
çĳ ¶
å½Ĵ ä¸Ģ
Ġcrea tivity
ĠLa ke
Ġ çŁ¥éģĵ
Ġs old
ta kes
ent y
}) :=\
å¤ĸ æĿ¥
èµ· çļĦ
æ¸© å·ŀ
Ġab o
è¡Įä¸ļ åĨħ
Ġequ ality
è¡¨ç¤º ä¸º
çķ¥ æľī
Ġtra ding
éĩįéĩı è½»
ç¤¾äº¤ åªĴä½ĵ
éĺģ ä¸ĭ
Ġvic inity
c ount
ĠA nt
çİ° è´§
ĠS ystems
èĢĮ çĶŁ
dis tribution
log y
ph onon
sh ort
Ġsmo king
Ġsatu ration
I ns
}, -
ç»ı çĶ±
å¼º åĽ½
çĹ ´
èģĶ æīĭ
èĻ Ĳ
Ġ9 8
men s
åĲ¸ åħ¥
åį¡ æĸ¯
æĭ¥ æĬ±
Ġsimu late
titu des
ä¸¥æł¼ æī§è¡Į
fo ot
9 28
B on
äºİ æŃ¤
Ġi tera
äº§ åŃ¦
é£İ éĢŁ
åĽ¾ è±¡
åŃĺ æ´»
é¢Ĩ è·ĳ
å±Ĥ éĿ¢çļĦ
åĪĩ çīĩ
æĺİç¡® äºĨ
Ġfla re
ä¿Ŀæ¸© æĿĲæĸĻ
Ġir re
Su per
Ġban ks
åıĹæ¬¢è¿İ çļĦ
Ġswe et
a S
Ġ å¼Ģå±ķ
åľ¨ åĲĮä¸Ģ
æĺ¯ åħ¨çĲĥ
åį Ĵ
to t
å±Ģ çļĦ
Ġcalcu lating
Ġdel ive
æķ£çĥŃ åĻ¨
Ġeth ical
ĠAb out
Ġ å¸®åĬ©
Ġe ase
äºĨ ä»ĸ
Ġpro s
åħ¬ åħĥ
åħ¬ è®¤
èĤ¥ èĥĸ
Ġwar ning
Ġrecommen dations
K a
Ġ å°ĳ
ä»¥ èİ·å¾Ĺ
he et
ĠD C
ĠD ia
æĹł æ¯Ĵ
åıį åĩ»
ç®¡çĲĨ èĢħ
gen cy
æī§è¡Į å®ĺ
i w
Ġ çī©è´¨
åı¯ éĢī
ĠA ma
Ġex ception
èĬ ľ
ç»Ń èĪª
è¿Ļä¸Ģ åĪĩ
Ġru ral
4 000
Ġ ä»¥ä¸ĭ
Ġ= :
Ġan ces
æ°´ ä½į
çłĶ ç£¨
åħ± é¸£
ä»¥åıĬ å¯¹
çª Ł
æ¯ĶèµĽ çļĦ
Ġlong term
è§ĦåĪĻ çļĦ
Ġregular ity
ä¼ĺæĥł æĶ¿çŃĸ
Ġkine matic
0 10
0 21
K M
Ġp ad
ä¸Ń éĥ½
[...]
